[PAD]	0
[UNK]	0
[BOS]	0
[EOS]	0
[SEP]	0
[CLS]	0
[MASK]	0
in	-0
▁a	-1
st	-2
te	-3
▁p	-4
▁t	-5
re	-6
▁=	-7
on	-8
▁f	-9
▁i	-10
or	-11
▁pr	-12
le	-13
li	-14
er	-15
int	-16
um	-17
▁d	-18
ra	-19
▁n	-20
▁in	-21
▁#	-22
▁re	-23
he	-24
▁print	-25
th	-26
list	-27
ti	-28
se	-29
ri	-30
▁c	-31
):	-32
▁w	-33
▁to	-34
en	-35
al	-36
un	-37
ur	-38
rite	-39
▁s	-40
tion	-41
str	-42
▁o	-43
urn	-44
turn	-45
▁return	-46
▁de	-47
ing	-48
▁the	-49
ar	-50
▁e	-51
▁num	-52
▁1	-53
yth	-54
ython	-55
ction	-56
▁"	-57
▁for	-58
▁def	-59
nd	-60
▁of	-61
at	-62
▁list	-63
▁if	-64
))	-65
▁m	-66
ge	-67
▁'	-68
ber	-69
om	-70
og	-71
▁[	-72
▁str	-73
ram	-74
▁write	-75
▁+	-76
▁fun	-77
ogram	-78
▁b	-79
("	-80
▁function	-81
ct	-82
ter	-83
▁python	-84
▁and	-85
ce	-86
ue	-87
▁program	-88
▁(	-89
▁W	-90
▁number	-91
me	-92
▁ra	-93
ate	-94
▁Write	-95
len	-96
mp	-97
▁is	-98
▁2	-99
▁P	-100
▁0	-101
lo	-102
ut	-103
ke	-104
▁di	-105
▁v	-106
di	-107
ul	-108
up	-109
▁g	-110
an	-111
1,	-112
ort	-113
oun	-114
▁se	-115
de	-116
▁:	-117
0,	-118
num	-119
()	-120
la	-121
ord	-122
▁x	-123
put	-124
▁string	-125
nge	-126
▁res	-127
▁te	-128
hi	-129
ts	-130
key	-131
',	-132
alue	-133
ven	-134
▁==	-135
▁range	-136
")	-137
▁3	-138
ap	-139
ve	-140
▁el	-141
si	-142
ount	-143
▁Python	-144
▁else	-145
▁{	-146
ver	-147
us	-148
▁-	-149
▁l	-150
rom	-151
end	-152
",	-153
ch	-154
ot	-155
ss	-156
rea	-157
▁th	-158
men	-159
▁imp	-160
▁len	-161
ow	-162
▁*	-163
iven	-164
ck	-165
▁5	-166
ol	-167
▁y	-168
ind	-169
▁import	-170
▁4	-171
▁from	-172
lf	-173
ary	-174
lemen	-175
qu	-176
it	-177
2,	-178
▁T	-179
▁whi	-180
▁or	-181
▁sum	-182
▁test	-183
▁given	-184
('	-185
▁value	-186
▁C	-187
')	-188
ted	-189
],	-190
▁that	-191
▁numbers	-192
ub	-193
ir	-194
ll	-195
ult	-196
▁N	-197
▁r	-198
00	-199
dict	-200
ha	-201
▁%	-202
▁ma	-203
uple	-204
ist	-205
wo	-206
])	-207
▁key	-208
ig	-209
▁an	-210
▁count	-211
▁input	-212
loat	-213
The	-214
ame	-215
▁6	-216
▁con	-217
dd	-218
▁j	-219
tem	-220
▁F	-221
ime	-222
▁S	-223
ase	-224
ma	-225
heck	-226
ith	-227
▁word	-228
per	-229
▁>	-230
id	-231
▁not	-232
▁two	-233
5,	-234
is	-235
▁cal	-236
ation	-237
▁elemen	-238
ndom	-239
▁result	-240
List	-241
':	-242
▁find	-243
ctionary	-244
▁<	-245
▁int	-246
el	-247
res	-248
1)	-249
gth	-250
app	-251
▁us	-252
es	-253
time	-254
▁com	-255
▁all	-256
mo	-257
get	-258
▁+=	-259
▁ar	-260
..	-261
▁le	-262
et	-263
float	-264
ci	-265
▁st	-266
pe	-267
fi	-268
1]	-269
▁with	-270
▁while	-271
__	-272
4,	-273
▁ne	-274
inal	-275
xt	-276
ble	-277
input	-278
orted	-279
0]	-280
2)	-281
ht	-282
▁dictionary	-283
string	-284
▁7	-285
▁8	-286
nce	-287
append	-288
▁check	-289
▁self	-290
da	-291
),	-292
word	-293
ine	-294
pa	-295
irst	-296
▁date	-297
▁2,	-298
▁A	-299
▁0:	-300
to	-301
3,	-302
self	-303
tr	-304
▁I	-305
▁random	-306
▁tuple	-307
low	-308
▁10	-309
▁4,	-310
▁time	-311
▁D	-312
▁my	-313
▁h	-314
==	-315
▁as	-316
od	-317
▁are	-318
▁Pr	-319
ters	-320
ed	-321
▁k	-322
art	-323
":	-324
--	-325
sp	-326
():	-327
rue	-328
▁fi	-329
▁9	-330
ear	-331
test	-332
move	-333
rac	-334
vert	-335
▁sub	-336
▁end	-337
lit	-338
**	-339
▁by	-340
cul	-341
▁3,	-342
▁R	-343
lif	-344
tems	-345
ray	-346
▁",	-347
ta	-348
lass	-349
umber	-350
ger	-351
verse	-352
of	-353
dex	-354
▁ch	-355
ly	-356
qua	-357
▁elif	-358
1):	-359
▁inte	-360
▁using	-361
gle	-362
▁max	-363
que	-364
▁pa	-365
ode	-366
sion	-367
ata	-368
culate	-369
con	-370
mb	-371
▁temp	-372
harac	-373
▁comp	-374
▁get	-375
for	-376
▁/	-377
tive	-378
mal	-379
op	-380
▁5,	-381
▁[]	-382
▁which	-383
▁values	-384
one	-385
1:	-386
([	-387
1[	-388
▁ex	-389
name	-390
val	-391
▁la	-392
ance	-393
▁words	-394
act	-395
tring	-396
▁Program	-397
▁it	-398
▁True	-399
▁sorted	-400
!=	-401
we	-402
ener	-403
▁class	-404
os	-405
ze	-406
▁new	-407
▁set	-408
""	-409
En	-410
ft	-411
▁elements	-412
upper	-413
value	-414
▁first	-415
▁element	-416
▁orig	-417
set	-418
▁length	-419
il	-420
split	-421
arr	-422
tera	-423
▁calculate	-424
nt	-425
its	-426
oin	-427
▁si	-428
▁dig	-429
ac	-430
ect	-431
mbda	-432
alse	-433
▁un	-434
gest	-435
lower	-436
▁charac	-437
▁original	-438
▁add	-439
count	-440
ks	-441
▁he	-442
▁[1,	-443
date	-444
(1,	-445
etwe	-446
olum	-447
etween	-448
8,	-449
ali	-450
cur	-451
▁arr	-452
ff	-453
nte	-454
▁alist	-455
▁between	-456
ty	-457
mat	-458
Enter	-459
alist	-460
▁G	-461
▁6,	-462
sort	-463
▁convert	-464
][	-465
▁li	-466
number	-467
())	-468
quare	-469
vi	-470
7,	-471
pla	-472
)):	-473
▁z	-474
▁integer	-475
)-	-476
dius	-477
6,	-478
▁returns	-479
▁remove	-480
2):	-481
▁Number	-482
▁datetime	-483
[0]	-484
▁False	-485
▁per	-486
cep	-487
son	-488
▁reverse	-489
cond	-490
▁start	-491
est	-492
▁{'	-493
items	-494
(0,	-495
mon	-496
ise	-497
▁1,	-498
▁ta	-499
ight	-500
actor	-501
▁index	-502
▁L	-503
ces	-504
ute	-505
▁ele	-506
angle	-507
inary	-508
▁math	-509
ad	-510
quen	-511
▁area	-512
ntence	-513
)]	-514
join	-515
mple	-516
stance	-517
eri	-518
rig	-519
}")	-520
▁brea	-521
▁en	-522
ulti	-523
sum	-524
fter	-525
ther	-526
▁whe	-527
our	-528
rence	-529
▁dict	-530
length	-531
bj	-532
pr	-533
▁")	-534
▁M	-535
cate	-536
ound	-537
place	-538
ip	-539
▁Re	-540
▁!=	-541
▁K	-542
▁char	-543
gs	-544
ari	-545
▁sort	-546
▁let	-547
▁break	-548
(1	-549
ex	-550
▁tot	-551
▁user	-552
lement	-553
▁B	-554
▁on	-555
atri	-556
owel	-557
▁V	-558
ent	-559
ultip	-560
▁name	-561
argest	-562
1.	-563
age	-564
-1]	-565
▁min	-566
olume	-567
▁"))	-568
▁even	-569
enerate	-570
ols	-571
▁List	-572
''	-573
▁E	-574
file	-575
▁100	-576
▁file	-577
com	-578
▁[[	-579
▁ha	-580
)->	-581
▁po	-582
tuple	-583
ations	-584
▁after	-585
▁total	-586
▁String	-587
as	-588
ial	-589
▁__	-590
right	-591
▁be	-592
=[	-593
▁id	-594
odu	-595
sub	-596
unct	-597
▁item	-598
ou	-599
▁<=	-600
▁no	-601
ample	-602
▁square	-603
ys	-604
0)	-605
2:	-606
ry	-607
▁1:	-608
▁sh	-609
".	-610
▁8,	-611
my	-612
idx	-613
▁lists	-614
[:	-615
▁("	-616
▁uni	-617
▁val	-618
▁base	-619
▁sentence	-620
ms	-621
▁1]	-622
ach	-623
▁In	-624
▁[1	-625
▁me	-626
radius	-627
▁ac	-628
atrix	-629
[0	-630
},	-631
▁,	-632
__(	-633
cal	-634
▁data	-635
ld	-636
▁7,	-637
erge	-638
▁take	-639
▁array	-640
='	-641
+1	-642
20	-643
]:	-644
im	-645
ne	-646
oo	-647
area	-648
▁factor	-649
2))	-650
his	-651
ower	-652
▁into	-653
','	-654
}')	-655
▁O	-656
▁U	-657
ele	-658
▁**	-659
▁{}	-660
----	-661
reater	-662
year	-663
▁"""	-664
▁equ	-665
ree	-666
case	-667
▁year	-668
ror	-669
▁ini	-670
▁ord	-671
bject	-672
']	-673
irc	-674
rip	-675
lambda	-676
▁itera	-677
12	-678
ee	-679
args	-680
▁each	-681
▁float	-682
ator	-683
]]	-684
▁at	-685
▁pi	-686
▁second	-687
hen	-688
▁{"	-689
▁row	-690
ative	-691
erence	-692
format	-693
ded	-694
▁last	-695
▁vowel	-696
▁characters	-697
dig	-698
▁>=	-699
▁mo	-700
▁binary	-701
▁multip	-702
9,	-703
Er	-704
min	-705
imum	-706
Error	-707
▁prints	-708
10	-709
fa	-710
▁u	-711
ten	-712
mpty	-713
▁0):	-714
bo	-715
lst	-716
▁pre	-717
▁keys	-718
▁upper	-719
oi	-720
▁do	-721
▁takes	-722
cm	-723
fg	-724
nums	-725
oduct	-726
▁None	-727
▁largest	-728
:{	-729
lter	-730
cimal	-731
▁line	-732
quence	-733
random	-734
▁generate	-735
char	-736
malle	-737
'.	-738
,"	-739
red	-740
....	-741
)))	-742
max	-743
tup	-744
able	-745
alid	-746
▁1):	-747
reate	-748
▁digit	-749
==0	-750
▁Di	-751
rent	-752
▁code	-753
▁tuples	-754
Di	-755
be	-756
ser	-757
▁',	-758
▁inc	-759
▁matrix	-760
▁character	-761
((	-762
14	-763
Hel	-764
ure	-765
init	-766
read	-767
rehen	-768
▁posi	-769
In	-770
▁('	-771
▁1)	-772
▁lst	-773
▁mid	-774
▁lambda	-775
▁['	-776
keys	-777
▁[4,	-778
▁digits	-779
rehension	-780
*(	-781
0.	-782
▁Con	-783
Hello	-784
▁final	-785
▁printing	-786
%2	-787
mi	-788
bon	-789
sed	-790
▁0,	-791
acci	-792
▁idx	-793
array	-794
start	-795
unctu	-796
//	-797
0}	-798
rate	-799
▁Value	-800
▁lower	-801
bonacci	-802
="	-803
:")	-804
oul	-805
▁//	-806
▁De	-807
0,0,	-808
data	-809
ould	-810
rest	-811
=1	-812
cept	-813
▁10,	-814
queue	-815
▁nums	-816
▁factorial	-817
2]	-818
day	-819
req	-820
orld	-821
path	-822
▁left	-823
String	-824
riangle	-825
▁comprehension	-826
▁odd	-827
sible	-828
words	-829
▁merge	-830
map	-831
ract	-832
upli	-833
▁can	-834
sorted	-835
▁raise	-836
uplicate	-837
2.	-838
all	-839
ral	-840
ype	-841
▁lo	-842
▁zip	-843
terto	-844
▁divi	-845
tertools	-846
bin	-847
▁9,	-848
▁al	-849
▁right	-850
▁vowels	-851
▁compute	-852
]+	-853
...	-854
:",	-855
ome	-856
pen	-857
▁0)	-858
sent	-859
▁out	-860
fference	-861
▁greater	-862
lu	-863
ro	-864
wap	-865
▁ap	-866
▁pro	-867
index	-868
▁size	-869
▁letter	-870
▁sequence	-871
-1	-872
ay	-873
▁)	-874
[1]	-875
and	-876
side	-877
indrom	-878
no	-879
▁20	-880
lease	-881
▁Given	-882
▁items	-883
indrome	-884
▁unique	-885
row	-886
)/	-887
sing	-888
aries	-889
▁prime	-890
alindrome	-891
ile	-892
lat	-893
▁spe	-894
▁text	-895
▁order	-896
▁volume	-897
▁replace	-898
ctionaries	-899
ner	-900
ust	-901
best	-902
freq	-903
ab	-904
▁cur	-905
Number	-906
▁times	-907
-1)	-908
▁#3	-909
math	-910
first	-911
itera	-912
▁create	-913
▁smalle	-914
▁Y	-915
let	-916
ong	-917
**2)	-918
ccur	-919
sive	-920
▁[2,	-921
▁tup	-922
terms	-923
▁pass	-924
▁initi	-925
▁height	-926
instance	-927
tic	-928
▁5]	-929
arch	-930
▁[5,	-931
▁its	-932
ircle	-933
ps	-934
**2	-935
pha	-936
▁12	-937
left	-938
▁20,	-939
▁open	-940
▁this	-941
▁integers	-942
[1	-943
▁#4	-944
[0])	-945
face	-946
▁col	-947
▁equal	-948
▁strings	-949
po	-950
▁X	-951
unc	-952
▁lcm	-953
▁found	-954
▁letters	-955
sh	-956
eric	-957
tain	-958
▁side	-959
ounter	-960
▁where	-961
iterable	-962
▁itertools	-963
"]	-964
).	-965
1))	-966
peat	-967
text	-968
very	-969
item	-970
check	-971
▁Print	-972
▁whether	-973
digit	-974
values	-975
▁angle	-976
oice	-977
ving	-978
urface	-979
▁empty	-980
▁every	-981
▁object	-982
▁product	-983
▁positive	-984
=0	-985
pi	-986
.14	-987
oot	-988
pri	-989
▁#2	-990
size	-991
temp	-992
ending	-993
▁inter	-994
▁power	-995
ill	-996
ity	-997
pon	-998
ines	-999
monst	-1000
▁case	-1001
▁leap	-1002
height	-1003
replace	-1004
▁demonst	-1005
ns	-1006
[::	-1007
▁["	-1008
code	-1009
sius	-1010
▁Find	-1011
▁than	-1012
▁provi	-1013
▁triangle	-1014
▁demonstrate	-1015
▁dictionaries	-1016
▁H	-1017
▁q	-1018
10,	-1019
ale	-1020
gee	-1021
pop	-1022
▁')	-1023
ress	-1024
▁map	-1025
▁inclu	-1026
▁punctu	-1027
▁distance	-1028
cd	-1029
rd	-1030
the	-1031
▁2)	-1032
▁up	-1033
fied	-1034
▁(1,	-1035
▁spa	-1036
▁Check	-1037
▁filter	-1038
▁radius	-1039
(*	-1040
3)	-1041
▁&	-1042
llo	-1043
ren	-1044
▁mm	-1045
▁we	-1046
gative	-1047
result	-1048
▁provided	-1049
▁isinstance	-1050
5]	-1051
eld	-1052
ose	-1053
+1):	-1054
func	-1055
ield	-1056
requen	-1057
section	-1058
15	-1059
▁[{	-1060
2,3,	-1061
▁The	-1062
▁fla	-1063
range	-1064
▁oper	-1065
▁vari	-1066
▁recur	-1067
numbers	-1068
▁conver	-1069
gh	-1070
▁]	-1071
=[]	-1072
ood	-1073
▁#8	-1074
▁'.	-1075
True	-1076
eeks	-1077
▁gue	-1078
▁enum	-1079
▁pair	-1080
▁Convert	-1081
▁difference	-1082
"{	-1083
ag	-1084
sc	-1085
'),	-1086
.")	-1087
20,	-1088
add	-1089
dir	-1090
tor	-1091
▁su	-1092
fine	-1093
▁ext	-1094
erate	-1095
▁make	-1096
▁only	-1097
▁type	-1098
3]	-1099
5)	-1100
0],	-1101
lay	-1102
lob	-1103
▁#5	-1104
▁#6	-1105
▁1.	-1106
find	-1107
mail	-1108
Count	-1109
geeks	-1110
▁flag	-1111
▁json	-1112
sample	-1113
▁divisible	-1114
▁Dictionary	-1115
cy	-1116
ud	-1117
100	-1118
ole	-1119
base	-1120
dian	-1121
heit	-1122
para	-1123
▁one	-1124
▁root	-1125
search	-1126
▁Using	-1127
▁Define	-1128
▁present	-1129
▁enumerate	-1130
(),	-1131
ant	-1132
▁#7	-1133
hren	-1134
ment	-1135
▁how	-1136
eries	-1137
inder	-1138
▁rows	-1139
imeter	-1140
▁occur	-1141
lection	-1142
--------	-1143
"))	-1144
(2,	-1145
ang	-1146
mid	-1147
▁os	-1148
▁sp	-1149
Dict	-1150
▁'''	-1151
▁any	-1152
caten	-1153
inter	-1154
▁accep	-1155
enerator	-1156
hrenheit	-1157
ibonacci	-1158
▁iterate	-1159
▁variable	-1160
Gfg	-1161
ick	-1162
▁-1	-1163
thod	-1164
▁app	-1165
second	-1166
▁yield	-1167
▁Remove	-1168
▁Numbers	-1169
▁contain	-1170
▁current	-1171
▁implement	-1172
▁palindrome	-1173
▁J	-1174
king	-1175
otal	-1176
▁200	-1177
▁has	-1178
▁output	-1179
▁duplicate	-1180
▁ValueError	-1181
cf	-1182
}]	-1183
ses	-1184
▁pri	-1185
▁will	-1186
▁decimal	-1187
<>	-1188
▁_	-1189
ast	-1190
out	-1191
rev	-1192
ryp	-1193
▁sc	-1194
▁pos	-1195
ssage	-1196
▁next	-1197
▁perm	-1198
▁remo	-1199
latten	-1200
object	-1201
▁except	-1202
rt	-1203
lta	-1204
opy	-1205
uff	-1206
url	-1207
{0}	-1208
▁0.	-1209
Area	-1210
▁nth	-1211
Geeks	-1212
mount	-1213
▁swap	-1214
elsius	-1215
▁Count	-1216
▁initiali	-1217
▁interest	-1218
ER	-1219
cu	-1220
1[:	-1221
ube	-1222
▁#9	-1223
▁qu	-1224
ache	-1225
roup	-1226
▁Two	-1227
▁dec	-1228
hello	-1229
▁Tuple	-1230
▁speci	-1231
▁accepts	-1232
▁maximum	-1233
'}	-1234
ai	-1235
gfg	-1236
pos	-1237
6,7,	-1238
enti	-1239
rand	-1240
▁rev	-1241
volume	-1242
▁colum	-1243
▁guess	-1244
▁should	-1245
▁multiply	-1246
().	-1247
3):	-1248
zip	-1249
▁6]	-1250
▁bo	-1251
ords	-1252
▁bin	-1253
▁you	-1254
("{0}	-1255
▁such	-1256
Sorted	-1257
▁common	-1258
Re	-1259
{}	-1260
]))	-1261
ard	-1262
ero	-1263
ric	-1264
▁#1	-1265
▁60	-1266
both	-1267
with	-1268
▁wor	-1269
otate	-1270
valid	-1271
▁inner	-1272
▁substring	-1273
(2	-1274
bs	-1275
gn	-1276
+1]	-1277
24,	-1278
Sum	-1279
▁-=	-1280
▁2:	-1281
▁Ar	-1282
4,5,	-1283
None	-1284
arks	-1285
fect	-1286
hift	-1287
▁12,	-1288
▁use	-1289
ource	-1290
▁[12,	-1291
▁have	-1292
▁hour	-1293
▁would	-1294
parated	-1295
requency	-1296
▁smaller	-1297
▁surface	-1298
ahrenheit	-1299
2[	-1300
by	-1301
'))	-1302
12,	-1303
atu	-1304
exp	-1305
new	-1306
now	-1307
▁ip	-1308
='')	-1309
Date	-1310
head	-1311
mass	-1312
mstr	-1313
ilome	-1314
ircum	-1315
punct	-1316
tract	-1317
uffle	-1318
▁same	-1319
▁exist	-1320
▁three	-1321
mstrong	-1322
▁sample	-1323
sentence	-1324
ays	-1325
cip	-1326
qrt	-1327
ush	-1328
▁Te	-1329
▁mi	-1330
[-1]	-1331
stin	-1332
▁rep	-1333
▁tra	-1334
arget	-1335
print	-1336
▁Sort	-1337
[::-1]	-1338
........	-1339
ON	-1340
['	-1341
du	-1342
▁.	-1343
any	-1344
tend	-1345
▁day	-1346
ating	-1347
wargs	-1348
▁other	-1349
'{	-1350
34	-1351
No	-1352
am	-1353
","	-1354
("\	-1355
88,	-1356
ory	-1357
rap	-1358
▁15	-1359
▁[(	-1360
▁sy	-1361
▁[3,	-1362
▁mat	-1363
▁try	-1364
incip	-1365
write	-1366
▁move	-1367
lename	-1368
▁World	-1369
▁comma	-1370
▁working	-1371
▁removing	-1372
4]	-1373
AS	-1374
["	-1375
(20	-1376
SON	-1377
[1:	-1378
led	-1379
ore	-1380
▁hi	-1381
ange	-1382
even	-1383
zing	-1384
igits	-1385
▁3.14	-1386
▁glob	-1387
▁loop	-1388
digits	-1389
factor	-1390
ongest	-1391
▁[0,0,	-1392
decimal	-1393
lements	-1394
datetime	-1395
utations	-1396
▁[1,2,3,	-1397
ilometers	-1398
▁included	-1399
▁negative	-1400
-9	-1401
."	-1402
!")	-1403
"""	-1404
gex	-1405
mit	-1406
sta	-1407
tra	-1408
uni	-1409
▁Se	-1410
cryp	-1411
ddle	-1412
sign	-1413
tage	-1414
▁div	-1415
▁par	-1416
▁ver	-1417
ument	-1418
▁show	-1419
▁based	-1420
reverse	-1421
▁repeat	-1422
▁multiple	-1423
▁initializing	-1424
▁punctuations	-1425
uc	-1426
seq	-1427
ated	-1428
city	-1429
days	-1430
here	-1431
line	-1432
ndex	-1433
oots	-1434
rect	-1435
Input	-1436
alize	-1437
fname	-1438
other	-1439
▁File	-1440
▁JSON	-1441
atural	-1442
filter	-1443
update	-1444
▁alpha	-1445
▁valid	-1446
▁Please	-1447
▁combin	-1448
▁reversed	-1449
1+	-1450
ey	-1451
ain	-1452
alf	-1453
▁((	-1454
▁wh	-1455
([1,	-1456
apit	-1457
idth	-1458
sqrt	-1459
tsai	-1460
▁45,	-1461
▁non	-1462
isect	-1463
strip	-1464
▁-1):	-1465
▁[10,	-1466
letter	-1467
letters	-1468
▁bisect	-1469
▁series	-1470
▁extract	-1471
▁flatten	-1472
▁contains	-1473
=3	-1474
CM	-1475
II	-1476
].	-1477
^\	-1478
do	-1479
"),	-1480
00,	-1481
3],	-1482
ron	-1483
▁co	-1484
1)):	-1485
Time	-1486
cess	-1487
comp	-1488
form	-1489
==0):	-1490
ength	-1491
ingle	-1492
lists	-1493
▁rate	-1494
verage	-1495
ception	-1496
isdigit	-1497
▁circle	-1498
▁method	-1499
▁recursive	-1500
1}	-1501
99	-1502
SC	-1503
fy	-1504
xa	-1505
yy	-1506
▁}	-1507
35,	-1508
cii	-1509
ini	-1510
lic	-1511
▁16	-1512
-1):	-1513
ined	-1514
inte	-1515
next	-1516
vals	-1517
▁40,	-1518
▁exp	-1519
▁hcf	-1520
udent	-1521
▁dele	-1522
▁fact	-1523
▁modi	-1524
locity	-1525
▁space	-1526
largest	-1527
▁rotate	-1528
▁Armstrong	-1529
▁collection	-1530
ep	-1531
:',	-1532
ack	-1533
col	-1534
pro	-1535
tes	-1536
two	-1537
0,15	-1538
lity	-1539
tern	-1540
wise	-1541
▁(3,	-1542
▁3],	-1543
▁Cal	-1544
▁Imp	-1545
88,12	-1546
meric	-1547
tical	-1548
▁cube	-1549
▁disp	-1550
▁mean	-1551
▁rect	-1552
▁enter	-1553
▁world	-1554
element	-1555
88,120,15	-1556
▁Fibonacci	-1557
Ch	-1558
ei	-1559
ni	-1560
ASE	-1561
Num	-1562
ken	-1563
rou	-1564
▁):	-1565
▁32	-1566
▁3]	-1567
()):	-1568
-1])	-1569
[1])	-1570
eriv	-1571
from	-1572
sole	-1573
▁(2,	-1574
▁log	-1575
▁vow	-1576
alpha	-1577
rough	-1578
▁read	-1579
▁whose	-1580
▁append	-1581
▁minute	-1582
▁single	-1583
▁console	-1584
▁through	-1585
erivative	-1586
▁smallest	-1587
▁Implement	-1588
:]	-1589
.')	-1590
0):	-1591
abc	-1592
old	-1593
▁fe	-1594
▁np	-1595
ctal	-1596
duce	-1597
isor	-1598
sert	-1599
▁Per	-1600
▁sys	-1601
empty	-1602
lines	-1603
▁days	-1604
▁form	-1605
▁your	-1606
Please	-1607
extend	-1608
python	-1609
▁group	-1610
▁reduce	-1611
▁factors	-1612
▁Generate	-1613
▁position	-1614
▁Calculate	-1615
▁operation	-1616
"}	-1617
'''	-1618
+1)	-1619
5,6	-1620
aei	-1621
cen	-1622
han	-1623
hes	-1624
oll	-1625
▁13	-1626
Data	-1627
ript	-1628
swap	-1629
▁[7,	-1630
Tuple	-1631
delta	-1632
total	-1633
▁[11,	-1634
▁less	-1635
▁sets	-1636
ssword	-1637
▁below	-1638
▁quick	-1639
counter	-1640
product	-1641
▁amount	-1642
▁target	-1643
▁shuffle	-1644
apitalize	-1645
▁frequency	-1646
▁rectangle	-1647
▁occurrence	-1648
▁intersection	-1649
0:	-1650
lt	-1651
py	-1652
2:]	-1653
44,	-1654
Sub	-1655
cel	-1656
ers	-1657
lcm	-1658
▁[4	-1659
()<>	-1660
ront	-1661
sses	-1662
sted	-1663
round	-1664
▁them	-1665
24,35,	-1666
▁Input	-1667
centage	-1668
greater	-1669
merican	-1670
▁format	-1671
▁display	-1672
▁iterable	-1673
▁fibonacci	-1674
▁derivative	-1675
+=	-1676
-0	-1677
1'	-1678
56	-1679
=2	-1680
Ne	-1681
fe	-1682
▁\	-1683
'):	-1684
))]	-1685
0-9	-1686
log	-1687
sts	-1688
copy	-1689
last	-1690
secu	-1691
▁Sum	-1692
▁cor	-1693
▁raw	-1694
▁sig	-1695
aeiou	-1696
inner	-1697
▁over	-1698
()<>]+	-1699
kwargs	-1700
remove	-1701
▁point	-1702
▁roots	-1703
ference	-1704
riginal	-1705
unction	-1706
▁choice	-1707
▁circum	-1708
▁simple	-1709
▁source	-1710
filename	-1711
secutive	-1712
▁alphabe	-1713
)[	-1714
CD	-1715
It	-1716
fn	-1717
rc	-1718
(1)	-1719
0]]	-1720
]):	-1721
ape	-1722
cre	-1723
hat	-1724
odd	-1725
ott	-1726
ous	-1727
tit	-1728
unk	-1729
▁3}	-1730
Sort	-1731
anoi	-1732
lice	-1733
▁23,	-1734
▁Com	-1735
▁big	-1736
▁cos	-1737
▁dis	-1738
▁gcd	-1739
▁url	-1740
apple	-1741
final	-1742
▁0)):	-1743
▁many	-1744
▁used	-1745
▁when	-1746
linder	-1747
square	-1748
▁Recur	-1749
▁lines	-1750
▁names	-1751
▁terms	-1752
Numbers	-1753
mension	-1754
▁Charac	-1755
▁global	-1756
▁spaces	-1757
▁minimum	-1758
▁newList	-1759
stination	-1760
▁converts	-1761
▁equation	-1762
▁iterator	-1763
▁collections	-1764
"\	-1765
({	-1766
AA	-1767
De	-1768
mm	-1769
(1/	-1770
+=1	-1771
2])	-1772
9]]	-1773
Set	-1774
cos	-1775
mme	-1776
sin	-1777
ved	-1778
▁""	-1779
▁24	-1780
▁8]	-1781
2,3]	-1782
diff	-1783
good	-1784
iles	-1785
▁(5,	-1786
▁11,	-1787
▁org	-1788
▁thi	-1789
▁top	-1790
cache	-1791
class	-1792
perms	-1793
tered	-1794
▁[[1,	-1795
▁both	-1796
▁seen	-1797
attern	-1798
repeat	-1799
▁First	-1800
▁queue	-1801
Invalid	-1802
cending	-1803
mallest	-1804
▁divide	-1805
▁nested	-1806
▁natural	-1807
▁princip	-1808
▁without	-1809
▁concaten	-1810
▁generator	-1811
▁specified	-1812
▁[12,24,35,	-1813
sv	-1814
▁^	-1815
('%	-1816
.__	-1817
000	-1818
eps	-1819
les	-1820
not	-1821
▁''	-1822
▁1;	-1823
SCII	-1824
deal	-1825
pace	-1826
type	-1827
▁''.	-1828
▁LCM	-1829
▁abs	-1830
▁doc	-1831
▁gas	-1832
▁mon	-1833
▁rom	-1834
alend	-1835
ature	-1836
▁Text	-1837
▁diff	-1838
▁join	-1839
▁mass	-1840
▁sine	-1841
▁star	-1842
[0])):	-1843
▁ASCII	-1844
▁speed	-1845
▁split	-1846
▁third	-1847
message	-1848
Original	-1849
scending	-1850
▁Celsius	-1851
▁Strings	-1852
▁another	-1853
▁average	-1854
xadecimal	-1855
▁timedelta	-1856
▁digitCount	-1857
▁duplicates	-1858
▁permutations	-1859
>=	-1860
]=	-1861
ax	-1862
ox	-1863
')]	-1864
+1,	-1865
1[-	-1866
ash	-1867
clo	-1868
hed	-1869
lib	-1870
src	-1871
til	-1872
txt	-1873
▁2*	-1874
▁2]	-1875
▁Ex	-1876
%2==	-1877
ckle	-1878
json	-1879
▁10)	-1880
▁arg	-1881
▁ctr	-1882
▁gap	-1883
▁low	-1884
Value	-1885
ested	-1886
ubble	-1887
vowel	-1888
▁adds	-1889
▁calc	-1890
▁head	-1891
▁indi	-1892
▁modu	-1893
▁zero	-1894
(2020,	-1895
Length	-1896
common	-1897
respon	-1898
▁Enter	-1899
▁[[12,	-1900
▁match	-1901
alendar	-1902
istance	-1903
randint	-1904
ression	-1905
▁Binary	-1906
▁Square	-1907
▁Tuples	-1908
▁accept	-1909
▁identi	-1910
interest	-1911
▁initial	-1912
factorial	-1913
▁modified	-1914
▁lowercase	-1915
▁uppercase	-1916
▁kilometers	-1917
▁punctuation	-1918
+(	-1919
:'	-1920
?:	-1921
ic	-1922
dec	-1923
ell	-1924
ori	-1925
tin	-1926
▁0]	-1927
▁18	-1928
▁sa	-1929
()))	-1930
[0].	-1931
hain	-1932
main	-1933
perm	-1934
▁2),	-1935
▁3),	-1936
▁[{'	-1937
▁del	-1938
email	-1939
local	-1940
merge	-1941
▁100)	-1942
▁Inte	-1943
▁args	-1944
▁comb	-1945
▁eval	-1946
ateral	-1947
choice	-1948
multip	-1949
punctu	-1950
quares	-1951
resent	-1952
verted	-1953
▁files	-1954
▁month	-1955
atrices	-1956
▁Circle	-1957
▁columns	-1958
▁divisor	-1959
▁subtract	-1960
▁perimeter	-1961
▁separated	-1962
!!	-1963
(5	-1964
1=	-1965
BB	-1966
Of	-1967
Te	-1968
To	-1969
ob	-1970
!()	-1971
//2	-1972
For	-1973
Not	-1974
]{}	-1975
dra	-1976
hex	-1977
ili	-1978
org	-1979
top	-1980
▁0;	-1981
▁25	-1982
▁3:	-1983
▁bu	-1984
▁cy	-1985
▁dt	-1986
([^\	-1987
==0:	-1988
This	-1989
]{};	-1990
half	-1991
hild	-1992
mmet	-1993
term	-1994
tial	-1995
▁(4,	-1996
▁30,	-1997
▁50,	-1998
▁[{"	-1999
▁but	-2000
▁deg	-2001
=3.14	-2002
Write	-2003
names	-2004
power	-2005
ustom	-2006
▁This	-2007
▁does	-2008
▁node	-2009
▁then	-2010
Digits	-2011
▁least	-2012
▁octal	-2013
▁their	-2014
▁width	-2015
findall	-2016
mainder	-2017
▁Matrix	-2018
▁Return	-2019
▁column	-2020
▁middle	-2021
▁nterms	-2022
▁radian	-2023
▁within	-2024
velocity	-2025
▁longest	-2026
intervals	-2027
▁document	-2028
▁exception	-2029
▁[1,2,3,4,5,	-2030
----------------	-2031
.3	-2032
/2	-2033
7.	-2034
Ar	-2035
ec	-2036
pl	-2037
':'	-2038
Per	-2039
ank	-2040
ark	-2041
bar	-2042
fib	-2043
ove	-2044
spe	-2045
▁Pa	-2046
(100	-2047
:"))	-2048
Best	-2049
limi	-2050
posi	-2051
▁Num	-2052
stamp	-2053
binary	-2054
unique	-2055
▁regex	-2056
▁mylist	-2057
▁person	-2058
elements	-2059
▁perfect	-2060
perimeter	-2061
▁inclusive	-2062
88,120,155]	-2063
%7	-2064
11	-2065
3.	-2066
9.	-2067
Pr	-2068
})	-2069
"])	-2070
-2]	-2071
6,7	-2072
cat	-2073
foo	-2074
ize	-2075
rix	-2076
var	-2077
▁*=	-2078
▁4:	-2079
▁7]	-2080
▁If	-2081
▁Sh	-2082
▁To	-2083
ding	-2084
hour	-2085
imal	-2086
rder	-2087
ting	-2088
ular	-2089
▁1],	-2090
▁Add	-2091
▁Set	-2092
▁age	-2093
▁ans	-2094
▁{1:	-2095
5,6],	-2096
8,9]]	-2097
eting	-2098
limit	-2099
]{};:'	-2100
apping	-2101
lasses	-2102
mation	-2103
matrix	-2104
▁named	-2105
▁shift	-2106
isalpha	-2107
▁[[0,0,	-2108
▁degree	-2109
triangle	-2110
▁celsius	-2111
▁message	-2112
▁password	-2113
▁possible	-2114
3}	-2115
4)	-2116
6)	-2117
6]	-2118
8]	-2119
TS	-2120
eq	-2121
ml	-2122
zz	-2123
(0)	-2124
)==	-2125
,<>	-2126
50,	-2127
],[	-2128
ema	-2129
gon	-2130
htt	-2131
ked	-2132
loy	-2133
▁(-	-2134
▁22	-2135
▁4)	-2136
▁au	-2137
▁pd	-2138
5,8,	-2139
Json	-2140
eros	-2141
node	-2142
rown	-2143
▁%0.	-2144
▁0.5	-2145
▁2))	-2146
▁25,	-2147
▁4),	-2148
▁5))	-2149
▁dic	-2150
▁qua	-2151
▁sol	-2152
▁{1,	-2153
**(1/	-2154
Index	-2155
Words	-2156
andom	-2157
emale	-2158
inked	-2159
ssing	-2160
tents	-2161
▁1000	-2162
▁heap	-2163
▁high	-2164
▁repe	-2165
▁{}".	-2166
1[-2:]	-2167
dratic	-2168
prices	-2169
▁chain	-2170
▁numpy	-2171
▁price	-2172
▁reque	-2173
▁round	-2174
▁union	-2175
islower	-2176
meeting	-2177
mmetric	-2178
ressure	-2179
sertion	-2180
▁delete	-2181
▁exists	-2182
▁module	-2183
▁script	-2184
smallest	-2185
Fibonacci	-2186
separated	-2187
▁operator	-2188
▁quadratic	-2189
▁Fahrenheit	-2190
▁capitalize	-2191
▁descending	-2192
▁fahrenheit	-2193
▁consecutive	-2194
▁destination	-2195
▁hexadecimal	-2196
▁combinations	-2197
%5	-2198
(3	-2199
,'	-2200
2"	-2201
4*	-2202
4.	-2203
<=	-2204
={	-2205
AM	-2206
EN	-2207
Le	-2208
^&	-2209
hh	-2210
ww	-2211
70,	-2212
ana	-2213
dis	-2214
eek	-2215
fix	-2216
gcd	-2217
igh	-2218
nsp	-2219
obj	-2220
sha	-2221
tri	-2222
ull	-2223
utf	-2224
vel	-2225
▁(2	-2226
▁[7	-2227
▁dd	-2228
(1,2	-2229
[0],	-2230
hest	-2231
ject	-2232
mbol	-2233
rame	-2234
rime	-2235
rows	-2236
tack	-2237
this	-2238
▁"12	-2239
▁10]	-2240
▁18,	-2241
▁[8,	-2242
▁bit	-2243
0,0],	-2244
ottom	-2245
tinue	-2246
trans	-2247
▁"...	-2248
▁buil	-2249
▁hash	-2250
▁like	-2251
▁prod	-2252
▁sign	-2253
▁week	-2254
6,7,8,	-2255
cessed	-2256
myList	-2257
ration	-2258
vowels	-2259
▁strip	-2260
▁until	-2261
crypted	-2262
▁myList	-2263
▁points	-2264
▁Counter	-2265
▁[1,2,3]	-2266
▁groupby	-2267
▁indices	-2268
▁squares	-2269
processed	-2270
catenation	-2271
▁Character	-2272
▁Recursion	-2273
!"	-2274
(-	-2275
->	-2276
./	-2277
4}	-2278
IG	-2279
_1	-2280
%^&	-2281
()]	-2282
40,	-2283
Key	-2284
New	-2285
ake	-2286
ban	-2287
chr	-2288
cto	-2289
doc	-2290
hil	-2291
ock	-2292
oog	-2293
osi	-2294
use	-2295
▁'2	-2296
▁(1	-2297
▁fn	-2298
%^&*	-2299
)}')	-2300
khil	-2301
lank	-2302
load	-2303
ofit	-2304
phan	-2305
sser	-2306
▁"".	-2307
▁//=	-2308
▁5),	-2309
▁[6,	-2310
▁fib	-2311
▁obj	-2312
▁was	-2313
coded	-2314
files	-2315
ghest	-2316
given	-2317
oogle	-2318
river	-2319
sides	-2320
▁With	-2321
▁call	-2322
▁cols	-2323
▁dist	-2324
▁must	-2325
▁path	-2326
person	-2327
phanum	-2328
▁Order	-2329
▁delta	-2330
▁expon	-2331
isupper	-2332
▁,5,6],	-2333
▁,8,9]]	-2334
▁Person	-2335
▁called	-2336
▁weight	-2337
lication	-2338
multiple	-2339
▁objects	-2340
▁American	-2341
▁Function	-2342
▁compound	-2343
▁ascending	-2344
▁selection	-2345
▁multiplication	-2346
(\	-2347
-.	-2348
-[	-2349
LO	-2350
Ni	-2351
PP	-2352
_2	-2353
':5	-2354
()}	-2355
./?	-2356
2)]	-2357
9,1	-2358
=10	-2359
?:{	-2360
Con	-2361
Emp	-2362
ITS	-2363
dum	-2364
gli	-2365
hif	-2366
idf	-2367
lip	-2368
mic	-2369
off	-2370
oly	-2371
rec	-2372
tio	-2373
▁->	-2374
▁17	-2375
▁19	-2376
▁4]	-2377
▁hy	-2378
▁ms	-2379
CASE	-2380
ault	-2381
ingo	-2382
kash	-2383
lect	-2384
mong	-2385
nome	-2386
ooge	-2387
pear	-2388
push	-2389
strp	-2390
uter	-2391
xili	-2392
▁"")	-2393
▁-1,	-2394
▁15,	-2395
▁2):	-2396
▁400	-2397
▁[0]	-2398
▁fox	-2399
▁men	-2400
▁run	-2401
!()-[	-2402
%^&*_	-2403
7,3],	-2404
Array	-2405
False	-2406
ascii	-2407
bread	-2408
esult	-2409
glish	-2410
loyee	-2411
theta	-2412
tions	-2413
▁100,	-2414
▁Case	-2415
▁Even	-2416
▁copy	-2417
▁func	-2418
▁prev	-2419
▁shif	-2420
▁wise	-2421
Nikhil	-2422
ctools	-2423
insert	-2424
racted	-2425
▁Index	-2426
▁Stack	-2427
▁[4,5,	-2428
▁[6,7,	-2429
▁brown	-2430
▁cache	-2431
▁fname	-2432
▁ideal	-2433
▁local	-2434
▁miles	-2435
▁sides	-2436
breadth	-2437
rectory	-2438
version	-2439
wapping	-2440
xiliary	-2441
▁[[5,8,	-2442
▁pickle	-2443
▁prefix	-2444
▁stooge	-2445
Employee	-2446
strptime	-2447
▁Element	-2448
▁biggest	-2449
▁default	-2450
▁perform	-2451
▁student	-2452
Duplicate	-2453
▁alphanum	-2454
▁requests	-2455
responding	-2456
▁auxiliary	-2457
▁countDict	-2458
▁directory	-2459
▁functools	-2460
▁[[12,7,3],	-2461
▁sampleList	-2462
intersection	-2463
▁corresponding	-2464
▁implementation	-2465
)}	-2466
/%	-2467
/(	-2468
18	-2469
:%	-2470
CS	-2471
Is	-2472
aa	-2473
ia	-2474
pp	-2475
sy	-2476
"):	-2477
"],	-2478
%10	-2479
(10	-2480
-',	-2481
-1,	-2482
-2)	-2483
5],	-2484
:])	-2485
Aks	-2486
Ind	-2487
Yes	-2488
are	-2489
bal	-2490
cha	-2491
flo	-2492
hcf	-2493
lel	-2494
oft	-2495
sur	-2496
ual	-2497
uid	-2498
▁"%	-2499
▁8}	-2500
▁9]	-2501
▁By	-2502
▁Of	-2503
▁PI	-2504
▁ax	-2505
(10,	-2506
0000	-2507
PPER	-2508
][1]	-2509
come	-2510
fill	-2511
fore	-2512
iter	-2513
ning	-2514
tist	-2515
ueue	-2516
user	-2517
▁1),	-2518
▁16,	-2519
▁35,	-2520
▁[('	-2521
▁bmi	-2522
▁seq	-2523
Total	-2524
floor	-2525
ftime	-2526
group	-2527
marks	-2528
price	-2529
recur	-2530
regex	-2531
shift	-2532
speed	-2533
steps	-2534
▁2000	-2535
▁Comp	-2536
▁attr	-2537
▁said	-2538
%2==0)	-2539
Akshat	-2540
Random	-2541
aximum	-2542
banana	-2543
charac	-2544
combin	-2545
method	-2546
rallel	-2547
▁Tower	-2548
▁Words	-2549
▁ascii	-2550
▁email	-2551
▁parti	-2552
▁secre	-2553
▁years	-2554
surface	-2555
tically	-2556
▁Digits	-2557
▁Nested	-2558
▁access	-2559
distance	-2560
reversed	-2561
▁Integer	-2562
▁counter	-2563
▁indexes	-2564
▁radians	-2565
dimension	-2566
itertools	-2567
substring	-2568
▁insertion	-2569
▁remainder	-2570
▁combination	-2571
▁circumradius	-2572
70,88,120,155]	-2573
-%	-2574
-8	-2575
.2	-2576
21	-2577
24	-2578
45	-2579
8)	-2580
Ex	-2581
Th	-2582
[-	-2583
[.	-2584
(",	-2585
(',	-2586
)%2	-2587
1",	-2588
1',	-2589
23,	-2590
2],	-2591
30,	-2592
Val	-2593
WER	-2594
You	-2595
bit	-2596
fac	-2597
oid	-2598
ped	-2599
xed	-2600
xts	-2601
▁<<	-2602
▁HC	-2603
▁ad	-2604
▁mu	-2605
()])	-2606
+1))	-2607
3,2,	-2608
Gend	-2609
Kell	-2610
Team	-2611
ages	-2612
agon	-2613
arry	-2614
bool	-2615
ired	-2616
lean	-2617
lear	-2618
most	-2619
pack	-2620
pool	-2621
pper	-2622
ssed	-2623
surf	-2624
ucke	-2625
ults	-2626
yram	-2627
▁'))	-2628
▁(6,	-2629
▁-->	-2630
▁17,	-2631
▁24,	-2632
▁6],	-2633
▁Odd	-2634
▁dot	-2635
▁ima	-2636
▁pad	-2637
▁pop	-2638
▁ser	-2639
Kelly	-2640
Marks	-2641
Valid	-2642
ading	-2643
agram	-2644
child	-2645
crypt	-2646
erent	-2647
https	-2648
imals	-2649
ounts	-2650
paces	-2651
ssert	-2652
today	-2653
▁CASE	-2654
▁Code	-2655
▁best	-2656
▁conv	-2657
▁hand	-2658
▁need	-2659
Gender	-2660
orders	-2661
plData	-2662
yramid	-2663
▁among	-2664
▁carry	-2665
▁dates	-2666
▁hours	-2667
▁llist	-2668
▁stack	-2669
(1,21):	-2670
Reverse	-2671
celsius	-2672
student	-2673
▁Volume	-2674
▁delimi	-2675
▁inches	-2676
▁maxnum	-2677
]{};:'"\	-2678
ilateral	-2679
password	-2680
strftime	-2681
▁example	-2682
▁minutes	-2683
▁pattern	-2684
6,7,8,9,1	-2685
▁'''!()-[	-2686
Palindrome	-2687
difference	-2688
▁represent	-2689
ghestnumber	-2690
punctuation	-2691
................	-2692
.0	-2693
1_	-2694
9]	-2695
:,	-2696
Id	-2697
_)	-2698
av	-2699
gi	-2700
gy	-2701
oc	-2702
xx	-2703
)/2	-2704
234	-2705
://	-2706
=",	-2707
=''	-2708
=="	-2709
One	-2710
Yay	-2711
abs	-2712
bet	-2713
ccu	-2714
der	-2715
fic	-2716
inc	-2717
inf	-2718
ive	-2719
mma	-2720
msg	-2721
ors	-2722
tan	-2723
wer	-2724
▁3)	-2725
▁5}	-2726
▁8)	-2727
▁IP	-2728
▁Ne	-2729
▁ve	-2730
)}")	-2731
=[2,	-2732
Type	-2733
ched	-2734
defa	-2735
raph	-2736
reat	-2737
▁'',	-2738
▁1")	-2739
▁3))	-2740
▁4],	-2741
▁7),	-2742
▁All	-2743
▁Dis	-2744
▁Kth	-2745
▁csv	-2746
▁dup	-2747
▁var	-2748
▁{1}	-2749
9,10,	-2750
Akash	-2751
LOWER	-2752
▁Dict	-2753
▁Gray	-2754
▁bits	-2755
▁curr	-2756
▁feet	-2757
▁inst	-2758
▁most	-2759
▁poly	-2760
,<>./?	-2761
Choice	-2762
dition	-2763
energy	-2764
▁Lists	-2765
▁Shape	-2766
▁force	-2767
▁roman	-2768
▁table	-2769
▁taken	-2770
▁today	-2771
default	-2772
erature	-2773
termine	-2774
▁Driver	-2775
▁assert	-2776
▁having	-2777
▁median	-2778
▁parame	-2779
▁sphere	-2780
▁update	-2781
9,10,44,	-2782
inverted	-2783
pressure	-2784
▁Reverse	-2785
▁[4,3,2,	-2786
▁address	-2787
▁secrets	-2788
duplicate	-2789
▁randomly	-2790
Dictionary	-2791
▁principle	-2792
▁conversion	-2793
▁resistance	-2794
▁stoogesort	-2795
▁totalMarks	-2796
ircumference	-2797
▁equilateral	-2798
▁occurrences	-2799
]{};:'"\,<>./?	-2800
▁[4,3,2,9,10,44,	-2801
(9	-2802
/*	-2803
2_	-2804
2}	-2805
ML	-2806
Mi	-2807
OR	-2808
OT	-2809
PM	-2810
[\	-2811
▁!	-2812
("%	-2813
(2)	-2814
(2*	-2815
1),	-2816
11,	-2817
1])	-2818
45,	-2819
Col	-2820
End	-2821
OfH	-2822
cap	-2823
ltk	-2824
mul	-2825
non	-2826
oth	-2827
ows	-2828
▁11	-2829
▁33	-2830
▁ob	-2831
▁tp	-2832
']))	-2833
**0.	-2834
//10	-2835
1[2:	-2836
Size	-2837
atch	-2838
ates	-2839
atus	-2840
fold	-2841
glob	-2842
leep	-2843
ligi	-2844
make	-2845
oose	-2846
play	-2847
rear	-2848
ring	-2849
tail	-2850
tity	-2851
unks	-2852
▁(7,	-2853
▁66,	-2854
▁Sub	-2855
▁[0,	-2856
▁clo	-2857
▁cub	-2858
▁hel	-2859
▁mem	-2860
▁now	-2861
▁old	-2862
▁pow	-2863
▁ten	-2864
▁tri	-2865
▁vol	-2866
1[:2]	-2867
After	-2868
IGITS	-2869
UPPER	-2870
[-1].	-2871
arser	-2872
close	-2873
ither	-2874
ollow	-2875
title	-2876
using	-2877
width	-2878
▁10},	-2879
▁400)	-2880
▁Time	-2881
▁half	-2882
▁play	-2883
▁repl	-2884
▁roll	-2885
▁uniq	-2886
1[:-2]	-2887
Format	-2888
Result	-2889
angent	-2890
elcome	-2891
nspose	-2892
static	-2893
stinct	-2894
▁"12":	-2895
▁Upper	-2896
▁Vowel	-2897
▁compa	-2898
▁doesn	-2899
▁front	-2900
▁hello	-2901
▁limit	-2902
▁multi	-2903
▁sorts	-2904
▁zeros	-2905
OfHanoi	-2906
angular	-2907
balance	-2908
longest	-2909
ositive	-2910
ultiply	-2911
▁Second	-2912
▁appear	-2913
▁custom	-2914
▁inside	-2915
▁occurs	-2916
▁parent	-2917
▁starts	-2918
casefold	-2919
ectangle	-2920
▁animals	-2921
▁encoded	-2922
▁finding	-2923
▁permute	-2924
▁results	-2925
ccurrence	-2926
▁Counting	-2927
▁calendar	-2928
▁nonlocal	-2929
▁[1,2,3,4]	-2930
▁delimiter	-2931
▁encrypted	-2932
▁percentage	-2933
permutations	-2934
▁TowerOfHanoi	-2935
▁alphanumeric	-2936
▁alphabetically	-2937
%4	-2938
);	-2939
._	-2940
/0	-2941
1/	-2942
5.	-2943
=6	-2944
AB	-2945
An	-2946
ES	-2947
LE	-2948
[3	-2949
sk	-2950
(3,	-2951
**(	-2952
1":	-2953
1':	-2954
1="	-2955
1]]	-2956
256	-2957
5])	-2958
=',	-2959
Str	-2960
TER	-2961
TML	-2962
[2]	-2963
[^\	-2964
]==	-2965
how	-2966
ker	-2967
net	-2968
raw	-2969
uck	-2970
ude	-2971
▁".	-2972
▁14	-2973
▁23	-2974
▁30	-2975
▁Al	-2976
▁[5	-2977
▁av	-2978
▁bx	-2979
▁cu	-2980
(''.	-2981
([])	-2982
."""	-2983
]+=1	-2984
attr	-2985
fibo	-2986
ists	-2987
ofan	-2988
osed	-2989
rary	-2990
root	-2991
stro	-2992
tent	-2993
umul	-2994
▁20)	-2995
▁50]	-2996
▁6),	-2997
▁65,	-2998
▁7],	-2999
▁999	-3000
▁Key	-3001
▁dct	-3002
▁pla	-3003
▁way	-3004
▁{**	-3005
India	-3006
[-1])	-3007
ality	-3008
earch	-3009
front	-3010
lipse	-3011
loads	-3012
month	-3013
oding	-3014
olute	-3015
prime	-3016
riple	-3017
▁Area	-3018
▁Date	-3019
▁Temp	-3020
▁Type	-3021
▁Word	-3022
▁Year	-3023
▁cone	-3024
▁elem	-3025
▁long	-3026
▁occu	-3027
▁some	-3028
▁tail	-3029
▁they	-3030
Python	-3031
ameter	-3032
google	-3033
profit	-3034
▁Merge	-3035
▁chunk	-3036
▁incre	-3037
▁ratio	-3038
▁weigh	-3039
initial	-3040
newList	-3041
quality	-3042
requent	-3043
▁bubble	-3044
▁concat	-3045
▁cosine	-3046
▁follow	-3047
▁kwargs	-3048
▁prices	-3049
▁search	-3050
▁tuplex	-3051
SubArray	-3052
position	-3053
▁NumList	-3054
▁lengths	-3055
▁missing	-3056
▁sublist	-3057
▁argument	-3058
▁continue	-3059
▁cylinder	-3060
▁specific	-3061
▁starting	-3062
▁swapping	-3063
percentage	-3064
▁otherwise	-3065
▁principal	-3066
dimensional	-3067
▁representation	-3068
*\	-3069
.\	-3070
/3	-3071
1(	-3072
2=	-3073
6.	-3074
67	-3075
8.	-3076
=(	-3077
=4	-3078
=5	-3079
AF	-3080
RL	-3081
\(	-3082
au	-3083
ds	-3084
('\	-3085
)*(	-3086
-01	-3087
2":	-3088
:,{	-3089
Fil	-3090
LET	-3091
[0:	-3092
[1,	-3093
csv	-3094
dge	-3095
dth	-3096
eve	-3097
eys	-3098
ful	-3099
gap	-3100
hem	-3101
ify	-3102
lap	-3103
lis	-3104
pus	-3105
sen	-3106
ymo	-3107
{2,	-3108
▁%(	-3109
▁'\	-3110
▁2.	-3111
▁27	-3112
▁54	-3113
▁75	-3114
▁En	-3115
▁Le	-3116
▁Th	-3117
▁op	-3118
▁pe	-3119
▁tr	-3120
!=0]	-3121
)/2)	-3122
4234	-3123
==1:	-3124
AFde	-3125
Divi	-3126
Emma	-3127
Move	-3128
Node	-3129
Rows	-3130
TERS	-3131
[1:]	-3132
\)))	-3133
alan	-3134
amel	-3135
cols	-3136
cube	-3137
curr	-3138
dist	-3139
ents	-3140
fact	-3141
fidf	-3142
heap	-3143
life	-3144
moid	-3145
oles	-3146
omin	-3147
perf	-3148
utes	-3149
▁---	-3150
▁...	-3151
▁14,	-3152
▁21,	-3153
▁22,	-3154
▁25)	-3155
▁300	-3156
▁60,	-3157
▁8],	-3158
▁GCD	-3159
▁Let	-3160
▁One	-3161
▁Pre	-3162
▁[9,	-3163
▁gen	-3164
▁lis	-3165
▁msg	-3166
▁plt	-3167
▁rec	-3168
▁tan	-3169
!=0):	-3170
"]+=1	-3171
('%0.	-3172
)/100	-3173
1,2],	-3174
3,0],	-3175
9,1]]	-3176
First	-3177
Itera	-3178
[1:])	-3179
again	-3180
anged	-3181
cient	-3182
dicts	-3183
hours	-3184
icker	-3185
inted	-3186
lable	-3187
match	-3188
olumn	-3189
ority	-3190
ution	-3191
ymous	-3192
▁10],	-3193
▁11):	-3194
▁2020	-3195
▁Keys	-3196
▁back	-3197
▁disk	-3198
▁freq	-3199
▁mark	-3200
▁mask	-3201
▁more	-3202
▁push	-3203
▁{10,	-3204
(\([^\	-3205
..."),	-3206
DIGITS	-3207
Nation	-3208
\(([^\	-3209
\)))*\	-3210
agonal	-3211
mented	-3212
reader	-3213
sphere	-3214
▁100),	-3215
▁Class	-3216
▁aList	-3217
▁astro	-3218
▁bucke	-3219
▁color	-3220
▁deque	-3221
▁great	-3222
▁hanoi	-3223
▁holes	-3224
▁slice	-3225
Element	-3226
LETTERS	-3227
current	-3228
otation	-3229
parator	-3230
pattern	-3231
raction	-3232
▁Create	-3233
▁Lfirst	-3234
▁Rfirst	-3235
▁Values	-3236
▁arrays	-3237
▁before	-3238
▁chunks	-3239
▁either	-3240
▁energy	-3241
▁insert	-3242
▁merged	-3243
▁passed	-3244
▁player	-3245
▁shifts	-3246
**(1/2))	-3247
American	-3248
Filtered	-3249
filepath	-3250
negative	-3251
▁IplData	-3252
▁Perfect	-3253
▁breadth	-3254
▁leading	-3255
▁polygon	-3256
▁printed	-3257
▁removes	-3258
▁seconds	-3259
▁sorting	-3260
Generator	-3261
SubArrays	-3262
celration	-3263
▁[0,0,0]]	-3264
▁distinct	-3265
▁filename	-3266
▁firstSet	-3267
▁matrices	-3268
▁velocity	-3269
▁vertical	-3270
dictionary	-3271
digitCount	-3272
tersection	-3273
▁TypeError	-3274
▁[[0,0,0],	-3275
▁determine	-3276
▁different	-3277
▁dimension	-3278
▁extracted	-3279
▁parameter	-3280
▁separator	-3281
▁speedList	-3282
▁variables	-3283
6,7,8,9,10]	-3284
Nationality	-3285
▁IndexError	-3286
▁[4,5,9,1]]	-3287
▁[6,7,3,0],	-3288
▁expression	-3289
()<>]+\)))*\	-3290
▁[[5,8,1,2],	-3291
▁concatenate	-3292
▁removeValue	-3293
▁isPalindrome	-3294
▁circumference	-3295
▁highestnumber	-3296
▁printSubArrays	-3297
"(	-3298
+"	-3299
7]	-3300
89	-3301
He	-3302
bb	-3303
}}	-3304
(["	-3305
)),	-3306
,0)	-3307
-1:	-3308
22,	-3309
<='	-3310
=["	-3311
>='	-3312
Add	-3313
All	-3314
END	-3315
Jon	-3316
Obj	-3317
]",	-3318
arg	-3319
gor	-3320
mil	-3321
pow	-3322
sep	-3323
yes	-3324
zed	-3325
▁'%	-3326
▁'0	-3327
▁3.	-3328
▁34	-3329
▁50	-3330
▁65	-3331
▁>>	-3332
▁Ch	-3333
▁[3	-3334
▁^=	-3335
▁am	-3336
▁cp	-3337
(','	-3338
1[0]	-3339
[0]:	-3340
[1],	-3341
angu	-3342
arti	-3343
ence	-3344
fort	-3345
geom	-3346
html	-3347
ithm	-3348
mark	-3349
prev	-3350
reak	-3351
repe	-3352
ture	-3353
ucky	-3354
▁0),	-3355
▁0],	-3356
▁1.5	-3357
▁5],	-3358
▁6.3	-3359
▁70}	-3360
▁New	-3361
▁Uni	-3362
▁chr	-3363
▁foo	-3364
▁quo	-3365
▁sco	-3366
▁win	-3367
%2==0	-3368
**0.5	-3369
Empty	-3370
Prime	-3371
etric	-3372
heads	-3373
jects	-3374
ments	-3375
perty	-3376
space	-3377
token	-3378
union	-3379
zfill	-3380
▁Male	-3381
▁exec	-3382
▁prog	-3383
▁real	-3384
▁relu	-3385
▁requ	-3386
▁sear	-3387
▁team	-3388
▁unit	-3389
▁vect	-3390
Binary	-3391
Ending	-3392
active	-3393
ential	-3394
exists	-3395
lapsed	-3396
orange	-3397
orator	-3398
target	-3399
▁Cumul	-3400
▁Itera	-3401
▁blank	-3402
▁heads	-3403
▁solve	-3404
▁those	-3405
English	-3406
factors	-3407
gorithm	-3408
ligible	-3409
perator	-3410
reating	-3411
▁Female	-3412
▁Length	-3413
▁parser	-3414
▁please	-3415
▁raised	-3416
▁strObj	-3417
▁subset	-3418
▁substr	-3419
▁symbol	-3420
▁thread	-3421
▁timeit	-3422
Positive	-3423
calendar	-3424
culating	-3425
sequence	-3426
▁Decimal	-3427
▁Maximum	-3428
▁combine	-3429
▁tangent	-3430
character	-3431
geometric	-3432
▁Matrices	-3433
▁equality	-3434
▁identify	-3435
▁instance	-3436
▁repeated	-3437
▁required	-3438
▁uncommon	-3439
setdefault	-3440
▁following	-3441
▁summation	-3442
▁Cumulative	-3443
combinations	-3444
▁Concatenation	-3445
▁[12,24,35,24,	-3446
▁documentation	-3447
!'	-3448
)(	-3449
)*	-3450
)>	-3451
/4	-3452
/7	-3453
37	-3454
5:	-3455
9}	-3456
AE	-3457
ID	-3458
IO	-3459
Sc	-3460
Sy	-3461
YY	-3462
so	-3463
}'	-3464
!')	-3465
!=0	-3466
("[	-3467
)[:	-3468
1'}	-3469
1,"	-3470
145	-3471
1='	-3472
1==	-3473
2,"	-3474
3]:	-3475
BBB	-3476
How	-3477
IOU	-3478
YES	-3479
[.]	-3480
dix	-3481
gas	-3482
ght	-3483
ink	-3484
ins	-3485
iss	-3486
lab	-3487
sic	-3488
sys	-3489
try	-3490
ula	-3491
www	-3492
{1,	-3493
▁'"	-3494
▁'*	-3495
▁'+	-3496
▁'-	-3497
▁'3	-3498
▁'4	-3499
▁-2	-3500
▁3*	-3501
▁40	-3502
▁45	-3503
▁87	-3504
▁8:	-3505
▁An	-3506
▁Un	-3507
▁yy	-3508
()).	-3509
**2,	-3510
12):	-3511
1234	-3512
Eric	-3513
Male	-3514
Name	-3515
Prev	-3516
Tree	-3517
arts	-3518
deck	-3519
fini	-3520
gral	-3521
hesi	-3522
prod	-3523
rice	-3524
yush	-3525
▁"",	-3526
▁"__	-3527
▁0.6	-3528
▁20]	-3529
▁50}	-3530
▁HCF	-3531
▁Not	-3532
▁URL	-3533
▁avg	-3534
▁cap	-3535
▁cyc	-3536
▁den	-3537
▁gra	-3538
▁mul	-3539
▁rem	-3540
▁sta	-3541
▁tmp	-3542
▁txt	-3543
▁wri	-3544
▁{'0	-3545
▁{0}	-3546
▁{}.	-3547
-01-0	-3548
0,0]]	-3549
0-9]+	-3550
AABBB	-3551
AEIOU	-3552
Angle	-3553
[1]))	-3554
after	-3555
alled	-3556
board	-3557
cally	-3558
color	-3559
cular	-3560
ernet	-3561
isnum	-3562
matic	-3563
milar	-3564
ograp	-3565
oices	-3566
plain	-3567
three	-3568
track	-3569
ythag	-3570
▁1.8)	-3571
▁10),	-3572
▁Rear	-3573
▁[(1,	-3574
▁[(4,	-3575
▁anon	-3576
▁give	-3577
▁here	-3578
▁nltk	-3579
▁null	-3580
▁perf	-3581
▁stop	-3582
▁tree	-3583
▁upto	-3584
▁uuid	-3585
▁vals	-3586
▁{}'.	-3587
(',')]	-3588
Female	-3589
Return	-3590
atalan	-3591
bottom	-3592
cience	-3593
circle	-3594
finite	-3595
ousand	-3596
script	-3597
source	-3598
tained	-3599
tuples	-3600
uncate	-3601
▁Email	-3602
▁finds	-3603
▁gnome	-3604
▁these	-3605
Convert	-3606
[::-1])	-3607
alidate	-3608
checker	-3609
integer	-3610
ographi	-3611
princip	-3612
reasing	-3613
riplets	-3614
tension	-3615
▁Amount	-3616
▁Factor	-3617
▁adding	-3618
▁bottom	-3619
▁choose	-3620
▁respon	-3621
▁status	-3622
▁ticker	-3623
meetings	-3624
ominator	-3625
subtract	-3626
▁Display	-3627
▁[3,6,7,	-3628
▁deleted	-3629
▁dequeue	-3630
▁hashlib	-3631
▁mention	-3632
▁numeric	-3633
▁removal	-3634
Resultant	-3635
generator	-3636
isnumeric	-3637
lowercase	-3638
timestamp	-3639
▁Password	-3640
▁checking	-3641
▁combined	-3642
▁computer	-3643
▁contents	-3644
▁integral	-3645
▁inverted	-3646
▁matching	-3647
▁parallel	-3648
Difference	-3649
fahrenheit	-3650
isinstance	-3651
▁Rectangle	-3652
▁anonymous	-3653
▁backtrack	-3654
▁flattened	-3655
▁functions	-3656
▁generated	-3657
▁installed	-3658
▁partition	-3659
▁printList	-3660
▁recursion	-3661
replacement	-3662
▁[0,0,0,0],	-3663
▁[0,0,0,0]]	-3664
▁converting	-3665
▁[[0,0,0,0],	-3666
▁temperature	-3667
▁Dictionaries	-3668
▁calculateSum	-3669
70,88,120,155].	-3670
▁removeDuplicate	-3671
'%	-3672
)+	-3673
-(	-3674
1*	-3675
16	-3676
2(	-3677
5*	-3678
8:	-3679
EF	-3680
FF	-3681
HA	-3682
Pa	-3683
[4	-3684
cp	-3685
dt	-3686
ef	-3687
sa	-3688
yz	-3689
!!!	-3690
"},	-3691
'])	-3692
("2	-3693
('-	-3694
(5)	-3695
/3)	-3696
0))	-3697
0.0	-3698
1+1	-3699
12]	-3700
8]]	-3701
=""	-3702
App	-3703
Bob	-3704
Com	-3705
Min	-3706
Seq	-3707
ctr	-3708
eff	-3709
equ	-3710
hel	-3711
nos	-3712
oct	-3713
onh	-3714
ons	-3715
own	-3716
rad	-3717
tty	-3718
vin	-3719
vot	-3720
wan	-3721
▁"-	-3722
▁##	-3723
▁(3	-3724
▁([	-3725
▁26	-3726
▁5)	-3727
▁6)	-3728
▁My	-3729
▁ag	-3730
▁er	-3731
▁im	-3732
▁ke	-3733
%7==	-3734
(10)	-3735
0-9]	-3736
000,	-3737
11):	-3738
Char	-3739
Good	-3740
Left	-3741
],[1	-3742
alen	-3743
choo	-3744
cone	-3745
cure	-3746
dent	-3747
four	-3748
irth	-3749
lant	-3750
lies	-3751
loop	-3752
modi	-3753
ndas	-3754
nest	-3755
oriz	-3756
part	-3757
roll	-3758
seen	-3759
some	-3760
ties	-3761
trib	-3762
ucli	-3763
umps	-3764
utor	-3765
wrap	-3766
▁");	-3767
▁%.2	-3768
▁'--	-3769
▁'1'	-3770
▁(8,	-3771
▁+=1	-3772
▁10:	-3773
▁12)	-3774
▁2},	-3775
▁32)	-3776
▁320	-3777
▁37.	-3778
▁70,	-3779
▁8),	-3780
▁8.3	-3781
▁900	-3782
▁9]]	-3783
▁Ext	-3784
▁For	-3785
▁NOT	-3786
▁Non	-3787
▁abo	-3788
▁fil	-3789
▁hyp	-3790
▁our	-3791
▁rel	-3792
▁sep	-3793
▁sin	-3794
▁too	-3795
(','.	-3796
(100,	-3797
...")	-3798
6,77,	-3799
Print	-3800
Scott	-3801
arger	-3802
dumps	-3803
equal	-3804
erday	-3805
force	-3806
geonh	-3807
ideal	-3808
ility	-3809
lcase	-3810
mbols	-3811
poten	-3812
redth	-3813
roots	-3814
stant	-3815
struc	-3816
times	-3817
ucase	-3818
utput	-3819
▁":",	-3820
▁%0.3	-3821
▁(10,	-3822
▁120,	-3823
▁From	-3824
▁Item	-3825
▁Take	-3826
▁Then	-3827
▁ater	-3828
▁byte	-3829
▁dice	-3830
▁iter	-3831
▁prio	-3832
▁true	-3833
(0,3):	-3834
20,20,	-3835
Parser	-3836
Series	-3837
Square	-3838
choolo	-3839
column	-3840
encode	-3841
lstrip	-3842
mylist	-3843
nested	-3844
rature	-3845
rstrip	-3846
spaces	-3847
termin	-3848
titons	-3849
velled	-3850
wanted	-3851
▁Miles	-3852
▁Prime	-3853
▁[2,4,	-3854
▁again	-3855
▁bingo	-3856
▁build	-3857
▁built	-3858
▁chars	-3859
▁geeks	-3860
▁image	-3861
▁jumps	-3862
▁marks	-3863
▁needs	-3864
▁newli	-3865
▁pivot	-3866
▁score	-3867
▁steps	-3868
▁there	-3869
▁theta	-3870
▁tutor	-3871
**(1/2)	-3872
Product	-3873
choices	-3874
ficient	-3875
flatten	-3876
loworld	-3877
ofanity	-3878
olution	-3879
reatest	-3880
resList	-3881
seconds	-3882
shuffle	-3883
squared	-3884
▁8.3145	-3885
▁Bubble	-3886
▁Linked	-3887
▁Pretty	-3888
▁Search	-3889
▁bigger	-3890
▁consum	-3891
▁countX	-3892
▁counts	-3893
▁inputs	-3894
▁memory	-3895
▁modify	-3896
▁moving	-3897
▁pandas	-3898
000-01-0	-3899
Printing	-3900
cylinder	-3901
esterday	-3902
geonhole	-3903
modified	-3904
potenuse	-3905
structed	-3906
▁Classes	-3907
▁Example	-3908
▁Extract	-3909
▁Largest	-3910
▁anagram	-3911
▁catalan	-3912
▁classes	-3913
▁compari	-3914
▁finally	-3915
▁funtion	-3916
▁indexed	-3917
▁invalid	-3918
▁listOne	-3919
▁resList	-3920
▁special	-3921
▁sstring	-3922
▁unicode	-3923
▁voltage	-3924
randrange	-3925
symmetric	-3926
▁Creating	-3927
▁Elements	-3928
▁Multiply	-3929
▁alphabet	-3930
▁constant	-3931
▁emptySeq	-3932
▁greatest	-3933
▁interval	-3934
▁tutorial	-3935
▁unwanted	-3936
ccurrences	-3937
duplicates	-3938
nestedlist	-3939
sampleList	-3940
▁appending	-3941
▁chunkSize	-3942
▁converted	-3943
▁extension	-3944
▁getGender	-3945
▁minlength	-3946
▁printTime	-3947
▁quicksort	-3948
▁startTime	-3949
▁sumDigits	-3950
▁symmetric	-3951
▁travelled	-3952
accelration	-3953
▁Characters	-3954
▁calculates	-3955
▁dateFormat	-3956
▁multiplies	-3957
▁numberList	-3958
▁evenNumbers	-3959
▁replacement	-3960
circumference	-3961
concatenation	-3962
'\	-3963
(4	-3964
)\	-3965
+2	-3966
0/	-3967
2+	-3968
3:	-3969
9)	-3970
?'	-3971
TP	-3972
[8	-3973
cs	-3974
np	-3975
oh	-3976
zy	-3977
"(?	-3978
':4	-3979
("0	-3980
((1	-3981
(7,	-3982
)-1	-3983
**3	-3984
-4*	-3985
/(2	-3986
15,	-3987
17,	-3988
1],	-3989
2),	-3990
345	-3991
371	-3992
60,	-3993
7],	-3994
80,	-3995
93]	-3996
<0:	-3997
Bit	-3998
Sor	-3999
Uni	-4000
ans	-4001
ath	-4002
big	-4003
box	-4004
bus	-4005
cor	-4006
cub	-4007
del	-4008
enu	-4009
ges	-4010
her	-4011
hom	-4012
iti	-4013
jor	-4014
lon	-4015
lot	-4016
ote	-4017
pth	-4018
tag	-4019
tol	-4020
ton	-4021
uct	-4022
▁"'	-4023
▁(4	-4024
▁),	-4025
▁1}	-4026
▁5:	-4027
▁6.	-4028
▁89	-4029
▁:{	-4030
▁ET	-4031
▁It	-4032
▁Si	-4033
▁[2	-4034
▁df	-4035
▁dp	-4036
▁fa	-4037
▁so	-4038
!!!,	-4039
)-1]	-4040
+1)]	-4041
,2))	-4042
0.0)	-4043
1[1:	-4044
1[1]	-4045
2020	-4046
Dest	-4047
Edge	-4048
Even	-4049
Play	-4050
Roll	-4051
[0]*	-4052
][0]	-4053
]{2,	-4054
ards	-4055
ball	-4056
cher	-4057
cker	-4058
cord	-4059
dump	-4060
ging	-4061
gray	-4062
just	-4063
late	-4064
latz	-4065
lock	-4066
mean	-4067
near	-4068
pair	-4069
poor	-4070
pred	-4071
quit	-4072
reen	-4073
rypt	-4074
ster	-4075
tect	-4076
teen	-4077
thme	-4078
velo	-4079
▁"00	-4080
▁#65	-4081
▁(0,	-4082
▁1))	-4083
▁1)]	-4084
▁11]	-4085
▁2],	-4086
▁9},	-4087
▁=",	-4088
▁Don	-4089
▁Get	-4090
▁OTP	-4091
▁Whe	-4092
▁[("	-4093
▁[])	-4094
▁beg	-4095
▁boo	-4096
▁cen	-4097
▁img	-4098
▁peg	-4099
▁tee	-4100
▁utf	-4101
▁won	-4102
▁xml	-4103
▁yet	-4104
(",")	-4105
-1)+1	-4106
21371	-4107
Lucky	-4108
Sorry	-4109
Table	-4110
Three	-4111
World	-4112
abcde	-4113
apped	-4114
arium	-4115
break	-4116
chars	-4117
cloud	-4118
dered	-4119
disks	-4120
elvin	-4121
false	-4122
gular	-4123
miles	-4124
minor	-4125
nlist	-4126
offee	-4127
orrow	-4128
point	-4129
ready	-4130
ssign	-4131
texts	-4132
visor	-4133
watch	-4134
{1,3}	-4135
▁")))	-4136
▁"=",	-4137
▁','.	-4138
▁(-3,	-4139
▁-21,	-4140
▁-93]	-4141
▁Each	-4142
▁[(5,	-4143
▁asks	-4144
▁been	-4145
▁cosx	-4146
▁deck	-4147
▁good	-4148
▁just	-4149
▁keep	-4150
▁lazy	-4151
▁menu	-4152
▁ones	-4153
▁pool	-4154
▁term	-4155
▁till	-4156
▁want	-4157
▁went	-4158
▁{30,	-4159
%7==0)	-4160
(100):	-4161
20,30,	-4162
Destin	-4163
Middle	-4164
Volume	-4165
[0]))]	-4166
cherry	-4167
conver	-4168
entity	-4169
ertain	-4170
ginary	-4171
hombus	-4172
islice	-4173
merged	-4174
middle	-4175
native	-4176
oftmax	-4177
pickle	-4178
starts	-4179
subsum	-4180
ticker	-4181
utable	-4182
▁Geeks	-4183
▁Gnome	-4184
▁Initi	-4185
▁Items	-4186
▁camel	-4187
▁capac	-4188
▁child	-4189
▁clean	-4190
▁colsB	-4191
▁costs	-4192
▁cycle	-4193
▁gener	-4194
▁lista	-4195
▁rowsA	-4196
▁scope	-4197
▁tails	-4198
▁token	-4199
▁tried	-4200
▁verbs	-4201
%2==0):	-4202
Address	-4203
cording	-4204
elapsed	-4205
heapify	-4206
hematic	-4207
minimum	-4208
program	-4209
quences	-4210
thmetic	-4211
veloper	-4212
versing	-4213
▁Fernet	-4214
▁change	-4215
▁corpus	-4216
▁cuboid	-4217
▁invert	-4218
▁islice	-4219
▁linear	-4220
▁locate	-4221
▁select	-4222
▁tenure	-4223
▁whites	-4224
Function	-4225
balanced	-4226
forGeeks	-4227
numheads	-4228
packages	-4229
response	-4230
thousand	-4231
▁Dequeue	-4232
▁Natural	-4233
▁Pyramid	-4234
▁Replace	-4235
▁Whether	-4236
▁already	-4237
▁bitwise	-4238
▁buckets	-4239
▁centime	-4240
▁company	-4241
▁divides	-4242
▁execute	-4243
▁guesses	-4244
▁pyramid	-4245
▁related	-4246
▁section	-4247
▁sigmoid	-4248
▁similar	-4249
▁version	-4250
TMLParser	-4251
converter	-4252
efficient	-4253
maketrans	-4254
translate	-4255
▁0.621371	-4256
▁Concaten	-4257
▁Contents	-4258
▁Interest	-4259
▁Rotation	-4260
▁Sequence	-4261
▁callable	-4262
▁computes	-4263
▁counting	-4264
▁countmap	-4265
▁exponent	-4266
▁findArea	-4267
▁inputStr	-4268
▁markList	-4269
▁obtained	-4270
startswith	-4271
▁alphabets	-4272
▁generates	-4273
▁geometric	-4274
▁iterables	-4275
▁mentioned	-4276
▁mergeSort	-4277
▁occurence	-4278
▁repeating	-4279
▁thirdList	-4280
▁transpose	-4281
Destination	-4282
destination	-4283
middleIndex	-4284
▁Kilometers	-4285
▁anAmerican	-4286
▁initialize	-4287
▁namedtuple	-4288
▁operations	-4289
▁scriptlist	-4290
Intersection	-4291
staticmethod	-4292
▁exponential	-4293
▁filterfalse	-4294
▁middleThree	-4295
▁appendMiddle	-4296
.'	-4297
02	-4298
22	-4299
64	-4300
:\	-4301
=7	-4302
>"	-4303
Ac	-4304
IS	-4305
LU	-4306
NO	-4307
Se	-4308
[5	-4309
]*	-4310
]>	-4311
eb	-4312
ek	-4313
em	-4314
kg	-4315
mk	-4316
rb	-4317
tp	-4318
yn	-4319
}"	-4320
").	-4321
'},	-4322
(((	-4323
(4)	-4324
(5,	-4325
,',	-4326
-]+	-4327
1=0	-4328
1]:	-4329
24(	-4330
24]	-4331
80/	-4332
99,	-4333
={"	-4334
>0:	-4335
Cur	-4336
LCM	-4337
Ten	-4338
Yor	-4339
[4,	-4340
[:]	-4341
_):	-4342
des	-4343
dic	-4344
els	-4345
ens	-4346
gre	-4347
iod	-4348
mem	-4349
ohn	-4350
ria	-4351
ros	-4352
sal	-4353
tiv	-4354
van	-4355
xes	-4356
▁"+	-4357
▁":	-4358
▁"<	-4359
▁(5	-4360
▁2;	-4361
▁2}	-4362
▁35	-4363
▁4*	-4364
▁4}	-4365
▁55	-4366
▁68	-4367
▁83	-4368
▁97	-4369
▁:]	-4370
▁Ac	-4371
▁CI	-4372
▁Cy	-4373
▁Lo	-4374
▁We	-4375
▁[0	-4376
▁ab	-4377
▁km	-4378
▁ns	-4379
▁rp	-4380
▁vi	-4381
▁{1	-4382
(3):	-4383
(5)]	-4384
*100	-4385
+"/*	-4386
-.',	-4387
-2))	-4388
1))]	-4389
1[::	-4390
2)):	-4391
2}".	-4392
4,5]	-4393
="")	-4394
=2):	-4395
=[1,	-4396
Dist	-4397
Here	-4398
ateg	-4399
cele	-4400
ches	-4401
cian	-4402
dule	-4403
enet	-4404
five	-4405
geek	-4406
geti	-4407
gets	-4408
have	-4409
hite	-4410
jain	-4411
less	-4412
lied	-4413
ling	-4414
ocal	-4415
sets	-4416
show	-4417
stop	-4418
urlo	-4419
uuid	-4420
vate	-4421
ways	-4422
zero	-4423
▁#10	-4424
▁#11	-4425
▁#12	-4426
▁#14	-4427
▁#15	-4428
▁#20	-4429
▁#27	-4430
▁#30	-4431
▁#48	-4432
▁#86	-4433
▁#87	-4434
▁123	-4435
▁19,	-4436
▁1][	-4437
▁2)]	-4438
▁2*(	-4439
▁2**	-4440
▁24]	-4441
▁26)	-4442
▁344	-4443
▁36,	-4444
▁5/0	-4445
▁67,	-4446
▁78,	-4447
▁83,	-4448
▁88,	-4449
▁9),	-4450
▁9],	-4451
▁=""	-4452
▁>>=	-4453
▁Cha	-4454
▁Hex	-4455
▁Tra	-4456
▁[]:	-4457
▁dog	-4458
▁hex	-4459
▁oct	-4460
▁{0,	-4461
▁{}\	-4462
%5==0	-4463
(0.0)	-4464
)[2:]	-4465
**2)*	-4466
Final	-4467
Given	-4468
Green	-4469
brary	-4470
clear	-4471
compr	-4472
elect	-4473
forms	-4474
gmail	-4475
iling	-4476
omial	-4477
outer	-4478
quest	-4479
sleep	-4480
thing	-4481
tient	-4482
tries	-4483
verts	-4484
yield	-4485
▁"00"	-4486
▁,5],	-4487
▁,8]]	-4488
▁10))	-4489
▁10):	-4490
▁3200	-4491
▁Both	-4492
▁Last	-4493
▁Node	-4494
▁Path	-4495
▁Read	-4496
▁Test	-4497
▁[]).	-4498
▁bool	-4499
▁five	-4500
▁help	-4501
▁init	-4502
▁main	-4503
▁much	-4504
▁musi	-4505
▁rand	-4506
▁rest	-4507
▁sell	-4508
▁uses	-4509
▁wrap	-4510
%2!=0]	-4511
(2000,	-4512
1[2:8]	-4513
1[:2])	-4514
Person	-4515
Yorker	-4516
action	-4517
coding	-4518
decode	-4519
except	-4520
global	-4521
inches	-4522
licing	-4523
micros	-4524
radian	-4525
timeit	-4526
versal	-4527
weight	-4528
▁12345	-4529
▁200),	-4530
▁Lower	-4531
▁Range	-4532
▁Times	-4533
▁above	-4534
▁categ	-4535
▁dices	-4536
▁doing	-4537
▁eucli	-4538
▁oppon	-4539
▁pPrev	-4540
▁stand	-4541
▁state	-4542
▁store	-4543
▁thing	-4544
%5!=0):	-4545
(1,11):	-4546
)%2==0:	-4547
-1)+100	-4548
1[2:-2]	-4549
average	-4550
compile	-4551
convert	-4552
getitem	-4553
isspace	-4554
process	-4555
request	-4556
riteria	-4557
urlopen	-4558
▁3201):	-4559
▁Output	-4560
▁accele	-4561
▁answer	-4562
▁equals	-4563
▁extend	-4564
▁helper	-4565
▁indent	-4566
▁linked	-4567
▁powers	-4568
▁proble	-4569
▁repeti	-4570
▁urllib	-4571
2,3,4,5,	-4572
Negative	-4573
anguages	-4574
continue	-4575
forgeeks	-4576
generate	-4577
parallel	-4578
▁Compute	-4579
▁Greater	-4580
▁Letters	-4581
▁Returns	-4582
▁appears	-4583
▁boolean	-4584
▁entries	-4585
▁formula	-4586
▁isLucky	-4587
▁squared	-4588
▁symbols	-4589
▁wrapped	-4590
Perimeter	-4591
developer	-4592
frequency	-4593
getGender	-4594
microsoft	-4595
recursive	-4596
▁Cylinder	-4597
▁Subtract	-4598
▁[[12,7],	-4599
▁composed	-4600
▁divisors	-4601
▁filtered	-4602
▁frequent	-4603
▁heapsort	-4604
▁iterates	-4605
▁musician	-4606
▁performs	-4607
▁trailing	-4608
▁username	-4609
▁validate	-4610
▁weighted	-4611
EndingHere	-4612
enetChoice	-4613
helloworld	-4614
numberList	-4615
palindrome	-4616
▁Exception	-4617
▁getString	-4618
▁increment	-4619
▁resultant	-4620
▁timestamp	-4621
▁yesterday	-4622
▁Initialize	-4623
▁alphabetic	-4624
▁parenthesi	-4625
▁whitespace	-4626
punctuations	-4627
geeksforgeeks	-4628
▁acceleration	-4629
▁maxEndingHere	-4630
▁opponenetChoice	-4631
%3	-4632
(7	-4633
(8	-4634
)<	-4635
*-	-4636
+\	-4637
1"	-4638
1-	-4639
60	-4640
87	-4641
98	-4642
<1	-4643
>0	-4644
?"	-4645
DA	-4646
DD	-4647
Me	-4648
Mo	-4649
Ph	-4650
Pi	-4651
SA	-4652
Sh	-4653
[7	-4654
_[	-4655
ak	-4656
co	-4657
iv	-4658
mt	-4659
nk	-4660
ok	-4661
ru	-4662
wi	-4663
xc	-4664
zi	-4665
"}]	-4666
'%(	-4667
'],	-4668
'][	-4669
('/	-4670
('{	-4671
))/	-4672
,2)	-4673
.',	-4674
.0/	-4675
/)(	-4676
/18	-4677
/2)	-4678
/2*	-4679
/5)	-4680
001	-4681
0]:	-4682
123	-4683
2",	-4684
2':	-4685
2/7	-4686
2='	-4687
3])	-4688
567	-4689
8),	-4690
8].	-4691
92,	-4692
9]:	-4693
=0,	-4694
=30	-4695
=='	-4696
={'	-4697
={}	-4698
>')	-4699
CCD	-4700
Cal	-4701
Clo	-4702
Goo	-4703
Hoc	-4704
Man	-4705
Odd	-4706
Pop	-4707
Pos	-4708
[12	-4709
[14	-4710
\".	-4711
\[\	-4712
_1,	-4713
__"	-4714
ail	-4715
arm	-4716
arn	-4717
ave	-4718
dup	-4719
ext	-4720
fai	-4721
ism	-4722
isp	-4723
nth	-4724
opi	-4725
tia	-4726
uce	-4727
uzz	-4728
vid	-4729
xic	-4730
{0,	-4731
}'.	-4732
▁"/	-4733
▁"1	-4734
▁&=	-4735
▁'^	-4736
▁(7	-4737
▁))	-4738
▁,'	-4739
▁21	-4740
▁56	-4741
▁62	-4742
▁6}	-4743
▁7.	-4744
▁78	-4745
▁94	-4746
▁95	-4747
▁9:	-4748
▁9}	-4749
▁=[	-4750
▁Co	-4751
▁PM	-4752
▁Sp	-4753
▁ci	-4754
▁fp	-4755
▁gl	-4756
▁kk	-4757
▁yf	-4758
":0,	-4759
":0}	-4760
':1,	-4761
('{}	-4762
((?:	-4763
(15,	-4764
(5))	-4765
))):	-4766
))+(	-4767
)//2	-4768
):',	-4769
**3)	-4770
,<>?	-4771
-1))	-4772
-1)+	-4773
-1][	-4774
..',	-4775
//2)	-4776
/3)*	-4777
1","	-4778
1():	-4779
100,	-4780
1010	-4781
1}")	-4782
2)/(	-4783
256(	-4784
3],[	-4785
6,7]	-4786
?://	-4787
Both	-4788
Case	-4789
Foot	-4790
Ford	-4791
Full	-4792
IISC	-4793
Inte	-4794
Love	-4795
Must	-4796
Vect	-4797
With	-4798
Your	-4799
[.][	-4800
[0-9	-4801
[0]]	-4802
[1]:	-4803
[2])	-4804
]))"	-4805
]+',	-4806
ales	-4807
aper	-4808
axis	-4809
calc	-4810
cast	-4811
ciss	-4812
cius	-4813
coin	-4814
down	-4815
enta	-4816
eral	-4817
feId	-4818
fier	-4819
gual	-4820
hell	-4821
hick	-4822
imer	-4823
itle	-4824
lace	-4825
legs	-4826
loss	-4827
love	-4828
ming	-4829
must	-4830
nate	-4831
nown	-4832
nual	-4833
open	-4834
orig	-4835
pezi	-4836
raps	-4837
resi	-4838
revs	-4839
ross	-4840
sian	-4841
sity	-4842
tire	-4843
uick	-4844
ward	-4845
})')	-4846
}.')	-4847
▁#52	-4848
▁#71	-4849
▁#99	-4850
▁'-.	-4851
▁'0'	-4852
▁(0.	-4853
▁-*-	-4854
▁-8,	-4855
▁0,0	-4856
▁13,	-4857
▁15]	-4858
▁1},	-4859
▁29}	-4860
▁30}	-4861
▁407	-4862
▁5")	-4863
▁54,	-4864
▁5};	-4865
▁6},	-4866
▁7)]	-4867
▁7},	-4868
▁89]	-4869
▁8};	-4870
▁99]	-4871
▁:",	-4872
▁Fox	-4873
▁HCf	-4874
▁LIS	-4875
▁Pri	-4876
▁Seq	-4877
▁Use	-4878
▁[''	-4879
▁[],	-4880
▁cla	-4881
▁dat	-4882
▁inp	-4883
▁kmh	-4884
▁mom	-4885
▁msb	-4886
▁pat	-4887
▁put	-4888
▁ret	-4889
▁ses	-4890
▁std	-4891
▁tag	-4892
▁vec	-4893
▁xyz	-4894
':44,	-4895
':47,	-4896
':52,	-4897
(180/	-4898
)))))	-4899
.\-]+	-4900
/)(?:	-4901
/180)	-4902
3}[.]	-4903
56789	-4904
9,12]	-4905
=22/7	-4906
==-1:	-4907
==1):	-4908
Bingo	-4909
Chunk	-4910
Cloud	-4911
[1]),	-4912
[::2]	-4913
aList	-4914
actly	-4915
aders	-4916
alent	-4917
arith	-4918
bbits	-4919
brand	-4920
bytes	-4921
chunk	-4922
cords	-4923
depth	-4924
dovan	-4925
edges	-4926
ertia	-4927
gonal	-4928
graph	-4929
gualr	-4930
itude	-4931
level	-4932
llust	-4933
model	-4934
oined	-4935
ordin	-4936
oring	-4937
othem	-4938
rowsA	-4939
slant	-4940
table	-4941
tioin	-4942
vance	-4943
weigh	-4944
▁",".	-4945
▁%0.1	-4946
▁%0.2	-4947
▁0.5)	-4948
▁0]))	-4949
▁1964	-4950
▁1]}]	-4951
▁200,	-4952
▁200}	-4953
▁37.5	-4954
▁6]},	-4955
▁Divi	-4956
▁Food	-4957
▁Leap	-4958
▁ReLU	-4959
▁Stop	-4960
▁Than	-4961
▁[13,	-4962
▁[[2,	-4963
▁deep	-4964
▁devi	-4965
▁dots	-4966
▁fill	-4967
▁flat	-4968
▁hemi	-4969
▁load	-4970
▁loss	-4971
▁mode	-4972
▁pack	-4973
▁punc	-4974
▁rela	-4975
▁revs	-4976
▁sent	-4977
▁sqrt	-4978
▁suit	-4979
▁twos	-4980
▁vale	-4981
▁verb	-4982
▁}"""	-4983
!()\[\	-4984
%2==0,	-4985
('%0.1	-4986
))+(?:	-4987
)/2)])	-4988
**2-4*	-4989
10,10,	-4990
2,4,5,	-4991
40,50,	-4992
Circle	-4993
Factor	-4994
Hockey	-4995
Popped	-4996
[1:-1]	-4997
][0-9]	-4998
]{2,4}	-4999
atures	-5000
bigger	-5001
bility	-5002
cuboid	-5003
everse	-5004
hemisp	-5005
isfile	-5006
mktime	-5007
nterms	-5008
offset	-5009
orious	-5010
orizer	-5011
pezium	-5012
piyush	-5013
points	-5014
posite	-5015
recter	-5016
rectly	-5017
titude	-5018
uments	-5019
▁="""{	-5020
▁Shift	-5021
▁Split	-5022
▁Three	-5023
▁Timer	-5024
▁[1,3,	-5025
▁allow	-5026
▁apply	-5027
▁begin	-5028
▁block	-5029
▁board	-5030
▁bytes	-5031
▁carti	-5032
▁chick	-5033
▁clear	-5034
▁colsA	-5035
▁crypt	-5036
▁cubes	-5037
▁heapp	-5038
▁learn	-5039
▁lense	-5040
▁lexic	-5041
▁nexts	-5042
▁pairs	-5043
▁pause	-5044
▁prism	-5045
▁radix	-5046
▁rowsB	-5047
▁sleep	-5048
▁sring	-5049
▁stock	-5050
▁tfidf	-5051
▁trans	-5052
▁under	-5053
▁{2}".	-5054
1[::-1]	-5055
AAAABBB	-5056
Country	-5057
Decimal	-5058
Lsecond	-5059
Maximum	-5060
Mustang	-5061
Rsecond	-5062
Welcome	-5063
\".,<>?	-5064
changed	-5065
comfort	-5066
dequeue	-5067
eleting	-5068
ivalent	-5069
latform	-5070
limited	-5071
listOne	-5072
maining	-5073
minutes	-5074
nsposed	-5075
ordered	-5076
perfect	-5077
quatity	-5078
removes	-5079
schoolo	-5080
tString	-5081
{1,3}.\	-5082
▁Assign	-5083
▁Counts	-5084
▁Custom	-5085
▁Donate	-5086
▁Series	-5087
▁artist	-5088
▁bredth	-5089
▁charge	-5090
▁checks	-5091
▁coding	-5092
▁comple	-5093
▁define	-5094
▁ending	-5095
▁entity	-5096
▁finder	-5097
▁infile	-5098
▁logger	-5099
▁moment	-5100
▁profit	-5101
▁quotes	-5102
▁ranges	-5103
▁safeId	-5104
▁served	-5105
▁strips	-5106
▁strong	-5107
▁throws	-5108
▁winner	-5109
/)(?:[^\	-5110
0-9.\-]+	-5111
Distance	-5112
Elements	-5113
Football	-5114
Iterator	-5115
Password	-5116
Reversed	-5117
alphabet	-5118
compress	-5119
discount	-5120
everseen	-5121
fromkeys	-5122
interval	-5123
iterator	-5124
jsonData	-5125
justseen	-5126
lacement	-5127
lternate	-5128
multiply	-5129
ographic	-5130
operator	-5131
pression	-5132
readline	-5133
rostatic	-5134
subjects	-5135
thisdict	-5136
tioinary	-5137
tributes	-5138
truncate	-5139
{0,3}[.]	-5140
▁Lsecond	-5141
▁Present	-5142
▁Removes	-5143
▁Rsecond	-5144
▁Science	-5145
▁SeqType	-5146
▁Surface	-5147
▁apothem	-5148
▁applied	-5149
▁capacit	-5150
▁certain	-5151
▁consume	-5152
▁content	-5153
▁ellipse	-5154
▁endDate	-5155
▁enqueue	-5156
▁exactly	-5157
▁inertia	-5158
▁lateral	-5159
▁library	-5160
▁logging	-5161
▁methods	-5162
▁padovan	-5163
▁rabbits	-5164
▁removed	-5165
▁restrev	-5166
▁selling	-5167
▁session	-5168
▁shifted	-5169
▁slicing	-5170
▁starmap	-5171
▁weights	-5172
)**(1/2))	-5173
123456789	-5174
Iteration	-5175
binaryVal	-5176
countDict	-5177
cremented	-5178
entagonal	-5179
languages	-5180
principal	-5181
rithmetic	-5182
startDate	-5183
uppercase	-5184
▁Iterable	-5185
▁Pressure	-5186
▁[0,0,0],	-5187
▁[4,5,9]]	-5188
▁[6,7,3],	-5189
▁absolute	-5190
▁accepted	-5191
▁caseless	-5192
▁chickens	-5193
▁compress	-5194
▁determin	-5195
▁diagonal	-5196
▁diameter	-5197
▁disarium	-5198
▁discount	-5199
▁glorious	-5200
▁infinite	-5201
▁latitude	-5202
▁leftmost	-5203
▁occurred	-5204
▁response	-5205
▁reverses	-5206
▁searched	-5207
▁suitable	-5208
▁textlist	-5209
▁textwrap	-5210
▁thisdict	-5211
▁thislist	-5212
AAAABBBCCD	-5213
AEIOUaeiou	-5214
HTMLParser	-5215
RandomDate	-5216
[0])%2==0)	-5217
[1])%2==0)	-5218
capitalize	-5219
characters	-5220
erEmployee	-5221
hemisphere	-5222
kilometers	-5223
piyushjain	-5224
repetitons	-5225
resistance	-5226
sampleJson	-5227
schoolofai	-5228
▁Charecter	-5229
▁Generator	-5230
▁WordCloud	-5231
▁[[5,8,1],	-5232
▁algorithm	-5233
▁arguments	-5234
▁cartisian	-5235
▁decorator	-5236
▁deviation	-5237
▁gnomeSort	-5238
▁hashTable	-5239
▁identical	-5240
▁intervals	-5241
▁listChunk	-5242
▁longitude	-5243
▁printDict	-5244
▁profanity	-5245
▁remaining	-5246
▁wordcloud	-5247
**2)**(1/2)	-5248
Calculating	-5249
combination	-5250
commonWords	-5251
consecutive	-5252
hexadecimal	-5253
studentJson	-5254
▁'2000-01-0	-5255
▁CircleArea	-5256
▁Palindrome	-5257
▁[10,20,30,	-5258
▁[3,6,7,8].	-5259
▁calculated	-5260
▁containing	-5261
▁increasing	-5262
▁mathematic	-5263
▁pigeonhole	-5264
▁printWords	-5265
▁randomDate	-5266
▁secondList	-5267
▁substrings	-5268
▁temprature	-5269
▁userChoice	-5270
!()\[\]{};:'	-5271
))+(?:\(([^\	-5272
)**(1/2))/2*	-5273
0-9.\-]+[.][	-5274
88,120,155],	-5275
stringLength	-5276
▁coefficient	-5277
▁constructed	-5278
▁defaultdict	-5279
▁dictioinary	-5280
▁incremented	-5281
▁progression	-5282
▁resistances	-5283
▁studentJson	-5284
▁transaction	-5285
()<>]+\)))*\)	-5286
GeeksforGeeks	-5287
▁concatenated	-5288
▁randomString	-5289
]{2,4}/)(?:[^\	-5290
▁Comprehension	-5291
▁StopIteration	-5292
▁concatenation	-5293
▁getRandomDate	-5294
▁lexicographic	-5295
▁squaredNumbers	-5296
printNationality	-5297
▁[1,2,3,4,5,6,7]	-5298
▁randomGenerator	-5299
%%	-5300
(0	-5301
*3	-5302
+3	-5303
.*	-5304
25	-5305
26	-5306
28	-5307
54	-5308
<0	-5309
AL	-5310
Ad	-5311
CI	-5312
HR	-5313
MI	-5314
OP	-5315
PH	-5316
St	-5317
Up	-5318
]/	-5319
]<	-5320
_4	-5321
fA	-5322
go	-5323
gu	-5324
nn	-5325
nz	-5326
ph	-5327
sm	-5328
su	-5329
tf	-5330
ug	-5331
wn	-5332
▁;	-5333
▁?	-5334
(3)	-5335
)/(	-5336
*10	-5337
-12	-5338
-=1	-5339
.':	-5340
/20	-5341
1).	-5342
14,	-5343
1:]	-5344
2',	-5345
220	-5346
4()	-5347
40]	-5348
42,	-5349
5))	-5350
6),	-5351
6]:	-5352
78,	-5353
:')	-5354
=0)	-5355
=4,	-5356
=['	-5357
Ele	-5358
Ext	-5359
Feb	-5360
Jun	-5361
Pro	-5362
Red	-5363
Var	-5364
[2:	-5365
],)	-5366
]})	-5367
__)	-5368
__,	-5369
__}	-5370
bed	-5371
brd	-5372
car	-5373
eet	-5374
gly	-5375
ics	-5376
ird	-5377
ish	-5378
jac	-5379
lve	-5380
man	-5381
mar	-5382
nap	-5383
nes	-5384
pad	-5385
par	-5386
pat	-5387
typ	-5388
vec	-5389
war	-5390
}".	-5391
▁"0	-5392
▁"4	-5393
▁'#	-5394
▁/=	-5395
▁37	-5396
▁4.	-5397
▁48	-5398
▁7:	-5399
▁9)	-5400
▁9.	-5401
▁90	-5402
▁93	-5403
▁="	-5404
▁AB	-5405
▁AC	-5406
▁ba	-5407
▁ca	-5408
▁fu	-5409
▁hh	-5410
▁vv	-5411
":3,	-5412
":4}	-5413
%100	-5414
':2,	-5415
']['	-5416
("")	-5417
('',	-5418
(360	-5419
(5):	-5420
))))	-5421
)/2.	-5422
+1],	-5423
--',	-5424
-1',	-5425
-1]:	-5426
-8")	-5427
.'''	-5428
.*")	-5429
/100	-5430
1'}:	-5431
2","	-5432
20/0	-5433
35,5	-5434
44,5	-5435
5,5,	-5436
6],[	-5437
="".	-5438
=0):	-5439
=1):	-5440
>0):	-5441
ABCD	-5442
Base	-5443
Bits	-5444
Code	-5445
Comp	-5446
Deci	-5447
Item	-5448
Most	-5449
[2].	-5450
[3])	-5451
[:1]	-5452
__":	-5453
ango	-5454
auti	-5455
bets	-5456
call	-5457
ceil	-5458
cial	-5459
cing	-5460
ears	-5461
eous	-5462
feet	-5463
hash	-5464
havi	-5465
high	-5466
http	-5467
indi	-5468
isal	-5469
john	-5470
leap	-5471
lize	-5472
lope	-5473
nice	-5474
ones	-5475
oras	-5476
orma	-5477
port	-5478
pose	-5479
rant	-5480
real	-5481
safe	-5482
scri	-5483
stem	-5484
uble	-5485
vere	-5486
week	-5487
▁#13	-5488
▁#17	-5489
▁#18	-5490
▁#19	-5491
▁#21	-5492
▁#22	-5493
▁#23	-5494
▁#24	-5495
▁#25	-5496
▁#26	-5497
▁#28	-5498
▁#29	-5499
▁#31	-5500
▁#32	-5501
▁#33	-5502
▁#34	-5503
▁#35	-5504
▁#36	-5505
▁#37	-5506
▁#38	-5507
▁#39	-5508
▁#40	-5509
▁#41	-5510
▁#42	-5511
▁#43	-5512
▁#44	-5513
▁#46	-5514
▁#47	-5515
▁#49	-5516
▁#50	-5517
▁#51	-5518
▁#53	-5519
▁#54	-5520
▁#55	-5521
▁#56	-5522
▁#57	-5523
▁#58	-5524
▁#59	-5525
▁#60	-5526
▁#61	-5527
▁#62	-5528
▁#63	-5529
▁#64	-5530
▁#66	-5531
▁#67	-5532
▁#68	-5533
▁#69	-5534
▁#70	-5535
▁#72	-5536
▁#73	-5537
▁#74	-5538
▁#75	-5539
▁#76	-5540
▁#77	-5541
▁#78	-5542
▁#79	-5543
▁#80	-5544
▁#81	-5545
▁#82	-5546
▁#83	-5547
▁#84	-5548
▁#85	-5549
▁#88	-5550
▁#89	-5551
▁#90	-5552
▁'')	-5553
▁'12	-5554
▁'2.	-5555
▁'__	-5556
▁-1)	-5557
▁-2,	-5558
▁12]	-5559
▁55,	-5560
▁6)]	-5561
▁90,	-5562
▁BMI	-5563
▁Bit	-5564
▁But	-5565
▁Cel	-5566
▁[1.	-5567
▁[[0	-5568
▁brd	-5569
▁cel	-5570
▁dim	-5571
▁ign	-5572
▁isn	-5573
▁neg	-5574
▁net	-5575
▁ref	-5576
▁sec	-5577
▁sto	-5578
▁sun	-5579
▁sup	-5580
▁upp	-5581
())))	-5582
(10)]	-5583
)**2)	-5584
-1)**	-5585
...',	-5586
//10;	-5587
11100	-5588
6,78,	-5589
=(10,	-5590
Apple	-5591
Chars	-5592
Shape	-5593
Union	-5594
White	-5595
[:-1]	-5596
allow	-5597
andid	-5598
ascal	-5599
dated	-5600
hexdi	-5601
izeof	-5602
major	-5603
mango	-5604
octal	-5605
oduce	-5606
opies	-5607
orter	-5608
parse	-5609
sited	-5610
stock	-5611
tains	-5612
verbs	-5613
vious	-5614
▁'*')	-5615
▁'3':	-5616
▁(1,)	-5617
▁10)]	-5618
▁100:	-5619
▁10}]	-5620
▁12):	-5621
▁155]	-5622
▁20),	-5623
▁333,	-5624
▁60):	-5625
▁9999	-5626
▁:"))	-5627
▁Diff	-5628
▁Good	-5629
▁HTML	-5630
▁Hexa	-5631
▁Loop	-5632
▁Move	-5633
▁Sets	-5634
▁Swap	-5635
▁[54,	-5636
▁also	-5637
▁card	-5638
▁come	-5639
▁cost	-5640
▁dire	-5641
▁gray	-5642
▁hist	-5643
▁isos	-5644
▁perr	-5645
▁rear	-5646
▁repN	-5647
▁toss	-5648
▁zlib	-5649
%7==0:	-5650
('%0.2	-5651
(1000,	-5652
+1][1]	-5653
12,24]	-5654
2,3,4,	-5655
45,22,	-5656
=10000	-5657
Coffee	-5658
Divide	-5659
Matrix	-5660
PosEle	-5661
Rotate	-5662
Sample	-5663
Symbol	-5664
[1][0]	-5665
amount	-5666
arting	-5667
cached	-5668
create	-5669
intern	-5670
jacent	-5671
median	-5672
orning	-5673
paired	-5674
parser	-5675
pythag	-5676
reduce	-5677
return	-5678
substr	-5679
ucture	-5680
winner	-5681
▁3.142	-5682
▁Array	-5683
▁Found	-5684
▁Lines	-5685
▁Occur	-5686
▁Power	-5687
▁Table	-5688
▁Total	-5689
▁Valid	-5690
▁apart	-5691
▁arbit	-5692
▁basic	-5693
▁birth	-5694
▁boxes	-5695
▁cmath	-5696
▁error	-5697
▁evalu	-5698
▁extra	-5699
▁outer	-5700
▁place	-5701
▁poten	-5702
▁shape	-5703
▁usage	-5704
▁{'0'}	-5705
("{0}".	-5706
)/2.0))	-5707
Counter	-5708
Example	-5709
Perfect	-5710
Rolling	-5711
Sublist	-5712
Updated	-5713
addEdge	-5714
apitali	-5715
ariable	-5716
autiful	-5717
cissors	-5718
culator	-5719
indexes	-5720
isalnum	-5721
lvester	-5722
maximum	-5723
missing	-5724
placing	-5725
private	-5726
scribed	-5727
ulation	-5728
without	-5729
▁Common	-5730
▁Letter	-5731
▁Prints	-5732
▁Rotate	-5733
▁Thread	-5734
▁Unique	-5735
▁[[1,2,	-5736
▁adders	-5737
▁addres	-5738
▁angles	-5739
▁around	-5740
▁conson	-5741
▁copies	-5742
▁detect	-5743
▁encode	-5744
▁entire	-5745
▁hyphen	-5746
▁intern	-5747
▁obtain	-5748
▁places	-5749
▁static	-5750
▁unpack	-5751
▁vector	-5752
▁{'1'}:	-5753
([1,2,3]	-5754
+"/*.*")	-5755
Division	-5756
Multiply	-5757
ToBinary	-5758
absolute	-5759
children	-5760
ormalize	-5761
▁Divisor	-5762
▁Invalid	-5763
▁collatz	-5764
▁compare	-5765
▁coordin	-5766
▁country	-5767
▁creates	-5768
▁defined	-5769
▁feature	-5770
▁fuction	-5771
▁inverts	-5772
▁keyword	-5773
▁matched	-5774
▁mutable	-5775
▁numeral	-5776
▁problem	-5777
▁produce	-5778
▁regular	-5779
▁rhombus	-5780
▁softmax	-5781
▁subject	-5782
---------	-5783
6,78,35,5	-5784
andidates	-5785
calcAngle	-5786
getsizeof	-5787
hexdigest	-5788
llustrate	-5789
readlines	-5790
remainder	-5791
riangular	-5792
something	-5793
▁Distance	-5794
▁Solution	-5795
▁Swapping	-5796
▁[5,6,77,	-5797
▁addition	-5798
▁codeword	-5799
▁criteria	-5800
▁encoding	-5801
▁ignoring	-5802
▁isSorted	-5803
▁logarith	-5804
▁maxPrime	-5805
▁property	-5806
▁searches	-5807
▁standard	-5808
▁subclass	-5809
▁subjects	-5810
▁swapList	-5811
▁typecast	-5812
▁variance	-5813
MostPosEle	-5814
[2])%2==0)	-5815
conversion	-5816
▁Algorithm	-5817
▁Divisible	-5818
▁Duplicate	-5819
▁Factorial	-5820
▁Lowercase	-5821
▁NewYorker	-5822
▁Recursive	-5823
▁Transpose	-5824
▁Uppercase	-5825
▁according	-5826
▁arbitrary	-5827
▁calcAngle	-5828
▁condition	-5829
▁direction	-5830
▁imaginary	-5831
▁iterators	-5832
▁multilist	-5833
▁potential	-5834
▁reversing	-5835
▁sentences	-5836
▁sequences	-5837
▁structure	-5838
▁subtracts	-5839
▁threading	-5840
[3])%2==0):	-5841
nDictionary	-5842
▁LinkedList	-5843
▁bubbleSort	-5844
▁comparison	-5845
▁equivalent	-5846
▁generating	-5847
▁hypotenuse	-5848
▁particular	-5849
▁performing	-5850
▁presentday	-5851
▁printValue	-5852
▁repetition	-5853
45,22,12,24]	-5854
6,7,8,9,10].	-5855
dictionaries	-5856
▁Hexadecimal	-5857
▁Occurrences	-5858
▁calculating	-5859
▁centimeters	-5860
▁printString	-5861
▁UncommonWords	-5862
+)	-5863
,%	-5864
,1	-5865
,6	-5866
-=	-5867
.,	-5868
0*	-5869
17	-5870
23	-5871
29	-5872
3\	-5873
8(	-5874
:"	-5875
:#	-5876
=9	-5877
?[	-5878
AD	-5879
Bi	-5880
By	-5881
CO	-5882
Cc	-5883
Co	-5884
DS	-5885
Df	-5886
Do	-5887
FG	-5888
HE	-5889
IP	-5890
IR	-5891
KM	-5892
MM	-5893
MS	-5894
MT	-5895
NT	-5896
Py	-5897
RS	-5898
RU	-5899
Si	-5900
[(	-5901
[^	-5902
]\	-5903
_:	-5904
aI	-5905
ah	-5906
ca	-5907
dg	-5908
dx	-5909
hy	-5910
if	-5911
ix	-5912
ki	-5913
kw	-5914
ky	-5915
ls	-5916
ng	-5917
ny	-5918
rw	-5919
sq	-5920
tc	-5921
td	-5922
uo	-5923
wb	-5924
xb	-5925
zA	-5926
{'	-5927
!!'	-5928
")]	-5929
"]]	-5930
').	-5931
']:	-5932
(':	-5933
(**	-5934
([[	-5935
(_)	-5936
)',	-5937
)//	-5938
)>=	-5939
)])	-5940
)}'	-5941
*",	-5942
,":	-5943
-5,	-5944
._]	-5945
/12	-5946
0).	-5947
05:	-5948
1()	-5949
1)+	-5950
1)-	-5951
10)	-5952
159	-5953
16]	-5954
1=2	-5955
25,	-5956
2="	-5957
2=0	-5958
2=[	-5959
2]:	-5960
3',	-5961
3':	-5962
30]	-5963
33,	-5964
4]:	-5965
64,	-5966
7]:	-5967
8))	-5968
999	-5969
:]+	-5970
=(-	-5971
=1,	-5972
=2*	-5973
=2,	-5974
==3	-5975
>=1	-5976
ABB	-5977
ALS	-5978
ASC	-5979
Age	-5980
BiA	-5981
Bye	-5982
CHA	-5983
DAY	-5984
Day	-5985
Des	-5986
Fri	-5987
IGH	-5988
Int	-5989
Mon	-5990
OPW	-5991
Out	-5992
Pho	-5993
Top	-5994
USA	-5995
Unk	-5996
VEN	-5997
[0-	-5998
[13	-5999
[3]	-6000
]),	-6001
]//	-6002
]])	-6003
]]]	-6004
arb	-6005
avy	-6006
bad	-6007
boh	-6008
can	-6009
den	-6010
dil	-6011
div	-6012
dog	-6013
dst	-6014
ead	-6015
eat	-6016
ecu	-6017
eep	-6018
feb	-6019
fig	-6020
gen	-6021
hal	-6022
ico	-6023
iso	-6024
jan	-6025
jul	-6026
ket	-6027
lar	-6028
med	-6029
niz	-6030
nzs	-6031
pay	-6032
pet	-6033
rot	-6034
rss	-6035
rty	-6036
sol	-6037
sun	-6038
tmp	-6039
tob	-6040
tot	-6041
udo	-6042
ynb	-6043
zes	-6044
},{	-6045
}.'	-6046
▁'5	-6047
▁'6	-6048
▁'8	-6049
▁'9	-6050
▁'{	-6051
▁+1	-6052
▁,"	-6053
▁-6	-6054
▁1/	-6055
▁2-	-6056
▁3-	-6057
▁41	-6058
▁66	-6059
▁76	-6060
▁98	-6061
▁:"	-6062
▁='	-6063
▁=5	-6064
▁AP	-6065
▁At	-6066
▁DL	-6067
▁Ge	-6068
▁He	-6069
▁IO	-6070
▁Is	-6071
▁MC	-6072
▁MT	-6073
▁OF	-6074
▁Pi	-6075
▁Ra	-6076
▁St	-6077
▁Us	-6078
▁],	-6079
▁ce	-6080
▁cm	-6081
▁ds	-6082
▁gc	-6083
▁ox	-6084
▁oy	-6085
▁ph	-6086
▁sn	-6087
▁sq	-6088
▁ur	-6089
▁wr	-6090
▁wt	-6091
▁{5	-6092
▁{6	-6093
%400	-6094
("".	-6095
("1/	-6096
(11)	-6097
(16,	-6098
(20)	-6099
(3)]	-6100
(9):	-6101
)**2	-6102
)-1,	-6103
)[2:	-6104
**2+	-6105
*10+	-6106
+1]=	-6107
+[.]	-6108
-1],	-6109
...)	-6110
.22,	-6111
00))	-6112
00):	-6113
0:1,	-6114
0],[	-6115
1000	-6116
12,4	-6117
2)))	-6118
2.0*	-6119
200,	-6120
323,	-6121
4,6]	-6122
6,8]	-6123
98",	-6124
:1])	-6125
=(1,	-6126
=0.0	-6127
=5):	-6128
==2:	-6129
>=5:	-6130
BITS	-6131
CcAD	-6132
Demo	-6133
Manj	-6134
Math	-6135
Menu	-6136
Next	-6137
ORDS	-6138
Sack	-6139
TOPW	-6140
Temp	-6141
Test	-6142
They	-6143
Ugly	-6144
What	-6145
[10,	-6146
[1][	-6147
],['	-6148
__':	-6149
abcd	-6150
ably	-6151
acob	-6152
alin	-6153
amin	-6154
ashf	-6155
bert	-6156
bile	-6157
bits	-6158
bold	-6159
cies	-6160
cret	-6161
elat	-6162
ends	-6163
esar	-6164
feed	-6165
gith	-6166
greg	-6167
illi	-6168
inch	-6169
inel	-6170
info	-6171
july	-6172
lack	-6173
lapp	-6174
lier	-6175
long	-6176
lows	-6177
made	-6178
menu	-6179
mult	-6180
nltk	-6181
ocor	-6182
okup	-6183
ople	-6184
pend	-6185
plot	-6186
pola	-6187
rase	-6188
repl	-6189
rink	-6190
rior	-6191
rius	-6192
sday	-6193
slat	-6194
ssum	-6195
tach	-6196
take	-6197
tanh	-6198
tten	-6199
twos	-6200
unes	-6201
what	-6202
▁"(\	-6203
▁"-"	-6204
▁"-0	-6205
▁"."	-6206
▁"10	-6207
▁#16	-6208
▁#91	-6209
▁#92	-6210
▁#93	-6211
▁#94	-6212
▁#95	-6213
▁#96	-6214
▁#97	-6215
▁#98	-6216
▁'#'	-6217
▁').	-6218
▁'..	-6219
▁'/*	-6220
▁'^[	-6221
▁(1/	-6222
▁-5.	-6223
▁-6,	-6224
▁-9.	-6225
▁/2)	-6226
▁10.	-6227
▁10;	-6228
▁1]:	-6229
▁1]=	-6230
▁1]]	-6231
▁1}]	-6232
▁20.	-6233
▁23)	-6234
▁30]	-6235
▁31,	-6236
▁34,	-6237
▁3]:	-6238
▁3},	-6239
▁4")	-6240
▁4)]	-6241
▁43,	-6242
▁45)	-6243
▁50.	-6244
▁500	-6245
▁54)	-6246
▁56,	-6247
▁65"	-6248
▁8)]	-6249
▁80,	-6250
▁8]]	-6251
▁:")	-6252
▁Ano	-6253
▁Fil	-6254
▁Pos	-6255
▁Rem	-6256
▁Run	-6257
▁SHA	-6258
▁XOR	-6259
▁You	-6260
▁[["	-6261
▁[]]	-6262
▁act	-6263
▁buy	-6264
▁err	-6265
▁fav	-6266
▁hom	-6267
▁met	-6268
▁mph	-6269
▁off	-6270
▁pkg	-6271
▁pmt	-6272
▁rno	-6273
▁stk	-6274
▁sur	-6275
▁syb	-6276
▁tds	-6277
▁tom	-6278
▁trs	-6279
▁{4,	-6280
!=1):	-6281
":2,"	-6282
%4==0	-6283
%7==0	-6284
("08:	-6285
())):	-6286
()}")	-6287
(10**	-6288
(100)	-6289
(1000	-6290
([12,	-6291
([[1,	-6292
))**2	-6293
)/(2*	-6294
+1))*	-6295
+1))/	-6296
+[.]\	-6297
,":")	-6298
,'=',	-6299
,0)+1	-6300
.0/9.	-6301
._]?[	-6302
0.0):	-6303
05:45	-6304
2[0])	-6305
3,11,	-6306
=400,	-6307
>=18:	-6308
ASCII	-6309
CHARS	-6310
Coeff	-6311
Expon	-6312
Float	-6313
Gener	-6314
Incor	-6315
Lower	-6316
Maths	-6317
Price	-6318
Right	-6319
Sorts	-6320
Times	-6321
Today	-6322
[0])}	-6323
[1])}	-6324
[:5])	-6325
])}')	-6326
][1]:	-6327
aIboh	-6328
accep	-6329
ances	-6330
aster	-6331
blank	-6332
bolic	-6333
chain	-6334
cmath	-6335
codes	-6336
colsA	-6337
cters	-6338
entry	-6339
etree	-6340
found	-6341
herit	-6342
inclu	-6343
inear	-6344
ipynb	-6345
label	-6346
march	-6347
ofane	-6348
orary	-6349
orean	-6350
rance	-6351
raphy	-6352
reser	-6353
robin	-6354
scrip	-6355
seven	-6356
sions	-6357
sthal	-6358
trong	-6359
ublic	-6360
vered	-6361
{2,3}	-6362
▁#100	-6363
▁#37.	-6364
▁#44.	-6365
▁'.',	-6366
▁'1':	-6367
▁'2':	-6368
▁'3',	-6369
▁'4':	-6370
▁':',	-6371
▁'=',	-6372
▁([5,	-6373
▁--->	-6374
▁-999	-6375
▁10);	-6376
▁100}	-6377
▁11],	-6378
▁15],	-6379
▁1:1}	-6380
▁2.0,	-6381
▁20]]	-6382
▁20},	-6383
▁2:1}	-6384
▁300,	-6385
▁45),	-6386
▁4:20	-6387
▁50),	-6388
▁500,	-6389
▁60))	-6390
▁75)]	-6391
▁90.0	-6392
▁Also	-6393
▁Base	-6394
▁Hist	-6395
▁Jain	-6396
▁Join	-6397
▁Math	-6398
▁Name	-6399
▁Sine	-6400
▁Team	-6401
▁Tree	-6402
▁User	-6403
▁['']	-6404
▁[64,	-6405
▁[[4,	-6406
▁[[]]	-6407
▁[{1,	-6408
▁achi	-6409
▁acos	-6410
▁axis	-6411
▁care	-6412
▁cock	-6413
▁dctA	-6414
▁dctB	-6415
▁dfdx	-6416
▁dine	-6417
▁edge	-6418
▁elon	-6419
▁emul	-6420
▁exit	-6421
▁feel	-6422
▁flip	-6423
▁four	-6424
▁gaps	-6425
▁garb	-6426
▁html	-6427
▁intp	-6428
▁knap	-6429
▁loan	-6430
▁netA	-6431
▁ngcd	-6432
▁pyth	-6433
▁soup	-6434
▁tanh	-6435
▁turn	-6436
%2==0:	-6437
()*100	-6438
)))/(2	-6439
))/(2*	-6440
)**0.5	-6441
0-9]+[	-6442
10,50,	-6443
1[-1])	-6444
1[1:])	-6445
2,"=",	-6446
22,33,	-6447
40,80,	-6448
50,40]	-6449
==12):	-6450
ABCDEF	-6451
Kelvin	-6452
Larger	-6453
Orange	-6454
PhoBiA	-6455
Piyush	-6456
Search	-6457
Simple	-6458
Subset	-6459
Thread	-6460
Tuples	-6461
][1]):	-6462
always	-6463
arrays	-6464
artist	-6465
colNum	-6466
corpus	-6467
crypts	-6468
curved	-6469
dicate	-6470
ective	-6471
ession	-6472
github	-6473
havior	-6474
hedule	-6475
hexval	-6476
intial	-6477
isFull	-6478
memory	-6479
merica	-6480
ources	-6481
period	-6482
rowNum	-6483
rypted	-6484
secret	-6485
served	-6486
shaker	-6487
status	-6488
symbol	-6489
tenure	-6490
ticles	-6491
tokens	-6492
trieve	-6493
utocor	-6494
vidual	-6495
xaDeci	-6496
▁('','	-6497
▁1.16]	-6498
▁10000	-6499
▁3.78,	-6500
▁876),	-6501
▁Alpha	-6502
▁Assum	-6503
▁Blank	-6504
▁Foods	-6505
▁LCMof	-6506
▁Marks	-6507
▁Tfidf	-6508
▁[([1,	-6509
▁[0]*(	-6510
▁[2,3,	-6511
▁[[10,	-6512
▁activ	-6513
▁ahead	-6514
▁attrs	-6515
▁blist	-6516
▁cased	-6517
▁cases	-6518
▁catch	-6519
▁cross	-6520
▁elect	-6521
▁execu	-6522
▁false	-6523
▁fixed	-6524
▁gives	-6525
▁heapq	-6526
▁heavy	-6527
▁hyper	-6528
▁joins	-6529
▁langu	-6530
▁later	-6531
▁leave	-6532
▁loops	-6533
▁mixed	-6534
▁myhex	-6535
▁notes	-6536
▁pNext	-6537
▁pools	-6538
▁shell	-6539
▁shows	-6540
▁tower	-6541
▁weird	-6542
▁wraps	-6543
▁{0:1,	-6544
▁{1:1,	-6545
▁{}.'.	-6546
"))>=5:	-6547
%100!=0	-6548
%2==0])	-6549
(1,21))	-6550
**(2.0*	-6551
0-9]+[\	-6552
12,4001	-6553
24("08:	-6554
ABBCcAD	-6555
Bitcoin	-6556
Classes	-6557
Dequeue	-6558
Factors	-6559
IplData	-6560
Leaders	-6561
MinDist	-6562
Minimum	-6563
Strings	-6564
Unknown	-6565
anyname	-6566
country	-6567
decrypt	-6568
ellipse	-6569
encrypt	-6570
enqueue	-6571
factory	-6572
feature	-6573
keysort	-6574
keyword	-6575
lapping	-6576
lecting	-6577
matched	-6578
micable	-6579
numlegs	-6580
ography	-6581
orities	-6582
payment	-6583
popleft	-6584
tistics	-6585
utation	-6586
weights	-6587
▁(-1)**	-6588
▁-5.92,	-6589
▁-9.45,	-6590
▁10.22,	-6591
▁1]."""	-6592
▁Adding	-6593
▁Filter	-6594
▁Kelvin	-6595
▁Newton	-6596
▁Pascal	-6597
▁Punctu	-6598
▁Pythag	-6599
▁Random	-6600
▁Repeat	-6601
▁Result	-6602
▁Secure	-6603
▁Simple	-6604
▁Spaces	-6605
▁[1.25,	-6606
▁annual	-6607
▁assign	-6608
▁attach	-6609
▁bucket	-6610
▁closer	-6611
▁curved	-6612
▁double	-6613
▁formed	-6614
▁grades	-6615
▁groups	-6616
▁handle	-6617
▁hashed	-6618
▁hexval	-6619
▁lookup	-6620
▁lstrip	-6621
▁maxlen	-6622
▁origin	-6623
▁people	-6624
▁preser	-6625
▁reader	-6626
▁stored	-6627
▁things	-6628
3,11,42,	-6629
5,66,77,	-6630
Eligible	-6631
Smallest	-6632
Starting	-6633
TOPWORDS	-6634
Triangle	-6635
[::-1]))	-6636
accepted	-6637
ashflows	-6638
contains	-6639
erically	-6640
ilometer	-6641
markList	-6642
polation	-6643
powerset	-6644
priority	-6645
property	-6646
pynative	-6647
ractions	-6648
repeated	-6649
resource	-6650
swapList	-6651
username	-6652
▁1][1]):	-6653
▁Another	-6654
▁DLinked	-6655
▁Entered	-6656
▁Factors	-6657
▁History	-6658
▁Numeric	-6659
▁Runtime	-6660
▁Shuffle	-6661
▁addlist	-6662
▁advance	-6663
▁against	-6664
▁collect	-6665
▁comfort	-6666
▁covered	-6667
▁english	-6668
▁forward	-6669
▁garbage	-6670
▁getting	-6671
▁globals	-6672
▁grouper	-6673
▁guessed	-6674
▁heapify	-6675
▁inherit	-6676
▁instead	-6677
▁intered	-6678
▁isValid	-6679
▁located	-6680
▁mapping	-6681
▁modules	-6682
▁mybytes	-6683
▁newline	-6684
▁prepend	-6685
▁process	-6686
▁records	-6687
▁relaxed	-6688
▁running	-6689
▁shallow	-6690
▁strchar	-6691
▁vectors	-6692
▁visited	-6693
▁written	-6694
%400==0):	-6695
10,50,60,	-6696
=100000):	-6697
Extracted	-6698
Frequency	-6699
Incorrect	-6700
OutString	-6701
Rectangle	-6702
ToDecimal	-6703
acobsthal	-6704
ascending	-6705
encrypted	-6706
exception	-6707
getString	-6708
iterables	-6709
listcompr	-6710
principle	-6711
printList	-6712
resources	-6713
scription	-6714
sentences	-6715
summation	-6716
transform	-6717
valuesort	-6718
xaDeciNum	-6719
▁Assuming	-6720
▁Eligible	-6721
▁IOString	-6722
▁Negative	-6723
▁Possible	-6724
▁Priority	-6725
▁Recurgcd	-6726
▁Reminder	-6727
▁Triplets	-6728
▁asciiVal	-6729
▁behavior	-6730
▁binomial	-6731
▁capitali	-6732
▁cocktail	-6733
▁complete	-6734
▁decimals	-6735
▁deepcopy	-6736
▁features	-6737
▁heappush	-6738
▁identity	-6739
▁interior	-6740
▁keywords	-6741
▁knapSack	-6742
▁language	-6743
▁pairwise	-6744
▁platform	-6745
▁powerset	-6746
▁priority	-6747
▁quotient	-6748
▁replaced	-6749
▁retrieve	-6750
▁rotation	-6751
▁sentinel	-6752
▁sublists	-6753
▁tomorrow	-6754
▁truncate	-6755
▁unpaired	-6756
......."),	-6757
Descending	-6758
Expression	-6759
Fahrenheit	-6760
Percentage	-6761
TestString	-6762
Vectorizer	-6763
appendleft	-6764
dimensions	-6765
pythagoras	-6766
requencies	-6767
▁Different	-6768
▁[2,4,6,8]	-6769
▁[3,6,7,8]	-6770
▁addresses	-6771
▁beginning	-6772
▁binaryNum	-6773
▁binaryVal	-6774
▁buildmenu	-6775
▁camelCase	-6776
▁charcters	-6777
▁correctly	-6778
▁decrypted	-6779
▁euclidian	-6780
▁execution	-6781
▁fillvalue	-6782
▁getlength	-6783
▁interface	-6784
▁multiples	-6785
▁netAmount	-6786
▁normalize	-6787
▁predicate	-6788
▁responses	-6789
▁rightmost	-6790
▁stopwords	-6791
▁unchanged	-6792
▁userInput	-6793
▁weightage	-6794
)**0.5)/(2*	-6795
88,120,155,	-6796
ElementTree	-6797
Incremented	-6798
aIbohPhoBiA	-6799
comfortable	-6800
companyname	-6801
eroDivision	-6802
surfacearea	-6803
▁----------	-6804
▁1,3,11,42,	-6805
▁Assignment	-6806
▁LCMofArray	-6807
▁Pentagonal	-6808
▁[11,22,33,	-6809
▁determines	-6810
▁dimensions	-6811
▁extraction	-6812
▁hyperbolic	-6813
▁individual	-6814
▁iterations	-6815
▁preserving	-6816
▁priceFloat	-6817
▁reflecting	-6818
▁repeatedly	-6819
▁statements	-6820
▁statistics	-6821
▁subprocess	-6822
▁tickerData	-6823
▁transposed	-6824
▁tribonacci	-6825
0-9]+[\._]?[	-6826
20,10,50,60,	-6827
24("08:05:45	-6828
40,80,50,40]	-6829
BitcoinPrice	-6830
emailAddress	-6831
listelements	-6832
ographically	-6833
tickerSymbol	-6834
▁"0123456789	-6835
▁Concatenate	-6836
▁DLinkedNode	-6837
▁Pythagorean	-6838
▁coordinates	-6839
▁denominator	-6840
▁inputString	-6841
▁lastElement	-6842
▁middleIndex	-6843
Circumference	-6844
highestnumber	-6845
▁Intersection	-6846
▁MyHTMLParser	-6847
▁Punctuations	-6848
▁RuntimeError	-6849
▁comparisions	-6850
▁cryptography	-6851
▁emailAddress	-6852
▁multiplyList	-6853
▁printLeaders	-6854
▁pythonpython	-6855
▁Concatenating	-6856
▁binomialCoeff	-6857
▁parenthesized	-6858
AAAABBBCCDAABBB	-6859
▁InputOutString	-6860
▁comprehensions	-6861
eroDivisionError	-6862
▁TfidfVectorizer	-6863
▁calculateLength	-6864
▁convertToBinary	-6865
"+	-6866
,,	-6867
19	-6868
33	-6869
36	-6870
7:	-6871
>{	-6872
AT	-6873
Ey	-6874
IV	-6875
Je	-6876
KR	-6877
My	-6878
Op	-6879
XL	-6880
az	-6881
dp	-6882
ib	-6883
kl	-6884
km	-6885
"(_	-6886
"].	-6887
%2:	-6888
']}	-6889
'}}	-6890
("4	-6891
('2	-6892
([(	-6893
)".	-6894
),"	-6895
*+2	-6896
+=(	-6897
,".	-6898
,(-	-6899
(6	-6900
)"	-6901
)%	-6902
,)	-6903
,5	-6904
1>	-6905
2-	-6906
AR	-6907
CB	-6908
Cl	-6909
JG	-6910
MC	-6911
Sm	-6912
XC	-6913
lp	-6914
pd	-6915
qL	-6916
xn	-6917
*(1	-6918
+')	-6919
-",	-6920
-)+	-6921
-3)	-6922
/4*	-6923
/4+	-6924
/9)	-6925
1)&	-6926
199	-6927
2']	-6928
2/3	-6929
214	-6930
4'}	-6931
5).	-6932
5*8	-6933
5]:	-6934
5]]	-6935
891	-6936
:02	-6937
==6	-6938
?")	-6939
ABC	-6940
Aug	-6941
Dec	-6942
Dia	-6943
Don	-6944
GCD	-6945
GFG	-6946
HEL	-6947
Hex	-6948
Hey	-6949
ISC	-6950
Ini	-6951
Ish	-6952
KKR	-6953
Log	-6954
May	-6955
Ple	-6956
PyN	-6957
RAM	-6958
Sep	-6959
[-3	-6960
[3:	-6961
[7,	-6962
]}'	-6963
acc	-6964
als	-6965
bab	-6966
cpu	-6967
dev	-6968
dfg	-6969
env	-6970
fAI	-6971
fdg	-6972
ict	-6973
ide	-6974
ike	-6975
ilf	-6976
imp	-6977
jkl	-6978
kEy	-6979
mrw	-6980
nan	-6981
nic	-6982
occ	-6983
oma	-6984
pas	-6985
pli	-6986
png	-6987
qLt	-6988
rem	-6989
tax	-6990
und	-6991
vit	-6992
wen	-6993
xyy	-6994
yyy	-6995
}",	-6996
▁"(	-6997
▁':	-6998
▁'[	-6999
)=	-7000
0'	-7001
93	-7002
AC	-7003
IX	-7004
ND	-7005
PY	-7006
Ro	-7007
[2	-7008
_}	-7009
aT	-7010
bc	-7011
nD	-7012
na	-7013
oy	-7014
vv	-7015
+1<	-7016
45}	-7017
56,	-7018
Cau	-7019
Ear	-7020
Fen	-7021
_1:	-7022
dim	-7023
dio	-7024
rey	-7025
stb	-7026
utc	-7027
ynd	-7028
▁']	-7029
▁'_	-7030
▁(_	-7031
▁28	-7032
▁2?	-7033
▁38	-7034
▁4?	-7035
▁59	-7036
▁61	-7037
▁64	-7038
▁7)	-7039
▁72	-7040
▁74	-7041
▁82	-7042
▁86	-7043
▁9*	-7044
▁;"	-7045
▁Mi	-7046
▁OR	-7047
▁US	-7048
▁cl	-7049
▁fl	-7050
▁nl	-7051
▁sw	-7052
▁ty	-7053
▁{(	-7054
▁{2	-7055
""):	-7056
":2,	-7057
':3,	-7058
':4}	-7059
("2.	-7060
("3.	-7061
("4.	-7062
('[^	-7063
(1+(	-7064
(2))	-7065
(30)	-7066
(4))	-7067
(7):	-7068
(8)]	-7069
(9)]	-7070
(["%	-7071
([1/	-7072
),['	-7073
)-1:	-7074
).__	-7075
*(((	-7076
*+2*	-7077
+1).	-7078
+1:]	-7079
+1]:	-7080
-->{	-7081
-1",	-7082
...+	-7083
/2+2	-7084
/3+3	-7085
/4):	-7086
/5)*	-7087
0.0,	-7088
001'	-7089
1+1"	-7090
1,"%	-7091
1,16	-7092
1/20	-7093
10),	-7094
16",	-7095
1997	-7096
1="0	-7097
2":"	-7098
2"},	-7099
##	-7100
)&	-7101
+'	-7102
,4	-7103
.)	-7104
Ds	-7105
Hi	-7106
TK	-7107
[6	-7108
[9	-7109
]-	-7110
cw	-7111
df	-7112
ie	-7113
");	-7114
('0	-7115
();	-7116
1,]	-7117
2.3	-7118
8")	-7119
99]	-7120
=6)	-7121
Rap	-7122
_',	-7123
cca	-7124
cwd	-7125
ler	-7126
▁py	-7127
▁sk	-7128
▁vs	-7129
((8,	-7130
-11)	-7131
1)==	-7132
2']]	-7133
2)/2	-7134
2,3)	-7135
22]]	-7136
2]):	-7137
3,3,	-7138
3}")	-7139
45",	-7140
5,10	-7141
5,18	-7142
5,6]	-7143
5],[	-7144
674*	-7145
80,9	-7146
=(5,	-7147
>./?	-7148
Apri	-7149
Ault	-7150
Brad	-7151
Club	-7152
Curr	-7153
Does	-7154
Done	-7155
FFFF	-7156
Food	-7157
Hard	-7158
JGab	-7159
Jess	-7160
June	-7161
Mike	-7162
Raph	-7163
Revi	-7164
Sept	-7165
Spli	-7166
User	-7167
Word	-7168
[0]=	-7169
[1,[	-7170
[1::	-7171
[1]*	-7172
[1].	-7173
[1]/	-7174
[2:]	-7175
[5:]	-7176
[:5]	-7177
[:])	-7178
],[[	-7179
alam	-7180
alth	-7181
anti	-7182
atue	-7183
atur	-7184
blob	-7185
cces	-7186
cnic	-7187
comb	-7188
dynd	-7189
east	-7190
eeey	-7191
eval	-7192
getm	-7193
kela	-7194
kiwi	-7195
lenx	-7196
loyd	-7197
mond	-7198
obot	-7199
.#	-7200
PE	-7201
ii	-7202
('"	-7203
('1	-7204
('3	-7205
(('	-7206
+",	-7207
3)]	-7208
Lap	-7209
ech	-7210
hot	-7211
nID	-7212
pol	-7213
sig	-7214
six	-7215
▁*/	-7216
▁3;	-7217
▁3?	-7218
▁46	-7219
▁5.	-7220
▁52	-7221
▁5;	-7222
▁6:	-7223
▁CS	-7224
▁No	-7225
▁lt	-7226
▁pl	-7227
')])	-7228
**3,	-7229
1)))	-7230
2,1,	-7231
=12)	-7232
lent	-7233
mary	-7234
ogen	-7235
onic	-7236
pine	-7237
ping	-7238
plus	-7239
punc	-7240
rela	-7241
repr	-7242
ried	-7243
rips	-7244
send	-7245
shad	-7246
ssic	-7247
stau	-7248
strt	-7249
tivi	-7250
uate	-7251
uess	-7252
uncy	-7253
urls	-7254
xbze	-7255
your	-7256
yyyy	-7257
▁"</	-7258
▁#45	-7259
▁#8.	-7260
▁')]	-7261
▁'*'	-7262
▁'.-	-7263
▁(1.	-7264
▁(9,	-7265
▁-9]	-7266
▁.5*	-7267
▁00)	-7268
▁00,	-7269
▁1.0	-7270
▁12.	-7271
▁12:	-7272
▁12}	-7273
▁13}	-7274
▁16)	-7275
▁180	-7276
▁18}	-7277
▁1])	-7278
▁2")	-7279
▁20:	-7280
▁22)	-7281
▁26,	-7282
▁29,	-7283
▁2])	-7284
▁3")	-7285
▁3)]	-7286
▁34.	-7287
▁39,	-7288
▁3:"	-7289
▁3}}	-7290
▁42,	-7291
▁48}	-7292
▁49,	-7293
▁49.	-7294
▁4]]	-7295
▁4]}	-7296
▁4},	-7297
▁4}]	-7298
▁55)	-7299
}\	-7300
':3	-7301
(['	-7302
)((	-7303
),[	-7304
/2.	-7305
22)	-7306
2==	-7307
4,5	-7308
8]:	-7309
='1	-7310
Dis	-7311
Spa	-7312
cit	-7313
ima	-7314
raj	-7315
wes	-7316
wha	-7317
xyz	-7318
▁1?	-7319
▁63	-7320
▁7}	-7321
▁84	-7322
▁Ad	-7323
▁Ap	-7324
▁Sn	-7325
%10;	-7326
''):	-7327
1':'	-7328
1,2)	-7329
1}".	-7330
2}")	-7331
Last	-7332
aset	-7333
bbit	-7334
frac	-7335
idus	-7336
ilid	-7337
inea	-7338
pass	-7339
relu	-7340
riel	-7341
▁"),	-7342
▁'{"	-7343
▁21)	-7344
▁257	-7345
▁567	-7346
▁57,	-7347
▁5];	-7348
▁5}]	-7349
▁6*(	-7350
▁64]	-7351
▁7))	-7352
▁72,	-7353
▁73,	-7354
▁76]	-7355
▁7])	-7356
▁89'	-7357
▁9)}	-7358
▁9.8	-7359
▁90]	-7360
▁95]	-7361
▁:',	-7362
▁=='	-7363
▁={'	-7364
▁Col	-7365
▁Equ	-7366
▁How	-7367
▁IDs	-7368
▁Mat	-7369
▁Nlp	-7370
▁Nth	-7371
▁Own	-7372
▁Wri	-7373
▁[1]	-7374
▁[5]	-7375
▁[{}	-7376
▁abc	-7377
▁bet	-7378
▁car	-7379
▁cha	-7380
▁cum	-7381
▁don	-7382
▁ear	-7383
▁fab	-7384
▁got	-7385
▁imm	-7386
▁job	-7387
▁kth	-7388
▁lab	-7389
▁mer	-7390
▁pas	-7391
▁pig	-7392
▁rad	-7393
▁see	-7394
▁sen	-7395
▁sha	-7396
▁src	-7397
▁tar	-7398
▁tor	-7399
NI	-7400
_(	-7401
!='	-7402
"".	-7403
([1	-7404
3":	-7405
54,	-7406
==1	-7407
=[1	-7408
_2:	-7409
qad	-7410
▁"\	-7411
▁0}	-7412
▁88	-7413
▁91	-7414
▁Id	-7415
▁kg	-7416
":1,	-7417
([5,	-7418
1]==	-7419
2"}]	-7420
2,8,	-7421
Find	-7422
cart	-7423
disp	-7424
divi	-7425
gers	-7426
mall	-7427
▁"/*	-7428
▁1/3	-7429
▁18.	-7430
▁67]	-7431
▁82,	-7432
▁91,	-7433
▁93,	-7434
▁93]	-7435
▁App	-7436
▁Min	-7437
▁har	-7438
▁mod	-7439
▁vot	-7440
▁{2:	-7441
":45}	-7442
':1,'	-7443
':2,'	-7444
':3,'	-7445
':53,	-7446
':54,	-7447
':54}	-7448
':[1,	-7449
':[4,	-7450
':[7,	-7451
'[0-9	-7452
("(",	-7453
("0",	-7454
("1",	-7455
('/')	-7456
(0)=1	-7457
(0,5)	-7458
(1,14	-7459
(1/2)	-7460
(15))	-7461
(20))	-7462
(20):	-7463
(201)	-7464
)+1):	-7465
),[])	-7466
)-1):	-7467
)-2):	-7468
**2))	-7469
**2+(	-7470
+1)))	-7471
-)+",	-7472
/100)	-7473
/2018	-7474
1+1")	-7475
1.1',	-7476
100):	-7477
1234"	-7478
1=[1,	-7479
1[-1]	-7480
1[-2]	-7481
2,2))	-7482
2,3])	-7483
2020"	-7484
67891	-7485
9388,	-7486
<=2):	-7487
=2**2	-7488
=3**2	-7489
==2):	-7490
=[10,	-7491
=[[4,	-7492
April	-7493
Black	-7494
Cache	-7495
Chain	-7496
Check	-7497
Early	-7498
Fench	-7499
2>	-7500
''.	-7501
,"\	-7502
[11	-7503
_2,	-7504
avg	-7505
▁El	-7506
("1.	-7507
(11,	-7508
-1]=	-7509
1.__	-7510
[4],	-7511
into	-7512
kets	-7513
▁'00	-7514
▁11.	-7515
▁5)]	-7516
▁Aut	-7517
▁Map	-7518
▁kgs	-7519
Found	-7520
Goood	-7521
HELLO	-7522
Heart	-7523
Invar	-7524
Jessa	-7525
Order	-7526
Plese	-7527
Power	-7528
PyNaT	-7529
Smith	-7530
Spade	-7531
[0:1]	-7532
[1:].	-7533
[1]=1	-7534
[2:])	-7535
[3]]]	-7536
[:1].	-7537
][1])	-7538
][1]=	-7539
ababc	-7540
activ	-7541
alene	-7542
ather	-7543
atory	-7544
atype	-7545
below	-7546
bingo	-7547
cales	-7548
celes	-7549
colab	-7550
colsB	-7551
comes	-7552
degre	-7553
ector	-7554
eight	-7555
enter	-7556
erved	-7557
focal	-7558
great	-7559
ilids	-7560
inVar	-7561
inese	-7562
irror	-7563
issub	-7564
lense	-7565
malay	-7566
monic	-7567
moval	-7568
multi	-7569
myset	-7570
myval	-7571
occur	-7572
orign	-7573
osine	-7574
pairs	-7575
peter	-7576
ratio	-7577
resen	-7578
rical	-7579
rises	-7580
rithe	-7581
scale	-7582
shape	-7583
sider	-7584
sized	-7585
spect	-7586
ssure	-7587
sures	-7588
tails	-7589
terns	-7590
under	-7591
units	-7592
uzzle	-7593
wenty	-7594
▁"");	-7595
▁"-04	-7596
▁"123	-7597
▁####	-7598
▁'(':	-7599
▁')':	-7600
▁'.--	-7601
▁'0')	-7602
▁("{}	-7603
▁()))	-7604
▁(8))	-7605
▁(99,	-7606
▁-2.3	-7607
▁-23,	-7608
▁1)])	-7609
▁1.0]	-7610
▁1.6,	-7611
▁102,	-7612
▁11}]	-7613
▁12],	-7614
▁12},	-7615
▁13)]	-7616
▁15},	-7617
▁15}}	-7618
▁1634	-7619
▁17).	-7620
▁173]	-7621
▁17},	-7622
▁19}]	-7623
▁1]):	-7624
▁2)])	-7625
▁20))	-7626
▁201)	-7627
▁22/7	-7628
▁222,	-7629
▁234,	-7630
▁25).	-7631
▁3000	-7632
▁300}	-7633
▁339,	-7634
▁3]},	-7635
▁444,	-7636
▁555]	-7637
▁5]))	-7638
▁5]],	-7639
▁5]},	-7640
▁65),	-7641
▁6]],	-7642
▁7)))	-7643
▁7536	-7644
▁7]}]	-7645
▁875,	-7646
▁9/5)	-7647
▁999,	-7648
▁=[{}	-7649
▁Bits	-7650
▁Clon	-7651
▁Copy	-7652
▁Disk	-7653
▁EVEN	-7654
▁Eval	-7655
▁GqLt	-7656
▁IISC	-7657
▁Keep	-7658
▁Less	-7659
▁Note	-7660
▁Ones	-7661
▁Oper	-7662
▁Pick	-7663
▁Turn	-7664
▁[(3,	-7665
▁[-5,	-7666
▁[20,	-7667
▁[23,	-7668
▁[34,	-7669
▁[56,	-7670
▁[[0,	-7671
▁avai	-7672
▁beat	-7673
▁brac	-7674
▁cast	-7675
▁coin	-7676
▁down	-7677
▁ends	-7678
▁farm	-7679
▁fibo	-7680
▁fine	-7681
▁flen	-7682
▁full	-7683
▁hund	-7684
▁kine	-7685
▁legs	-7686
▁lenx	-7687
▁life	-7688
▁meal	-7689
▁meas	-7690
▁nico	-7691
▁para	-7692
▁park	-7693
▁pell	-7694
▁prof	-7695
▁reli	-7696
▁ring	-7697
▁rstr	-7698
▁setp	-7699
▁snot	-7700
▁solu	-7701
▁strt	-7702
▁tell	-7703
▁thea	-7704
▁thin	-7705
▁tmrw	-7706
▁urls	-7707
▁veol	-7708
▁vice	-7709
▁vote	-7710
▁ways	-7711
▁well	-7712
▁zips	-7713
▁{11,	-7714
▁{23,	-7715
▁{57,	-7716
!=""):	-7717
','1'}	-7718
':[10,	-7719
(1,100	-7720
(1/2/3	-7721
(100),	-7722
)))**(	-7723
*((1+(	-7724
**0.5)	-7725
**2)+(	-7726
**2)/4	-7727
**2)==	-7728
+1][0]	-7729
.0/9.0	-7730
000000	-7731
00001'	-7732
1)-1):	-7733
10001'	-7734
14,12]	-7735
1[1:5]	-7736
2,6],[	-7737
20/01/	-7738
50,30]	-7739
6,2,8,	-7740
7,2,1,	-7741
88,99]	-7742
9,22]]	-7743
=[[1,[	-7744
AFdeaa	-7745
Accept	-7746
Access	-7747
Bubble	-7748
Caught	-7749
Charac	-7750
Goodis	-7751
Google	-7752
Ishwar	-7753
ItemId	-7754
Joined	-7755
Laptop	-7756
Mapped	-7757
Punctu	-7758
Robert	-7759
Second	-7760
Select	-7761
Values	-7762
[-3:])	-7763
[1][1]	-7764
[::2])	-7765
abcdef	-7766
agrams	-7767
angula	-7768
arange	-7769
bredth	-7770
derful	-7771
dyndns	-7772
effrey	-7773
eratue	-7774
erical	-7775
fdgstb	-7776
gforce	-7777
guinea	-7778
hedron	-7779
ilfile	-7780
isUgly	-7781
keeeey	-7782
kelabs	-7783
ksplit	-7784
leased	-7785
leting	-7786
locals	-7787
master	-7788
member	-7789
mmetry	-7790
module	-7791
nomial	-7792
olygon	-7793
orical	-7794
orizes	-7795
orking	-7796
pended	-7797
placed	-7798
rabbit	-7799
rances	-7800
remark	-7801
rising	-7802
series	-7803
struct	-7804
subset	-7805
ternal	-7806
terval	-7807
thrice	-7808
tional	-7809
torque	-7810
tuplex	-7811
urpose	-7812
utcnow	-7813
ything	-7814
zation	-7815
▁"1+1"	-7816
▁'....	-7817
▁('1',	-7818
▁(5/9)	-7819
▁([],)	-7820
▁1/2+2	-7821
▁100:{	-7822
▁10]},	-7823
▁12]}]	-7824
▁221,]	-7825
▁3*5*8	-7826
▁<>./?	-7827
▁=''):	-7828
▁='_',	-7829
▁Asser	-7830
▁Break	-7831
▁Brown	-7832
▁Codes	-7833
▁Colab	-7834
▁Every	-7835
▁Hanoi	-7836
▁Mixed	-7837
▁Named	-7838
▁Octal	-7839
▁Other	-7840
▁Parti	-7841
▁Right	-7842
▁UPPER	-7843
▁Usage	-7844
▁[0,1,	-7845
▁[0.0,	-7846
▁[111,	-7847
▁aMale	-7848
▁bases	-7849
▁being	-7850
▁calls	-7851
▁chose	-7852
▁clone	-7853
▁close	-7854
▁disks	-7855
▁entry	-7856
▁flags	-7857
▁focal	-7858
▁heros	-7859
▁heter	-7860
▁https	-7861
▁level	-7862
▁major	-7863
▁makes	-7864
▁milli	-7865
▁moved	-7866
▁moves	-7867
▁myset	-7868
▁myval	-7869
▁pCurr	-7870
▁plain	-7871
▁radio	-7872
▁robot	-7873
▁seper	-7874
▁shown	-7875
▁shuff	-7876
▁sieve	-7877
▁slant	-7878
▁slope	-7879
▁small	-7880
▁spoor	-7881
▁suits	-7882
▁sunny	-7883
▁think	-7884
▁title	-7885
▁units	-7886
▁users	-7887
▁versa	-7888
▁works	-7889
▁wrong	-7890
▁{1}".	-7891
▁{1}'.	-7892
':'1997	-7893
'[0-9]+	-7894
()))}",	-7895
())+1).	-7896
(10)**(	-7897
(10**9)	-7898
)%2!=0]	-7899
)**2)/2	-7900
*((1/2)	-7901
**2*+2*	-7902
/3+3/4+	-7903
1,9,12]	-7904
1110011	-7905
2)**2+(	-7906
70,80,9	-7907
America	-7908
Current	-7909
Diamond	-7910
Initial	-7911
Integer	-7912
Message	-7913
Missing	-7914
Raphson	-7915
Records	-7916
Revised	-7917
Splited	-7918
Without	-7919
[-1][0]	-7920
[-1][1]	-7921
[1:])])	-7922
[2]],[[	-7923
[4],5]]	-7924
ababccd	-7925
address	-7926
anagram	-7927
appears	-7928
ational	-7929
between	-7930
cessary	-7931
checkip	-7932
closing	-7933
compute	-7934
content	-7935
degrees	-7936
density	-7937
endDate	-7938
endTime	-7939
initail	-7940
intgers	-7941
isEmpty	-7942
jecture	-7943
lateral	-7944
lengths	-7945
listdir	-7946
locally	-7947
married	-7948
maxsize	-7949
morning	-7950
natural	-7951
objects	-7952
oratory	-7953
reature	-7954
returns	-7955
rhombus	-7956
sations	-7957
sending	-7958
sigmoid	-7959
special	-7960
squares	-7961
tisthis	-7962
tribute	-7963
viously	-7964
welcome	-7965
▁"12/12	-7966
▁(2/3)*	-7967
▁(4/3)*	-7968
▁(7/5)*	-7969
▁300000	-7970
▁3001):	-7971
▁6.674*	-7972
▁Accept	-7973
▁Appear	-7974
▁Automa	-7975
▁Choose	-7976
▁Column	-7977
▁Combin	-7978
▁Detect	-7979
▁Insert	-7980
▁Inside	-7981
▁ItemId	-7982
▁Merged	-7983
▁Occurs	-7984
▁Sorted	-7985
▁Strong	-7986
▁Vector	-7987
▁Vowels	-7988
▁[2323,	-7989
▁aTuple	-7990
▁always	-7991
▁blocks	-7992
▁coffee	-7993
▁curcit	-7994
▁driver	-7995
▁gravit	-7996
▁inlist	-7997
▁joined	-7998
▁ksplit	-7999
▁member	-8000
▁mobile	-8001
▁months	-8002
▁myfile	-8003
▁period	-8004
▁phrase	-8005
▁picnic	-8006
▁probab	-8007
▁puzzle	-8008
▁raidus	-8009
▁report	-8010
▁restau	-8011
▁revert	-8012
▁rstrip	-8013
▁scales	-8014
▁secure	-8015
▁speech	-8016
▁speend	-8017
▁succes	-8018
▁symmet	-8019
▁system	-8020
▁tokens	-8021
▁torque	-8022
▁tupels	-8023
▁updict	-8024
▁voting	-8025
("1/1/20	-8026
)/2)])/2	-8027
-->{1}".	-8028
//2)+1):	-8029
/2018"))	-8030
1,16],[1	-8031
2,4,5,7]	-8032
5,10],[1	-8033
5,18],[1	-8034
Checking	-8035
Compound	-8036
Exponent	-8037
Generate	-8038
JGabriel	-8039
PYnative	-8040
PyNaTive	-8041
Replaced	-8042
Subtract	-8043
TreeNode	-8044
[2]=2**2	-8045
[3]=3**2	-8046
[3]]]],[	-8047
combined	-8048
contents	-8049
diameter	-8050
division	-8051
entifier	-8052
frequent	-8053
function	-8054
getmtime	-8055
integers	-8056
issubset	-8057
loglevel	-8058
ogeneous	-8059
opposite	-8060
positive	-8061
renthesi	-8062
replaced	-8063
research	-8064
resented	-8065
rounding	-8066
thislist	-8067
tivities	-8068
triplets	-8069
versally	-8070
vertical	-8071
zekelabs	-8072
▁"20/01/	-8073
▁'00001'	-8074
▁'10001'	-8075
▁'2.2']]	-8076
▁1234511	-8077
▁129388,	-8078
▁1367891	-8079
▁3.14159	-8080
▁5.0/9.0	-8081
▁Address	-8082
▁Arrange	-8083
▁Chinese	-8084
▁Cloning	-8085
▁Ellipse	-8086
▁Flatten	-8087
▁Iterate	-8088
▁Longest	-8089
▁Minimum	-8090
▁MyError	-8091
▁Nonagon	-8092
▁Records	-8093
▁Removal	-8094
▁Without	-8095
▁Writing	-8096
▁['1.1',	-8097
▁[0,0,0]	-8098
▁[2,5,8,	-8099
▁[4,5,6]	-8100
▁aFemale	-8101
▁aSquare	-8102
▁account	-8103
▁achieve	-8104
▁allowed	-8105
▁ancient	-8106
▁angualr	-8107
▁angular	-8108
▁augualr	-8109
▁becomes	-8110
▁celcius	-8111
▁chances	-8112
▁changed	-8113
▁charged	-8114
▁classic	-8115
▁cleanup	-8116
▁command	-8117
▁dataset	-8118
▁decoded	-8119
▁deletes	-8120
▁density	-8121
▁distict	-8122
▁earlier	-8123
▁elapsed	-8124
▁endTime	-8125
▁entered	-8126
▁evening	-8127
▁expalin	-8128
▁explain	-8129
▁hundred	-8130
▁initail	-8131
▁inspect	-8132
▁isEmpty	-8133
▁isdigit	-8134
▁kinetic	-8135
▁newlist	-8136
▁partial	-8137
▁perrins	-8138
▁profane	-8139
▁shorter	-8140
▁summary	-8141
▁support	-8142
▁swapped	-8143
▁uniform	-8144
▁welcome	-8145
▁writing	-8146
(1,14),['	-8147
([1,2,3])	-8148
))**(1/2)	-8149
10,10,10,	-8150
15,14,12]	-8151
20,20,40,	-8152
24,35,24,	-8153
Ascending	-8154
CoffeeDay	-8155
Delimited	-8156
Symmetric	-8157
alphabets	-8158
armstrong	-8159
choolofAI	-8160
chunkSize	-8161
essionals	-8162
firstList	-8163
formation	-8164
imaginary	-8165
including	-8166
localtime	-8167
malayalam	-8168
nDeleting	-8169
nOriginal	-8170
pineapple	-8171
plainlist	-8172
profanity	-8173
randbelow	-8174
rectangle	-8175
rehensive	-8176
relations	-8177
resultSet	-8178
secondSet	-8179
sequences	-8180
sumDigits	-8181
timedelta	-8182
tionError	-8183
trapezium	-8184
▁Addition	-8185
▁Anagrams	-8186
▁Consider	-8187
▁Deleting	-8188
▁Divisors	-8189
▁Evaluate	-8190
▁Frequent	-8191
▁Identity	-8192
▁Integers	-8193
▁Interval	-8194
▁Original	-8195
▁Positive	-8196
▁Smallest	-8197
▁Variable	-8198
▁[[1,3],[	-8199
▁appended	-8200
▁applying	-8201
▁brackets	-8202
▁category	-8203
▁checkKey	-8204
▁closures	-8205
▁datatype	-8206
▁deleting	-8207
▁dictname	-8208
▁eligible	-8209
▁external	-8210
▁filepath	-8211
▁floating	-8212
▁frequncy	-8213
▁interned	-8214
▁mailfile	-8215
▁movement	-8216
▁pressure	-8217
▁released	-8218
▁reliable	-8219
▁reserved	-8220
▁revInvar	-8221
▁shuffled	-8222
▁solution	-8223
▁symmetry	-8224
▁veolcity	-8225
(1/2/3/4):	-8226
([1,2,3]))	-8227
*((1/2)**(	-8228
**(1/2))*(	-8229
*100)))**(	-8230
2,3,4,4,5,	-8231
7,2,1,4,6]	-8232
ChainOrder	-8233
Characters	-8234
Generating	-8235
attributes	-8236
candidates	-8237
dateFormat	-8238
derivative	-8239
descending	-8240
hypotenuse	-8241
ligibility	-8242
processing	-8243
randomList	-8244
randomTime	-8245
splitlines	-8246
whatisthis	-8247
xbzefdgstb	-8248
▁9*(10**9)	-8249
▁According	-8250
▁Alternate	-8251
▁Determine	-8252
▁Frequency	-8253
▁Generated	-8254
▁Insertion	-8255
▁Otherwise	-8256
▁RandomInt	-8257
▁Replacing	-8258
▁Summation	-8259
▁UPPERCASE	-8260
▁[5,6,2,8,	-8261
▁[[1,2,3],	-8262
▁alternate	-8263
▁armstrong	-8264
▁available	-8265
▁breakdown	-8266
▁camelcase	-8267
▁charCount	-8268
▁consonant	-8269
▁diagonals	-8270
▁emptylist	-8271
▁exponents	-8272
▁filtering	-8273
▁firstList	-8274
▁histogram	-8275
▁immutable	-8276
▁inscribed	-8277
▁inversion	-8278
▁isoscales	-8279
▁iterating	-8280
▁maxlength	-8281
▁necessary	-8282
▁pPrevPrev	-8283
▁particles	-8284
▁positions	-8285
▁reference	-8286
▁resultSet	-8287
▁secondSet	-8288
▁seperator	-8289
▁seqquence	-8290
▁shuffling	-8291
▁solutions	-8292
▁startDate	-8293
▁statement	-8294
▁subarrays	-8295
▁trapezium	-8296
▁wonderful	-8297
▁{'0','1'}	-8298
(10)**(-11)	-8299
(100):1+1")	-8300
/3+3/4+...+	-8301
000-01-01',	-8302
1="01110011	-8303
6,7,8,9,10)	-8304
6,78,35,55]	-8305
Constructed	-8306
Punctuation	-8307
Temperature	-8308
allEmployee	-8309
alwaysGoood	-8310
evenNumbers	-8311
inputString	-8312
occurrences	-8313
permutation	-8314
printString	-8315
▁Arithmetic	-8316
▁Capitalize	-8317
▁CustomList	-8318
▁Duplicates	-8319
▁Occurrence	-8320
▁Operations	-8321
▁Particular	-8322
▁Pigeonhole	-8323
▁Temperatue	-8324
▁Temprature	-8325
▁Triangular	-8326
▁arithmetic	-8327
▁attributes	-8328
▁bubblesort	-8329
▁capacitors	-8330
▁centimeter	-8331
▁comprising	-8332
▁decreasing	-8333
▁evaluation	-8334
▁exceptions	-8335
▁identifier	-8336
▁illustrate	-8337
▁jacobsthal	-8338
▁occurances	-8339
▁parameters	-8340
▁polynomial	-8341
▁putNumbers	-8342
▁randomList	-8343
▁randomTime	-8344
▁repetitons	-8345
▁resolution	-8346
▁restaurant	-8347
▁sampleJson	-8348
▁syslvester	-8349
("1/1/2016",	-8350
40,50,50,30]	-8351
44,55,66,77,	-8352
88,120,155].	-8353
=(1,2,3,4,5,	-8354
displacement	-8355
▁(1,2,3,4,5,	-8356
▁CustomTuple	-8357
▁Tempreature	-8358
▁Universally	-8359
▁accelration	-8360
▁allEmployee	-8361
▁capacitance	-8362
▁categorizes	-8363
▁commonWords	-8364
▁conditional	-8365
▁hexaDeciNum	-8366
▁logarithmic	-8367
▁longestWord	-8368
▁minimumLeft	-8369
▁overlapping	-8370
▁parenthesis	-8371
▁probability	-8372
▁programming	-8373
▁radioactive	-8374
▁rectangular	-8375
▁represented	-8376
▁surrounding	-8377
▁symbolCount	-8378
▁symmetrical	-8379
("{0}-->{1}".	-8380
**2))**(1/2))	-8381
2)**2)**(1/2)	-8382
45,22,12,24].	-8383
=[[1,[[2]],[[	-8384
electrostatic	-8385
▁"20/01/2020"	-8386
▁(3**(1/2))*(	-8387
▁Colaboratory	-8388
▁NumGenerator	-8389
▁[2,5,8,9,12]	-8390
▁displacement	-8391
2,6],[5,10],[1	-8392
5,18],[19,22]]	-8393
RobertJGabriel	-8394
formerEmployee	-8395
itemDictionary	-8396
▁Automatically	-8397
▁EvenGenerator	-8398
▁[0,1,2,4,5,7]	-8399
▁[10,10,10,10,	-8400
▁[3,7,2,1,4,6]	-8401
▁comprehensive	-8402
▁concatenating	-8403
▁consecutively	-8404
▁conversations	-8405
▁electrostatic	-8406
▁gravitational	-8407
▁insertionSort	-8408
▁professionals	-8409
▁unicodeString	-8410
20,20,20,20,40,	-8411
[3]]]],[[4],5]]	-8412
currentEmployee	-8413
utocorrelations	-8414
▁"12/12/2018"))	-8415
▁AssertionError	-8416
▁formerEmployee	-8417
▁itemDictionary	-8418
▁leftMostPosEle	-8419
▁ArithmeticError	-8420
▁currentEmployee	-8421
%%"	-8422
'}]	-8423
(9)	-8424
)["	-8425
)[%	-8426
)\.	-8427
-8.	-8428
0:6	-8429
1+=	-8430
11(	-8431
166	-8432
17'	-8433
1=3	-8434
2"}	-8435
28*	-8436
69}	-8437
94*	-8438
:.0	-8439
:\,	-8440
=24	-8441
=4)	-8442
=60	-8443
AAA	-8444
ABA	-8445
ATE	-8446
BER	-8447
BON	-8448
CBA	-8449
COL	-8450
ENC	-8451
ENT	-8452
ERR	-8453
EST	-8454
FID	-8455
Fah	-8456
IDs	-8457
INT	-8458
LTK	-8459
PAR	-8460
PHP	-8461
RUE	-8462
Sec	-8463
Tea	-8464
Tie	-8465
UNI	-8466
[45	-8467
[7]	-8468
]<-	-8469
_+=	-8470
akk	-8471
btc	-8472
cyc	-8473
eib	-8474
fkm	-8475
fob	-8476
nDe	-8477
oku	-8478
oya	-8479
xcv	-8480
xml	-8481
xxx	-8482
yna	-8483
zza	-8484
{:,	-8485
"(?<	-8486
',21	-8487
',26	-8488
',34	-8489
':23	-8490
("->	-8491
('1'	-8492
()].	-8493
(1),	-8494
(2),	-8495
(6):	-8496
(['%	-8497
(['2	-8498
)/(2	-8499
(*"	-8500
2'}	-8501
546	-8502
63)	-8503
83)	-8504
=0:	-8505
Rec	-8506
[15	-8507
ava	-8508
pio	-8509
xns	-8510
▁qx	-8511
▁qy	-8512
"]))	-8513
("({	-8514
(15)	-8515
)>1:	-8516
)\.(	-8517
+1)+	-8518
+\.)	-8519
,11)	-8520
,12)	-8521
-%02	-8522
-12-	-8523
-45,	-8524
.-',	-8525
//3)	-8526
0001	-8527
10,'	-8528
11',	-8529
15],	-8530
1=29	-8531
1=30	-8532
2"))	-8533
2':'	-8534
222]	-8535
256_	-8536
298,	-8537
2=[]	-8538
3':'	-8539
3456	-8540
394*	-8541
40,5	-8542
5"),	-8543
6"),	-8544
6546	-8545
6]])	-8546
8,4]	-8547
=1,0	-8548
==31	-8549
=[['	-8550
={1}	-8551
>0).	-8552
>=0:	-8553
Arun	-8554
Cake	-8555
Comm	-8556
DCBA	-8557
Ends	-8558
FIDF	-8559
Geet	-8560
HIGH	-8561
Hell	-8562
IBON	-8563
John	-8564
MBER	-8565
Mani	-8566
OCOL	-8567
Pink	-8568
RATE	-8569
Root	-8570
Text	-8571
Thur	-8572
UENC	-8573
]==-	-8574
ahre	-8575
alsy	-8576
aves	-8577
caps	-8578
cosa	-8579
dots	-8580
dtob	-8581
funk	-8582
hjkl	-8583
ians	-8584
irgo	-8585
mmar	-8586
scar	-8587
scor	-8588
seek	-8589
shna	-8590
slon	-8591
soft	-8592
stmt	-8593
sudo	-8594
ucas	-8595
ucce	-8596
util	-8597
wrty	-8598
xcvb	-8599
(2.	-8600
2+=	-8601
MPH	-8602
clu	-8603
zzz	-8604
-1),	-8605
-10,	-8606
101'	-8607
17,7	-8608
18]]	-8609
2]))	-8610
Hand	-8611
[13,	-8612
flat	-8613
lips	-8614
nosi	-8615
xman	-8616
zzzz	-8617
▁"+"	-8618
▁#3.	-8619
▁#4.	-8620
▁#5.	-8621
▁#6.	-8622
▁#9.	-8623
▁'+'	-8624
▁'.6	-8625
▁'45	-8626
▁'\.	-8627
▁'{}	-8628
▁(32	-8629
▁1.8	-8630
▁122	-8631
▁125	-8632
▁13.	-8633
▁23]	-8634
▁3).	-8635
▁333	-8636
▁34]	-8637
▁43]	-8638
▁48)	-8639
▁5.0	-8640
▁637	-8641
▁9/(	-8642
▁<<=	-8643
▁AND	-8644
▁API	-8645
▁CSV	-8646
▁DEF	-8647
▁Feb	-8648
▁Fib	-8649
▁Gxx	-8650
▁INT	-8651
▁IPL	-8652
▁IPv	-8653
▁Jan	-8654
▁Jun	-8655
▁LRU	-8656
▁Nov	-8657
▁ODD	-8658
▁YYY	-8659
▁[(2	-8660
▁bcd	-8661
▁box	-8662
▁cpu	-8663
▁dai	-8664
▁jam	-8665
▁psu	-8666
▁pyt	-8667
▁via	-8668
▁{5:	-8669
":40,	-8670
%3==0	-8671
','15	-8672
':300	-8673
':42,	-8674
':69}	-8675
(",".	-8676
('%02	-8677
()]))	-8678
(0)))	-8679
(0))]	-8680
(10))	-8681
(163)	-8682
(2.0,	-8683
(200,	-8684
(2000	-8685
(300,	-8686
(32):	-8687
(5)])	-8688
(500,	-8689
)/2)]	-8690
)<2):	-8691
)[1]:	-8692
)[:-(	-8693
**2*3	-8694
+)\.(	-8695
+1]):	-8696
-45,9	-8697
//=10	-8698
/2.54	-8699
((\	-8700
({"	-8701
+4*	-8702
.'.	-8703
/10	-8704
0.8	-8705
414	-8706
InC	-8707
Inf	-8708
bee	-8709
faz	-8710
▁On	-8711
▁]]	-8712
','8	-8713
.:")	-8714
1','	-8715
10):	-8716
12'.	-8717
3','	-8718
9'))	-8719
=4):	-8720
==0.	-8721
Diff	-8722
amax	-8723
kwds	-8724
mini	-8725
tree	-8726
▁"*(	-8727
▁'10	-8728
▁2]]	-8729
▁30.	-8730
▁5]]	-8731
▁>=0	-8732
▁Gfg	-8733
▁nai	-8734
▁pie	-8735
▁}')	-8736
!=24]	-8737
()}')	-8738
(0,10	-8739
/2021	-8740
0,0,0	-8741
00100	-8742
00110	-8743
1,17,	-8744
10,6,	-8745
100,'	-8746
15,17	-8747
1666)	-8748
1[0-9	-8749
2,3)"	-8750
20/04	-8751
234')	-8752
25[0-	-8753
298,3	-8754
2[1])	-8755
30],[	-8756
3],[4	-8757
4,5)]	-8758
5,5],	-8759
500):	-8760
7,9,1	-8761
8']))	-8762
86"),	-8763
<=0):	-8764
=1023	-8765
=2020	-8766
>12):	-8767
Birth	-8768
Conne	-8769
Donut	-8770
Ducky	-8771
ERROR	-8772
FDCBA	-8773
Fries	-8774
Front	-8775
Level	-8776
Pears	-8777
Pizza	-8778
Stack	-8779
Tunes	-8780
UENCE	-8781
UNICO	-8782
[-1],	-8783
[0]*'	-8784
[45]:	-8785
[4:])	-8786
]){1,	-8787
][0],	-8788
][1]>	-8789
]{2,}	-8790
_]+',	-8791
__}({	-8792
aeiuo	-8793
aesar	-8794
aging	-8795
aires	-8796
akbar	-8797
akkis	-8798
arest	-8799
rs	-8800
!".	-8801
"./	-8802
**6	-8803
+='	-8804
2+1	-8805
20)	-8806
2:'	-8807
320	-8808
50)	-8809
79,	-8810
='*	-8811
=20	-8812
=[%	-8813
=[(	-8814
Aim	-8815
And	-8816
Rom	-8817
_67	-8818
fon	-8819
ims	-8820
job	-8821
you	-8822
▁go	-8823
▁ru	-8824
▁},	-8825
20')	-8826
201)	-8827
3205	-8828
579,	-8829
750)	-8830
="./	-8831
='20	-8832
clar	-8833
each	-8834
font	-8835
nets	-8836
sure	-8837
uted	-8838
▁"20	-8839
▁#7.	-8840
▁0},	-8841
▁50)	-8842
▁Foo	-8843
▁acc	-8844
▁cul	-8845
▁dir	-8846
▁man	-8847
▁sex	-8848
',2:'	-8849
(2,4,	-8850
73205	-8851
='*',	-8852
Roman	-8853
asket	-8854
atchC	-8855
attrs	-8856
bases	-8857
birth	-8858
block	-8859
bucke	-8860
camel	-8861
carol	-8862
ceive	-8863
colon	-8864
cubes	-8865
dType	-8866
delay	-8867
ednes	-8868
efore	-8869
estau	-8870
expon	-8871
extns	-8872
findi	-8873
fined	-8874
frame	-8875
fteen	-8876
gpart	-8877
guess	-8878
haker	-8879
hanoi	-8880
hirty	-8881
hjklz	-8882
imary	-8883
insst	-8884
ippet	-8885
learn	-8886
nific	-8887
nosis	-8888
older	-8889
orite	-8890
osite	-8891
polar	-8892
prise	-8893
prism	-8894
qwrty	-8895
ricor	-8896
ruary	-8897
score	-8898
simul	-8899
"#	-8900
4:	-8901
EK	-8902
))"	-8903
))[	-8904
-1.	-8905
EEK	-8906
OTP	-8907
Tue	-8908
aza	-8909
cog	-8910
ery	-8911
inp	-8912
irs	-8913
oup	-8914
sit	-8915
tai	-8916
▁"2	-8917
▁">	-8918
▁09	-8919
▁1-	-8920
▁81	-8921
▁99	-8922
▁[%	-8923
▁ef	-8924
▁mv	-8925
(1,6	-8926
4':'	-8927
GEEK	-8928
Iter	-8929
PECI	-8930
Soup	-8931
bing	-8932
byte	-8933
enum	-8934
ical	-8935
ises	-8936
stat	-8937
urus	-8938
▁8},	-8939
▁=',	-8940
▁Sol	-8941
▁bye	-8942
Pairs	-8943
[63]:	-8944
based	-8945
capac	-8946
psdfg	-8947
rames	-8948
sired	-8949
slope	-8950
stand	-8951
still	-8952
story	-8953
succe	-8954
taion	-8955
tfidf	-8956
tists	-8957
ucket	-8958
uffal	-8959
ummul	-8960
unday	-8961
ushes	-8962
usted	-8963
uting	-8964
white	-8965
wraps	-8966
yards	-8967
},{}]	-8968
▁"*",	-8969
▁"+",	-8970
▁"+"{	-8971
▁"-",	-8972
▁"/",	-8973
▁">",	-8974
▁#10.	-8975
▁#11.	-8976
▁#12.	-8977
▁#13.	-8978
▁#14.	-8979
▁#15.	-8980
▁#16.	-8981
▁#19.	-8982
▁#20.	-8983
▁#21.	-8984
▁#22.	-8985
▁#23.	-8986
▁#25.	-8987
▁#26.	-8988
▁#29.	-8989
▁#30.	-8990
▁#31.	-8991
▁#32.	-8992
▁#33.	-8993
▁#34.	-8994
▁#35.	-8995
▁#36.	-8996
▁#40.	-8997
▁#41.	-8998
▁#42.	-8999
1%	-9000
bu	-9001
}{	-9002
',3	-9003
(96	-9004
5):	-9005
8):	-9006
Bur	-9007
[-5	-9008
alt	-9009
eng	-9010
ond	-9011
rid	-9012
▁'/	-9013
▁SE	-9014
▁db	-9015
("[_	-9016
(0,9	-9017
(3))	-9018
1=28	-9019
buil	-9020
eter	-9021
iten	-9022
onen	-9023
rist	-9024
xxxx	-9025
▁15)	-9026
▁258	-9027
▁3']	-9028
▁36.	-9029
▁cre	-9030
▁dem	-9031
▁dex	-9032
▁dur	-9033
▁lie	-9034
▁rid	-9035
▁toK	-9036
',3:'	-9037
)<8):	-9038
,"]",	-9039
Multi	-9040
Other	-9041
etext	-9042
ornot	-9043
▁#17.	-9044
▁#39.	-9045
▁#43.	-9046
▁#46.	-9047
▁#47.	-9048
▁#48.	-9049
▁#50.	-9050
▁''))	-9051
▁'-..	-9052
▁'...	-9053
▁'009	-9054
▁'17'	-9055
▁'2',	-9056
▁'4']	-9057
▁'9':	-9058
▁(''.	-9059
▁('1'	-9060
▁(11,	-9061
▁(2**	-9062
▁(2,)	-9063
▁(3,)	-9064
▁(4,)	-9065
▁0.00	-9066
▁0000	-9067
▁1)*(	-9068
▁1/0)	-9069
▁10]]	-9070
▁1100	-9071
▁16))	-9072
▁16]]	-9073
▁180,	-9074
▁19},	-9075
▁1:])	-9076
▁1]]:	-9077
▁2015	-9078
▁22},	-9079
▁30),	-9080
▁312,	-9081
▁400,	-9082
▁4]))	-9083
▁500.	-9084
▁566,	-9085
▁90],	-9086
▁==1:	-9087
▁Anon	-9088
▁Bank	-9089
▁Call	-9090
▁Chal	-9091
▁Cock	-9092
▁Dist	-9093
▁Emma	-9094
▁Expe	-9095
▁FALS	-9096
▁Form	-9097
▁Geor	-9098
▁Heap	-9099
';	-9100
7}	-9101
BT	-9102
Tv	-9103
('.	-9104
-4,	-9105
20]	-9106
6,9	-9107
<1:	-9108
=0.	-9109
BTC	-9110
DIR	-9111
Tra	-9112
__.	-9113
gra	-9114
hum	-9115
ils	-9116
omp	-9117
sec	-9118
urb	-9119
vow	-9120
win	-9121
xor	-9122
▁1'	-9123
▁29	-9124
▁MD	-9125
▁UT	-9126
▁dr	-9127
▁ix	-9128
▁td	-9129
(85)	-9130
))==	-9131
)=='	-9132
-4,-	-9133
26,9	-9134
back	-9135
lion	-9136
lits	-9137
mode	-9138
oint	-9139
ompt	-9140
▁").	-9141
▁Cur	-9142
▁UTF	-9143
▁fer	-9144
▁que	-9145
5,20]	-9146
carlo	-9147
deven	-9148
erify	-9149
exist	-9150
heapp	-9151
human	-9152
nizer	-9153
songs	-9154
▁"/".	-9155
▁')))	-9156
▁0.0)	-9157
▁APIs	-9158
▁Byte	-9159
▁Into	-9160
▁Left	-9161
▁Leib	-9162
▁Like	-9163
▁Load	-9164
▁MDAS	-9165
▁Menu	-9166
▁NotI	-9167
▁Only	-9168
▁Root	-9169
▁Rows	-9170
▁Sele	-9171
▁TRUE	-9172
▁TheR	-9173
▁URLs	-9174
▁What	-9175
▁YYYY	-9176
▁['0'	-9177
▁['1'	-9178
▁['4,	-9179
▁[(),	-9180
▁[16,	-9181
▁[40,	-9182
▁[[5*	-9183
▁\1',	-9184
▁aNew	-9185
▁acts	-9186
▁amax	-9187
▁amin	-9188
▁amor	-9189
▁appr	-9190
▁bash	-9191
▁ceil	-9192
▁coun	-9193
▁dcos	-9194
▁dexp	-9195
▁drop	-9196
▁dtan	-9197
▁dtob	-9198
▁face	-9199
"'	-9200
05	-9201
AX	-9202
Cr	-9203
FT	-9204
Gf	-9205
Wh	-9206
rr	-9207
(6)	-9208
05'	-9209
==%	-9210
GfG	-9211
Jan	-9212
TSL	-9213
Two	-9214
Who	-9215
ane	-9216
▁"_	-9217
▁49	-9218
▁ls	-9219
)'''	-9220
405'	-9221
Posi	-9222
TSLA	-9223
alic	-9224
help	-9225
mber	-9226
pare	-9227
thir	-9228
▁"_"	-9229
▁#2.	-9230
▁'3,	-9231
▁DIR	-9232
▁TAX	-9233
▁jpe	-9234
▁nCr	-9235
▁ner	-9236
%5!=0	-9237
//100	-9238
60],[	-9239
=0.03	-9240
March	-9241
Upper	-9242
ctime	-9243
lenth	-9244
order	-9245
ormal	-9246
princ	-9247
reset	-9248
until	-9249
▁'''(	-9250
▁1024	-9251
▁fall	-9252
▁feed	-9253
▁funv	-9254
▁happ	-9255
▁homo	-9256
▁inde	-9257
▁jpeg	-9258
▁maps	-9259
▁noti	-9260
▁omit	-9261
▁plot	-9262
▁pred	-9263
▁pytz	-9264
▁quot	-9265
▁rock	-9266
▁runs	-9267
▁save	-9268
▁sexy	-9269
▁step	-9270
▁targ	-9271
▁took	-9272
▁trim	-9273
▁txns	-9274
▁undo	-9275
▁very	-9276
▁yfin	-9277
▁{1:'	-9278
!=12):	-9279
%7!=0]	-9280
'!()-[	-9281
',26]]	-9282
':10,'	-9283
':239}	-9284
':300}	-9285
("({},	-9286
("->",	-9287
("[0-9	-9288
('{0:6	-9289
():...	-9290
(0,22)	-9291
(1,6)]	-9292
(10)):	-9293
([0-9]	-9294
([1,3,	-9295
([])):	-9296
))))<1	-9297
+"/*"+	-9298
+\.)+(	-9299
/"	-9300
01	-9301
77	-9302
Hp	-9303
NG	-9304
WN	-9305
gt	-9306
oe	-9307
vr	-9308
%5:	-9309
4.5	-9310
6',	-9311
==8	-9312
Are	-9313
HpY	-9314
ING	-9315
Joe	-9316
OWN	-9317
Sol	-9318
_",	-9319
kri	-9320
nex	-9321
}}}	-9322
▁()	-9323
▁(9	-9324
▁1+	-9325
▁DD	-9326
(2):	-9327
1.01	-9328
[0][	-9329
][0:	-9330
aaaa	-9331
dean	-9332
diac	-9333
inst	-9334
obin	-9335
terf	-9336
▁10}	-9337
▁14.	-9338
▁23.	-9339
▁40]	-9340
▁Sup	-9341
▁[2]	-9342
▁ran	-9343
▁rvr	-9344
("_",	-9345
Geeta	-9346
Reque	-9347
UMBER	-9348
nexts	-9349
odiac	-9350
riate	-9351
types	-9352
udoku	-9353
xcvbn	-9354
▁'---	-9355
▁15)]	-9356
▁2005	-9357
▁6)):	-9358
▁Side	-9359
▁ncyc	-9360
▁tens	-9361
▁toge	-9362
':200,	-9363
-1)**2	-9364
/2021"	-9365
0,-1):	-9366
00110'	-9367
1,4,5]	-9368
1,44,5	-9369
1=[10,	-9370
1[0]],	-9371
2),(3,	-9372
2,3,4)	-9373
26,93,	-9374
40,50]	-9375
6],[7,	-9376
8),(0,	-9377
9,10),	-9378
='2015	-9379
=101):	-9380
==11):	-9381
=[2,5,	-9382
>0.0):	-9383
Akashs	-9384
Apples	-9385
Assign	-9386
Before	-9387
Burger	-9388
Friday	-9389
Hellow	-9390
IBONAC	-9391
Indent	-9392
Inside	-9393
MatchC	-9394
Monday	-9395
OTOCOL	-9396
Object	-9397
Output	-9398
PARENT	-9399
!/	-9400
/9	-9401
6"	-9402
Ho	-9403
Mr	-9404
PR	-9405
}:	-9406
)]]	-9407
0])	-9408
=("	-9409
[",	-9410
dri	-9411
fnc	-9412
pum	-9413
▁"#	-9414
▁])	-9415
▁sm	-9416
2:',	-9417
==10	-9418
Hola	-9419
Occu	-9420
[0-4	-9421
bill	-9422
ndia	-9423
puma	-9424
tins	-9425
▁#!/	-9426
▁)).	-9427
▁32.	-9428
▁33,	-9429
▁ast	-9430
▁etc	-9431
▁ith	-9432
▁pse	-9433
▁tab	-9434
1[0])	-9435
ToStr	-9436
[1:],	-9437
cated	-9438
drive	-9439
linal	-9440
ounds	-9441
tiger	-9442
▁#28.	-9443
▁#45.	-9444
▁(5,)	-9445
▁Comb	-9446
▁[''.	-9447
▁])}'	-9448
▁gree	-9449
▁mult	-9450
▁slon	-9451
)[2:])	-9452
Remove	-9453
Secure	-9454
Segreg	-9455
Spaces	-9456
Sunday	-9457
Thirty	-9458
Ticker	-9459
Twenty	-9460
UNICOD	-9461
Unique	-9462
Wednes	-9463
[0])/2	-9464
actend	-9465
adders	-9466
altern	-9467
aneous	-9468
animal	-9469
annual	-9470
answer	-9471
antify	-9472
asking	-9473
bydate	-9474
capsul	-9475
christ	-9476
cipher	-9477
colors	-9478
concat	-9479
cremen	-9480
erived	-9481
erying	-9482
fernet	-9483
getcwd	-9484
getter	-9485
idigit	-9486
imally	-9487
imshow	-9488
inheit	-9489
ishwar	-9490
itting	-9491
itunes	-9492
kwlist	-9493
larger	-9494
laxman	-9495
layout	-9496
leaves	-9497
lenges	-9498
lently	-9499
(_	-9500
,*	-9501
/1	-9502
1<	-9503
3+	-9504
</	-9505
AP	-9506
PB	-9507
SD	-9508
Ur	-9509
WA	-9510
]"	-9511
_0	-9512
px	-9513
wt	-9514
":'	-9515
,'.	-9516
>0]	-9517
PBS	-9518
[10	-9519
_0(	-9520
cer	-9521
gop	-9522
mas	-9523
ref	-9524
sea	-9525
▁'&	-9526
▁BC	-9527
▁[9	-9528
▁ht	-9529
)<3:	-9530
[7]:	-9531
agit	-9532
aman	-9533
eets	-9534
mato	-9535
nine	-9536
raja	-9537
same	-9538
▁25.	-9539
▁410	-9540
▁Aug	-9541
▁GSD	-9542
▁Put	-9543
▁bal	-9544
▁gre	-9545
▁ins	-9546
(0,0,	-9547
.."),	-9548
1**2)	-9549
=15).	-9550
banan	-9551
gopal	-9552
ipher	-9553
parts	-9554
sence	-9555
▁Make	-9556
▁onto	-9557
▁setx	-9558
▁slot	-9559
▁unix	-9560
-1-1',	-9561
agitta	-9562
italic	-9563
linalg	-9564
litext	-9565
mailid	-9566
maller	-9567
nAfter	-9568
oodall	-9569
orated	-9570
origin	-9571
output	-9572
parate	-9573
parent	-9574
portal	-9575
psutil	-9576
pyplot	-9577
raight	-9578
ranges	-9579
recory	-9580
ricorn	-9581
rothed	-9582
rotten	-9583
secure	-9584
severe	-9585
shrink	-9586
sident	-9587
sizeof	-9588
system	-9589
ticing	-9590
udents	-9591
uffalo	-9592
verese	-9593
wesome	-9594
xcvbnm	-9595
yments	-9596
{:,}".	-9597
▁"1"),	-9598
▁"1"):	-9599
++	-9600
GB	-9601
LL	-9602
PS	-9603
Uu	-9604
\\	-9605
_%	-9606
_3	-9607
1")	-9608
102	-9609
?',	-9610
Eve	-9611
ala	-9612
api	-9613
fit	-9614
pid	-9615
une	-9616
ves	-9617
▁'7	-9618
▁06	-9619
▁31	-9620
▁39	-9621
=(8,	-9622
=-2)	-9623
Show	-9624
ants	-9625
edge	-9626
pest	-9627
▁")]	-9628
▁0")	-9629
▁1',	-9630
▁11)	-9631
▁1].	-9632
▁2',	-9633
▁5])	-9634
▁Cor	-9635
▁Tor	-9636
▁fps	-9637
=10):	-9638
=["".	-9639
=[16,	-9640
=[60,	-9641
__())	-9642
alves	-9643
epest	-9644
tight	-9645
ueues	-9646
▁#38.	-9647
▁17]]	-9648
▁2)/2	-9649
▁2019	-9650
▁NLTK	-9651
▁elat	-9652
▁pads	-9653
▁pref	-9654
▁teen	-9655
={1}'.	-9656
Either	-9657
__())}	-9658
faults	-9659
figure	-9660
getpid	-9661
▁'----	-9662
▁'-.--	-9663
▁'..--	-9664
▁'1010	-9665
▁'4'):	-9666
▁(",".	-9667
▁(1,2)	-9668
▁(1,3)	-9669
▁(2,3)	-9670
▁1)**2	-9671
▁1)//2	-9672
▁1)/2)	-9673
▁1000}	-9674
▁2**20	-9675
▁34.56	-9676
▁==-1:	-9677
▁After	-9678
▁Among	-9679
▁Apple	-9680
▁Deque	-9681
▁Divid	-9682
▁Expec	-9683
▁FALSE	-9684
▁Fahre	-9685
▁Floyd	-9686
▁Front	-9687
▁Graph	-9688
▁Icosa	-9689
▁India	-9690
▁LList	-9691
▁Price	-9692
▁Prism	-9693
▁Radix	-9694
▁Recog	-9695
▁Repet	-9696
▁SPECI	-9697
▁Shell	-9698
▁Snake	-9699
Al	-9700
!",	-9701
/",	-9702
4],	-9703
Bad	-9704
URL	-9705
apt	-9706
aus	-9707
def	-9708
usr	-9709
wit	-9710
▁*,	-9711
▁-(	-9712
▁42	-9713
▁47	-9714
▁51	-9715
▁57	-9716
▁58	-9717
▁73	-9718
▁Be	-9719
▁{:	-9720
([],	-9721
5,6,	-9722
7,98	-9723
Same	-9724
[1-9	-9725
agic	-9726
auss	-9727
cipe	-9728
goal	-9729
hind	-9730
quot	-9731
sase	-9732
uary	-9733
▁0)(	-9734
▁1.3	-9735
▁4",	-9736
▁4))	-9737
▁4):	-9738
▁89,	-9739
▁ABC	-9740
▁Har	-9741
▁cus	-9742
▁{3,	-9743
)+1))	-9744
2([],	-9745
Satur	-9746
]+)',	-9747
akash	-9748
notes	-9749
where	-9750
witch	-9751
zeros	-9752
▁'.':	-9753
▁'1'}	-9754
▁(0.3	-9755
▁(4*(	-9756
▁0.5*	-9757
▁Cube	-9758
▁['-1	-9759
▁aver	-9760
▁king	-9761
▁lies	-9762
4,5,6]	-9763
Solver	-9764
[::3])	-9765
_4([1,	-9766
ground	-9767
really	-9768
signed	-9769
▁Final	-9770
▁Space	-9771
▁TFIDF	-9772
▁Torus	-9773
▁Uncom	-9774
▁Union	-9775
▁['2',	-9776
▁['{0}	-9777
▁[(15,	-9778
▁[1,2]	-9779
▁[250,	-9780
▁[500,	-9781
▁about	-9782
▁along	-9783
▁annot	-9784
▁beats	-9785
▁chair	-9786
▁clamp	-9787
▁cores	-9788
▁cosmo	-9789
▁credi	-9790
▁daily	-9791
▁decTo	-9792
▁delay	-9793
▁denom	-9794
▁divmo	-9795
▁dress	-9796
▁dsine	-9797
▁dtanh	-9798
▁edges	-9799
OO	-9800
nI	-9801
00]	-9802
1);	-9803
7,3	-9804
8],	-9805
=1)	-9806
]);	-9807
_1+	-9808
__'	-9809
aaa	-9810
aye	-9811
cde	-9812
has	-9813
nIf	-9814
▁53	-9815
▁67	-9816
▁69	-9817
▁So	-9818
▁}]	-9819
('([	-9820
()),	-9821
1=31	-9822
=10,	-9823
IGHT	-9824
])):	-9825
bers	-9826
lens	-9827
over	-9828
wice	-9829
▁'5,	-9830
▁(4*	-9831
▁18]	-9832
▁Far	-9833
▁eff	-9834
([0-9	-9835
))))]	-9836
)-1]+	-9837
There	-9838
[-1:]	-9839
nList	-9840
sList	-9841
ubber	-9842
▁#24.	-9843
▁#27.	-9844
▁Gets	-9845
▁That	-9846
▁Vote	-9847
▁["",	-9848
▁dlog	-9849
▁eyes	-9850
▁frac	-9851
▁game	-9852
▁mand	-9853
▁neck	-9854
▁repr	-9855
Custom	-9856
hashed	-9857
logger	-9858
rength	-9859
ricket	-9860
▁[1,1,	-9861
▁carol	-9862
▁depth	-9863
▁etext	-9864
▁falsy	-9865
▁findR	-9866
▁grade	-9867
▁india	-9868
▁label	-9869
▁manip	-9870
▁means	-9871
▁mylis	-9872
▁mystr	-9873
▁naive	-9874
▁nchar	-9875
▁newCh	-9876
▁paper	-9877
▁permu	-9878
▁plane	-9879
▁prior	-9880
▁reach	-9881
▁robin	-9882
▁rules	-9883
▁sList	-9884
▁scale	-9885
▁share	-9886
▁snake	-9887
▁still	-9888
▁strin	-9889
▁sumOf	-9890
▁sumof	-9891
▁super	-9892
▁swaps	-9893
▁tells	-9894
▁tetra	-9895
▁texts	-9896
▁thats	-9897
▁trace	-9898
▁trips	-9899
(4,	-9900
3))	-9901
3),	-9902
=50	-9903
==4	-9904
==5	-9905
==7	-9906
==9	-9907
Non	-9908
Run	-9909
Spe	-9910
ada	-9911
▁%=	-9912
▁36	-9913
▁70	-9914
▁71	-9915
▁77	-9916
▁79	-9917
▁80	-9918
▁85	-9919
▁AM	-9920
),('	-9921
0]))	-9922
12],	-9923
1]]]	-9924
=10/	-9925
JSON	-9926
]}")	-9927
oper	-9928
rees	-9929
▁(),	-9930
▁102	-9931
▁2);	-9932
▁=[]	-9933
▁Spe	-9934
▁leg	-9935
▁nPr	-9936
)==2)	-9937
10,3,	-9938
Round	-9939
Speed	-9940
betic	-9941
ciled	-9942
osoya	-9943
radix	-9944
▁'.-.	-9945
▁150,	-9946
▁273.	-9947
▁350]	-9948
▁love	-9949
▁near	-9950
▁nest	-9951
▁sety	-9952
▁stel	-9953
'),()]	-9954
='2020	-9955
before	-9956
cition	-9957
health	-9958
maxlen	-9959
onehot	-9960
proper	-9961
terfly	-9962
ucated	-9963
ynamic	-9964
▁comes	-9965
▁reada	-9966
▁timed	-9967
▁tsurf	-9968
▁twice	-9969
▁unzip	-9970
▁vowle	-9971
▁whole	-9972
▁worst	-9973
▁yards	-9974
▁{'0',	-9975
▁{'1':	-9976
▁{})".	-9977
▁{}}}}	-9978
"(?<=[%	-9979
%2!=0):	-9980
%2==0],	-9981
%2==1])	-9982
%3==0])	-9983
%5==0):	-9984
%7==0],	-9985
')+1)))	-9986
','8'),	-9987
(',')))	-9988
('1')))	-9989
('234')	-9990
(0,10))	-9991
(1,10):	-9992
(1000))	-9993
([[4,5,	-9994
))**2==	-9995
)[::-1]	-9996
**2)-4*	-9997
,0,-1):	-9998
//2+1):	-9999
];	-10000
("-	-10001
([%	-10002
,**	-10003
2)}	-10004
=((	-10005
daY	-10006
eds	-10007
ody	-10008
▁43	-10009
▁92	-10010
▁96	-10011
((1,	-10012
(1))	-10013
(1):	-10014
)-(4	-10015
1:',	-10016
Rear	-10017
YYYY	-10018
Year	-10019
[0]+	-10020
body	-10021
none	-10022
odde	-10023
sita	-10024
▁#1.	-10025
▁-1:	-10026
▁2][	-10027
▁9):	-10028
▁98,	-10029
▁bil	-10030
▁cac	-10031
()[7]	-10032
[0]))	-10033
])([%	-10034
deque	-10035
drawn	-10036
isces	-10037
monte	-10038
mystr	-10039
tetra	-10040
▁#18.	-10041
▁122)	-10042
▁1:33	-10043
▁200)	-10044
▁Fact	-10045
▁[[0]	-10046
▁aren	-10047
▁done	-10048
▁exha	-10049
▁know	-10050
▁slat	-10051
('{:02	-10052
Common	-10053
Vector	-10054
[0][0]	-10055
change	-10056
▁dType	-10057
▁feels	-10058
▁greet	-10059
▁lname	-10060
▁param	-10061
!=0.0):	-10062
()*100-	-10063
0-9]+',	-10064
000000'	-10065
1,100):	-10066
11,12],	-10067
14,15],	-10068
15,17]]	-10069
17,18]]	-10070
17,77,3	-10071
1[1][0]	-10072
2[1][0]	-10073
="20/04	-10074
=(10,))	-10075
=0.394*	-10076
==0.0):	-10077
ABCDEFG	-10078
Advance	-10079
Akshats	-10080
Average	-10081
BaseTen	-10082
Celsius	-10083
CharsSy	-10084
FIBONAC	-10085
Flatten	-10086
HIGHEST	-10087
Handler	-10088
InCamel	-10089
Indians	-10090
Leading	-10091
Manjeet	-10092
Nikhils	-10093
OfTuple	-10094
Oranges	-10095
Princip	-10096
Process	-10097
Returns	-10098
Subsets	-10099
)].	-10100
Equ	-10101
rum	-10102
▁44	-10103
-1]+	-10104
]//(	-10105
comm	-10106
inct	-10107
only	-10108
prog	-10109
▁!=0	-10110
▁21]	-10111
▁[[[	-10112
▁[[]	-10113
(',')	-10114
rfind	-10115
▁100]	-10116
▁900,	-10117
chunks	-10118
▁"5"),	-10119
▁1000,	-10120
▁myarr	-10121
▁parse	-10122
ToASCII	-10123
Tuesday	-10124
UNICODE	-10125
[0][0])	-10126
],[5],[	-10127
]{};:\,	-10128
accumul	-10129
animals	-10130
argsort	-10131
artists	-10132
biggest	-10133
bsolute	-10134
buckets	-10135
catalan	-10136
celcius	-10137
claring	-10138
collect	-10139
defined	-10140
derived	-10141
divisor	-10142
encoded	-10143
english	-10144
explain	-10145
figsize	-10146
finally	-10147
getDist	-10148
getroot	-10149
headron	-10150
heappop	-10151
history	-10152
incipal	-10153
indices	-10154
intlist	-10155
ircular	-10156
istitle	-10157
krishna	-10158
leading	-10159
lipsoid	-10160
mittent	-10161
mplemen	-10162
nlocals	-10163
nowplay	-10164
nstring	-10165
ominent	-10166
omorrow	-10167
opriate	-10168
ousands	-10169
plotlib	-10170
polygon	-10171
present	-10172
quarius	-10173
raphson	-10174
repeats	-10175
science	-10176
scorpio	-10177
session	-10178
shorter	-10179
similar	-10180
sinlist	-10181
smaller	-10182
softmax	-10183
strings	-10184
sundays	-10185
tracted	-10186
unicode	-10187
uniform	-10188
unknown	-10189
uotient	-10190
weather	-10191
working	-10192
wrapped	-10193
{1,3}",	-10194
▁"-04-1	-10195
▁"10"),	-10196
▁"10")]	-10197
▁"20"),	-10198
▁"2[0-4	-10199
▁"86"),	-10200
▁'-....	-10201
▁'.----	-10202
▁'11100	-10203
▁'45'),	-10204
▁("98",	-10205
▁(0.33)	-10206
▁(0.83)	-10207
▁0.6214	-10208
▁1):-1]	-10209
▁2002))	-10210
▁34.564	-10211
▁9999):	-10212
▁Bright	-10213
▁Bucket	-10214
▁Caesar	-10215
▁Cipher	-10216
▁CoList	-10217
▁Cosine	-10218
▁Cummul	-10219
▁DIGITS	-10220
▁Entity	-10221
▁George	-10222
▁Google	-10223
▁Larger	-10224
▁Linear	-10225
▁Parame	-10226
▁Powers	-10227
▁Raises	-10228
▁Recipe	-10229
▁Restau	-10230
▁Sakkis	-10231
▁Segreg	-10232
▁Shaker	-10233
▁Single	-10234
▁Switch	-10235
▁Useful	-10236
▁[1000,	-10237
▁absent	-10238
▁across	-10239
▁adjust	-10240
▁amorti	-10241
▁angled	-10242
▁animal	-10243
▁arithe	-10244
▁asking	-10245
▁begins	-10246
▁better	-10247
▁borrow	-10248
▁button	-10249
▁caesar	-10250
▁calcul	-10251
▁cannot	-10252
▁closed	-10253
▁colNum	-10254
▁commas	-10255
▁cosmos	-10256
▁ctypes	-10257
▁cullen	-10258
▁design	-10259
▁divmod	-10260
▁during	-10261
▁faster	-10262
▁finals	-10263
▁forget	-10264
▁greets	-10265
▁ground	-10266
▁halves	-10267
▁iTunes	-10268
▁isFull	-10269
▁lenght	-10270
▁listOf	-10271
▁locals	-10272
▁making	-10273
▁merger	-10274
▁merges	-10275
▁meters	-10276
▁mirror	-10277
▁myDict	-10278
▁myfunc	-10279
▁nlines	-10280
▁notice	-10281
▁pascal	-10282
▁perrin	-10283
▁primes	-10284
▁printn	-10285
▁prompt	-10286
▁pronic	-10287
▁pseudo	-10288
▁psutil	-10289
▁public	-10290
▁pushes	-10291
▁pythin	-10292
▁queued	-10293
▁record	-10294
▁returb	-10295
▁revStr	-10296
▁rowNum	-10297
▁scored	-10298
▁secret	-10299
▁setBit	-10300
▁shrink	-10301
▁simult	-10302
▁splits	-10303
▁stella	-10304
▁stocks	-10305
▁tomato	-10306
▁toward	-10307
▁triple	-10308
▁typeId	-10309
▁verify	-10310
▁zodiac	-10311
',21],['	-10312
',34],['	-10313
(1,1001)	-10314
(1,500):	-10315
([1,2,3,	-10316
([2,4,5,	-10317
))))<10]	-10318
)[::-1])	-10319
**2*3.14	-10320
+1][1]):	-10321
-12-20')	-10322
-45,900]	-10323
100,200,	-10324
20,30],[	-10325
25[0-5])	-10326
3],[4,5,	-10327
5,5,5,5,	-10328
=0.0328*	-10329
Baseball	-10330
BirthdaY	-10331
Bitstamp	-10332
Converts	-10333
DataType	-10334
Diameter	-10335
EveIndex	-10336
Interest	-10337
Manjeets	-10338
Matrices	-10339
NotFound	-10340
Optional	-10341
PROTOCOL	-10342
Saturday	-10343
Scissors	-10344
Thursday	-10345
Variable	-10346
[::-1]):	-10347
],[3],[4	-10348
]{2,})[%	-10349
adjacent	-10350
aneously	-10351
bitstamp	-10352
blocking	-10353
capacity	-10354
countmap	-10355
dequeued	-10356
determin	-10357
diagonal	-10358
direcory	-10359
distinct	-10360
educated	-10361
encoding	-10362
enugopal	-10363
eratures	-10364
finditer	-10365
finitely	-10366
getprice	-10367
hematics	-10368
identity	-10369
incremen	-10370
lastname	-10371
listeven	-10372
listodde	-10373
nMessage	-10374
nificant	-10375
otations	-10376
resample	-10377
scarface	-10378
schedule	-10379
searcher	-10380
setLevel	-10381
severely	-10382
splitext	-10383
starttag	-10384
structor	-10385
succeeds	-10386
tedError	-10387
textfile	-10388
tickerDf	-10389
tokenize	-10390
topsongs	-10391
uicksort	-10392
validate	-10393
weighted	-10394
},{},{}]	-10395
▁"+"{:.0	-10396
▁(10,20)	-10397
▁0,0,0,0	-10398
▁2020-12	-10399
▁3],[13,	-10400
▁6371.01	-10401
▁Appears	-10402
▁Artists	-10403
▁Bitcoin	-10404
▁Buffalo	-10405
▁Certain	-10406
▁Changed	-10407
▁Collatz	-10408
▁Compare	-10409
▁Content	-10410
▁Decrypt	-10411
▁Encrypt	-10412
▁Leibniz	-10413
▁Myclass	-10414
▁Special	-10415
▁Squares	-10416
▁Student	-10417
▁Sublist	-10418
▁Subsets	-10419
▁Suppose	-10420
▁Welcome	-10421
▁[("45",	-10422
▁[1,3,4]	-10423
▁aCircle	-10424
▁adverbs	-10425
▁bigChar	-10426
▁capture	-10427
▁changes	-10428
▁closure	-10429
▁complex	-10430
▁concept	-10431
▁counted	-10432
▁cursurf	-10433
▁dcosine	-10434
▁decrypt	-10435
▁deepest	-10436
▁desired	-10437
▁diction	-10438
▁emulate	-10439
▁encrypt	-10440
▁express	-10441
▁factend	-10442
▁formate	-10443
▁functio	-10444
▁getpass	-10445
▁harshad	-10446
▁heappop	-10447
▁highest	-10448
▁include	-10449
▁inplace	-10450
▁inverse	-10451
▁isFirst	-10452
▁isPower	-10453
▁isclose	-10454
▁jeffrey	-10455
▁leaders	-10456
▁locally	-10457
▁looping	-10458
▁mailids	-10459
▁measure	-10460
▁ncycles	-10461
▁nearest	-10462
▁needing	-10463
▁nesting	-10464
▁newNode	-10465
▁numlegs	-10466
▁occured	-10467
▁options	-10468
▁ordered	-10469
▁overall	-10470
▁packing	-10471
▁playing	-10472
▁primary	-10473
▁private	-10474
▁progarm	-10475
▁provide	-10476
▁purpose	-10477
▁receive	-10478
▁relaxes	-10479
▁request	-10480
▁scalene	-10481
▁sitting	-10482
▁sklearn	-10483
▁snippet	-10484
▁someone	-10485
▁summing	-10486
▁threads	-10487
▁urlopen	-10488
▁volumeP	-10489
▁volumeT	-10490
▁winners	-10491
▁woodall	-10492
▁wriiten	-10493
':'1997-0	-10494
']))[:-1]	-10495
("[0-9]",	-10496
('{0:6}'.	-10497
(100,201)	-10498
([1,10,3,	-10499
......"),	-10500
1)[::-1])	-10501
1,17,222]	-10502
10,6,8,4]	-10503
1=[1,2,3]	-10504
298,3579,	-10505
2=[4,5,6]	-10506
7,98])}')	-10507
70,80,90]	-10508
Americans	-10509
Appending	-10510
Commuting	-10511
Decorator	-10512
Divisible	-10513
EmptyList	-10514
Exception	-10515
FIBONACCI	-10516
Factorial	-10517
Flattened	-10518
Formatted	-10519
Hexagonal	-10520
Kilometer	-10521
Lowercase	-10522
MissingNo	-10523
Occurence	-10524
Positions	-10525
Principle	-10526
Requested	-10527
STOPWORDS	-10528
TheMatrix	-10529
Wednesday	-10530
alternate	-10531
binaryNum	-10532
birthDate	-10533
cashflows	-10534
christmas	-10535
effective	-10536
enclosing	-10537
enumerate	-10538
equalEnds	-10539
fillvalue	-10540
firstname	-10541
getsource	-10542
hashTable	-10543
initially	-10544
listvalue	-10545
membering	-10546
multTimes	-10547
mynumbers	-10548
nDistance	-10549
nReversed	-10550
nominator	-10551
occurring	-10552
onenumber	-10553
opertaion	-10554
printable	-10555
repeating	-10556
seperator	-10557
simulator	-10558
stopwords	-10559
stripping	-10560
tedNumber	-10561
underline	-10562
validator	-10563
weightage	-10564
wordcloud	-10565
▁'\.[0]*'	-10566
▁("{:,}".	-10567
▁(0,4,5)]	-10568
▁(0.1666)	-10569
▁(1,2,3)"	-10570
▁(1.73205	-10571
▁0.000001	-10572
▁Amicable	-10573
▁Bitstamp	-10574
▁Checking	-10575
▁Cocktail	-10576
▁Decrypts	-10577
▁Defaults	-10578
▁Dequeues	-10579
▁Diameter	-10580
▁Distinct	-10581
▁Divident	-10582
▁Encrypts	-10583
▁Examples	-10584
▁Expected	-10585
▁Heapsort	-10586
▁Infinite	-10587
▁Iterator	-10588
▁KeyError	-10589
▁Printing	-10590
▁SPECIALS	-10591
▁Traverse	-10592
▁TreeNode	-10593
▁['-1']))	-10594
▁[4,5,6],	-10595
▁[5,5,5],	-10596
▁[7,8,9]]	-10597
▁activity	-10598
▁addentry	-10599
▁addnames	-10600
▁adjacent	-10601
▁amicable	-10602
▁amstrong	-10603
▁anagrams	-10604
▁anything	-10605
▁argparse	-10606
▁bilinear	-10607
▁builtins	-10608
▁capacity	-10609
▁commands	-10610
▁computed	-10611
▁consumes	-10612
▁creating	-10613
▁credited	-10614
▁database	-10615
▁datalist	-10616
▁deletion	-10617
▁dequeued	-10618
▁division	-10619
▁dtangent	-10620
▁elemnets	-10621
▁encapsul	-10622
▁entirely	-10623
▁examples	-10624
▁favorite	-10625
▁funvtion	-10626
▁getprice	-10627
▁homoList	-10628
▁hypnosis	-10629
▁imagpart	-10630
▁ininches	-10631
▁initiate	-10632
▁inputNum	-10633
▁interger	-10634
▁jsonData	-10635
▁leapyear	-10636
▁listname	-10637
▁midpoint	-10638
▁noticing	-10639
▁octalNum	-10640
▁patterns	-10641
▁payments	-10642
▁presence	-10643
▁printNum	-10644
▁problems	-10645
▁quantify	-10646
▁querying	-10647
▁queueing	-10648
▁realpart	-10649
▁schedule	-10650
▁seperate	-10651
▁silently	-10652
▁stations	-10653
▁straight	-10654
▁stripted	-10655
▁thinking	-10656
▁tickerDf	-10657
▁together	-10658
▁tokenise	-10659
▁triplets	-10660
▁unpunctu	-10661
▁unsigned	-10662
▁yfinance	-10663
([[4,5,8],	-10664
+1)%3==0])	-10665
1**2)**0.5	-10666
123456789'	-10667
2)[::-1]))	-10668
Assignment	-10669
CircleArea	-10670
Connection	-10671
Helloworld	-10672
PerfectNum	-10673
SchoolofAI	-10674
Segregated	-10675
ValueError	-10676
[1-9][0-9]	-10677
accumulate	-10678
activation	-10679
activities	-10680
aeiouAEIOU	-10681
aeiuoAEIOU	-10682
agittarius	-10683
allindrome	-10684
arithmetic	-10685
calculator	-10686
complement	-10687
decompress	-10688
expression	-10689
extraction	-10690
fibbonacci	-10691
fromstring	-10692
getMinDist	-10693
ishwarraja	-10694
itemgetter	-10695
lenthwords	-10696
nDecrypted	-10697
ngenerator	-10698
nowplaying	-10699
occurrence	-10700
pertyCache	-10701
population	-10702
priorities	-10703
properties	-10704
psdfghjklz	-10705
roundrobin	-10706
sampleDict	-10707
transposed	-10708
tuplevalue	-10709
ubberDucky	-10710
userChoice	-10711
▁'1010101'	-10712
▁(1,2,3,4)	-10713
▁Alphabets	-10714
▁Anonymous	-10715
▁Beautiful	-10716
▁Breakable	-10717
▁Butterfly	-10718
▁Bytearray	-10719
▁Correctly	-10720
▁Declaring	-10721
▁Exchanged	-10722
▁Fractions	-10723
▁Generates	-10724
▁Hexagonal	-10725
▁Numerical	-10726
▁Occurring	-10727
▁Perimeter	-10728
▁President	-10729
▁Principal	-10730
▁STOPWORDS	-10731
▁Selection	-10732
▁Substring	-10733
▁Subtracts	-10734
▁Temporary	-10735
▁Uncomment	-10736
▁[2,3,6]])	-10737
▁attribute	-10738
▁averaging	-10739
▁beautiful	-10740
▁birthDate	-10741
▁bytearray	-10742
▁cashflows	-10743
▁collector	-10744
▁composite	-10745
▁contained	-10746
▁decorated	-10747
▁delimited	-10748
▁effective	-10749
▁emulating	-10750
▁exhausted	-10751
▁facecolor	-10752
▁finalList	-10753
▁fractions	-10754
▁funcction	-10755
▁instances	-10756
▁isPerfect	-10757
▁isosceles	-10758
▁kilometer	-10759
▁listcompr	-10760
▁localtime	-10761
▁logarithm	-10762
▁lowersase	-10763
▁mandatory	-10764
▁maximally	-10765
▁mergeList	-10766
▁multTimes	-10767
▁nominator	-10768
▁octangula	-10769
▁operators	-10770
▁overdrawn	-10771
▁paragraph	-10772
▁passwords	-10773
▁prominent	-10774
▁replacing	-10775
▁returnSum	-10776
▁temporary	-10777
▁thousands	-10778
▁totalBits	-10779
▁traversal	-10780
▁universal	-10781
▁unlimited	-10782
([1,2,3])))	-10783
0010000110'	-10784
1,44,55,20]	-10785
1[0-9][0-9]	-10786
40,50,60],[	-10787
=[2,5,7,9,1	-10788
HellowWorld	-10789
InCamelCase	-10790
Indentation	-10791
breakpoints	-10792
checkString	-10793
checkSubset	-10794
comfortably	-10795
description	-10796
determinant	-10797
eligibility	-10798
evennumbers	-10799
exponential	-10800
incrementor	-10801
minimumLeft	-10802
renthesized	-10803
subsequence	-10804
▁'2.000000'	-10805
▁Alphabetic	-10806
▁Calculator	-10807
▁Challenges	-10808
▁Complement	-10809
▁Conjecture	-10810
▁Difference	-10811
▁Expression	-10812
▁Generators	-10813
▁HTMLParser	-10814
▁Illustrate	-10815
▁Parameters	-10816
▁Recognizer	-10817
▁Restaurant	-10818
▁[54,26,93,	-10819
▁aNewYorker	-10820
▁aRectangle	-10821
▁activation	-10822
▁annotation	-10823
▁assignment	-10824
▁background	-10825
▁candidates	-10826
▁completely	-10827
▁consonants	-10828
▁decompress	-10829
▁dequeueing	-10830
▁dotproduct	-10831
▁extracting	-10832
▁fibbonacci	-10833
▁findDigits	-10834
▁findVolume	-10835
▁generation	-10836
▁getBaseTen	-10837
▁getMinDist	-10838
▁heterogram	-10839
▁historical	-10840
▁identified	-10841
▁matplotlib	-10842
▁moveSpaces	-10843
▁nextSquare	-10844
▁occurences	-10845
▁previously	-10846
▁primeornot	-10847
▁printTuple	-10848
▁priorities	-10849
▁repeatfunc	-10850
▁roundrobin	-10851
▁sampleDict	-10852
▁separators	-10853
▁setdefault	-10854
▁squareRoot	-10855
▁stringlist	-10856
▁successive	-10857
▁supporting	-10858
▁tempString	-10859
▁threadName	-10860
▁traversing	-10861
▁understand	-10862
▁validation	-10863
▁vectorizer	-10864
','15','8'),	-10865
**0.5))**2==	-10866
20,30,40,50]	-10867
6,7,8,9,10),	-10868
6,78,35,55])	-10869
88,120,155])	-10870
='2015-1-1',	-10871
CharsSymbols	-10872
EveIndexChar	-10873
firstElement	-10874
isPalindrome	-10875
mydictionary	-10876
▁('',''),()]	-10877
▁Consecutive	-10878
▁Cummulative	-10879
▁Fahreinheit	-10880
▁Frequencies	-10881
▁Icosahedron	-10882
▁Incremented	-10883
▁Mathematics	-10884
▁NotImplemen	-10885
▁Repetations	-10886
▁Segregating	-10887
▁Temperature	-10888
▁['{0}={1}'.	-10889
▁[13,14,15],	-10890
▁[16,17,18]]	-10891
▁adjustments	-10892
▁appropriate	-10893
▁breakpoints	-10894
▁calculation	-10895
▁capitalized	-10896
▁capitalizes	-10897
▁charToASCII	-10898
▁checkString	-10899
▁checkSubset	-10900
▁comfortable	-10901
▁comfortably	-10902
▁description	-10903
▁determinant	-10904
▁differences	-10905
▁factendzero	-10906
▁frequencies	-10907
▁generateOTP	-10908
▁homogeneous	-10909
▁information	-10910
▁inheritance	-10911
▁inputstring	-10912
▁isValidDate	-10913
▁particition	-10914
▁recursively	-10915
▁remembering	-10916
▁removeChars	-10917
▁repetitions	-10918
▁reverselist	-10919
▁sampleTuple	-10920
▁significant	-10921
▁sizeOfTuple	-10922
▁sumOfDigits	-10923
▁sumofdigits	-10924
▁surfaceArea	-10925
'!()-[]{};:\,	-10926
="20/04/2021"	-10927
AAAABBBCCDAAA	-10928
MatchCriteria	-10929
NotFoundError	-10930
RaphsonSolver	-10931
fromtimestamp	-10932
repeatnstring	-10933
theschoolofai	-10934
▁"0123456789"	-10935
▁"2[0-4][0-9]	-10936
▁Combinations	-10937
▁[[10,11,12],	-10938
▁amortization	-10939
▁decapitalize	-10940
▁dictionaires	-10941
▁encapsulated	-10942
▁firstElement	-10943
▁getMissingNo	-10944
▁indefinitely	-10945
▁initialising	-10946
▁intermittent	-10947
▁listOfTuples	-10948
▁manipulation	-10949
▁milliseconds	-10950
▁mydictionary	-10951
▁rotateMatrix	-10952
▁setBitNumber	-10953
▁tetraheadron	-10954
▁unpunctuated	-10955
▁validateJSON	-10956
▁volumeSquare	-10957
([12,24,35,24,	-10958
3],[4,5,6],[7,	-10959
='2020-12-20')	-10960
TestStringwith	-10961
leftMostPosEle	-10962
squaredNumbers	-10963
▁'2000-01-03',	-10964
▁'2000-01-06',	-10965
▁BeautifulSoup	-10966
▁Circumference	-10967
▁GeeksforGeeks	-10968
▁Parenthesized	-10969
▁[1,2,3,4,5,6]	-10970
▁findDivisible	-10971
▁findfactorial	-10972
▁interpolation	-10973
▁removeLeading	-10974
(['2000-01-01',	-10975
CirclePerimeter	-10976
ConnectionError	-10977
getBitcoinPrice	-10978
listoddelements	-10979
qwrtypsdfghjklz	-10980
▁3],[13,15,17]]	-10981
▁BinaryTreeNode	-10982
▁TheRubberDucky	-10983
▁[2,4,10,6,8,4]	-10984
▁bracketspython	-10985
▁firstOccurence	-10986
▁removeDataType	-10987
▁simultaneously	-10988
▁typeIdentifier	-10989
100,200,-45,900]	-10990
Multidimensional	-10991
duplicatesinlist	-10992
listevenelements	-10993
▁'2000-01-08']))	-10994
▁CirclePerimeter	-10995
▁[1,1,2,3,4,4,5,	-10996
▁[1000,298,3579,	-10997
▁checkPerfectNum	-10998
▁formattedNumber	-10999
▁getBitcoinPrice	-11000
▁multiprocessing	-11001
▁removeEmptyList	-11002
▁volumeHexagonal	-11003
%%'	-11004
'[^	-11005
)(4	-11006
)>1	-11007
*36	-11008
+32	-11009
.){	-11010
2}:	-11011
5.0	-11012
5/9	-11013
6.0	-11014
609	-11015
ATA	-11016
Anu	-11017
BDA	-11018
CBv	-11019
EDD	-11020
ELU	-11021
FML	-11022
FOO	-11023
GBJ	-11024
HAN	-11025
ILL	-11026
ISK	-11027
ITK	-11028
MAR	-11029
NOT	-11030
ORE	-11031
PEG	-11032
SFG	-11033
Urz	-11034
Uuz	-11035
VES	-11036
YAL	-11037
[28	-11038
_3(	-11039
_4(	-11040
aug	-11041
drw	-11042
emt	-11043
lru	-11044
pnz	-11045
rOP	-11046
rgi	-11047
xbw	-11048
▁?"	-11049
":"+	-11050
"{}"	-11051
']),	-11052
("[]	-11053
('"%	-11054
('-7	-11055
('{:	-11056
((13	-11057
(0))	-11058
(3,9	-11059
(42)	-11060
)>0:	-11061
*365	-11062
*5/9	-11063
/0))	-11064
/10)	-11065
0/5.	-11066
11),	-11067
12),	-11068
16))	-11069
196"	-11070
2':-	-11071
2'},	-11072
21),	-11073
22]:	-11074
29))	-11075
29/9	-11076
2=[-	-11077
3'}]	-11078
3-",	-11079
3:4}	-11080
4'},	-11081
6.08	-11082
67]:	-11083
77'}	-11084
7:2]	-11085
7}"\	-11086
87]]	-11087
898.	-11088
99)*	-11089
='.'	-11090
=0,1	-11091
=50)	-11092
ATAK	-11093
AYAL	-11094
Adil	-11095
Awes	-11096
CBvs	-11097
DOWN	-11098
EDDD	-11099
Cpp	-11100
('[\	-11101
(102	-11102
.25,	-11103
1-1,	-11104
1.8)	-11105
1800	-11106
23,8	-11107
24):	-11108
24]:	-11109
452,	-11110
CppS	-11111
EVEN	-11112
Fabs	-11113
GBJk	-11114
ISKS	-11115
IsAP	-11116
LEFT	-11117
Lond	-11118
Mean	-11119
NUrz	-11120
Nico	-11121
OHAN	-11122
RING	-11123
Seet	-11124
Shru	-11125
Uuza	-11126
ValR	-11127
[-1:	-11128
[-3]	-11129
[145	-11130
[2::	-11131
[3::	-11132
[5])	-11133
_67[	-11134
argv	-11135
aura	-11136
avas	-11137
bala	-11138
bcde	-11139
bike	-11140
cope	-11141
guys	-11142
ibra	-11143
isit	-11144
jeet	-11145
kien	-11146
loni	-11147
naps	-11148
ntax	-11149
ophy	-11150
ovan	-11151
paxn	-11152
pune	-11153
qwer	-11154
raii	-11155
rump	-11156
sams	-11157
ware	-11158
wxyz	-11159
ysic	-11160
{:02	-11161
})\\	-11162
▁!",	-11163
▁!')	-11164
▁"%0	-11165
▁"21	-11166
▁'-'	-11167
▁'85	-11168
▁(_,	-11169
▁0/1	-11170
▁1+2	-11171
▁1/(	-11172
▁148	-11173
▁2.2	-11174
▁237	-11175
▁273	-11176
▁28)	-11177
▁28.	-11178
▁35.	-11179
▁38.	-11180
▁45.	-11181
▁528	-11182
▁6)"	-11183
▁6);	-11184
▁6.7	-11185
▁663	-11186
▁750	-11187
▁88}	-11188
▁97)	-11189
▁980	-11190
▁Ask	-11191
▁GMT	-11192
▁Hea	-11193
▁LEF	-11194
▁MPH	-11195
▁Mem	-11196
▁ONI	-11197
▁RGB	-11198
▁SWA	-11199
LAM	-11200
Leo	-11201
_)}	-11202
_2(	-11203
_2}	-11204
}={	-11205
(-1,	-11206
./3.	-11207
1)/(	-11208
40,'	-11209
874,	-11210
Make	-11211
ffix	-11212
flip	-11213
nNew	-11214
shak	-11215
shav	-11216
▁(1-	-11217
▁17:	-11218
▁17}	-11219
▁[52	-11220
▁]];	-11221
▁cls	-11222
▁fru	-11223
▁kel	-11224
▁lru	-11225
▁nrs	-11226
▁sqa	-11227
▁{2}	-11228
▁{55	-11229
","".	-11230
',1),	-11231
('"',	-11232
(',',	-11233
('-')	-11234
('-',	-11235
(0,25	-11236
(3)])	-11237
(3)];	-11238
(3456	-11239
([78,	-11240
([92,	-11241
),(4,	-11242
),40]	-11243
,"=",	-11244
-1]:[	-11245
-5,3,	-11246
-750)	-11247
.-.',	-11248
.0/3.	-11249
/2)])	-11250
/4"))	-11251
1)+',	-11252
1,102	-11253
1,2}:	-11254
1,4],	-11255
11(8)	-11256
12(9)	-11257
123',	-11258
1[0]-	-11259
1[1]-	-11260
2']['	-11261
2,1]]	-11262
2-1))	-11263
23,82	-11264
234",	-11265
300))	-11266
33,2,	-11267
399)*	-11268
4,8),	-11269
4})\\	-11270
5,4],	-11271
5,6,[	-11272
5654,	-11273
6,8))	-11274
65461	-11275
8,7],	-11276
='+')	-11277
=((1,	-11278
={5,6	-11279
>24):	-11280
>='0'	-11281
AMMAR	-11282
ATAKA	-11283
Added	-11284
AwesO	-11285
Diana	-11286
Eucli	-11287
Extra	-11288
GFGcs	-11289
Login	-11290
Mohan	-11291
Month	-11292
Peter	-11293
Provi	-11294
RCBvs	-11295
Seeta	-11296
State	-11297
TRING	-11298
Thron	-11299
%6)	-11300
%7]	-11301
+4)	-11302
011	-11303
16)	-11304
3.'	-11305
7.8	-11306
88]	-11307
94.	-11308
":3}	-11309
(26)	-11310
(32,	-11311
([3.	-11312
)[6]	-11313
0011	-11314
3}"\	-11315
6,6]	-11316
6,7}	-11317
8],[	-11318
={5,	-11319
Rank	-11320
],[2	-11321
draw	-11322
▁19.	-11323
▁25}	-11324
▁27.	-11325
▁29.	-11326
▁33.	-11327
▁39.	-11328
▁43.	-11329
▁53.	-11330
▁78]	-11331
▁Toe	-11332
▁[5*	-11333
+4)],	-11334
.094.	-11335
1],[2	-11336
7.84,	-11337
Trace	-11338
Virgo	-11339
[-2])	-11340
[0-9]	-11341
[0]-=	-11342
[11]:	-11343
[12]:	-11344
[19]:	-11345
[1]-=	-11346
[22]:	-11347
[24]:	-11348
[29]:	-11349
[46]:	-11350
[53]:	-11351
[57]:	-11352
[59]:	-11353
[74]:	-11354
[75]:	-11355
[78]:	-11356
[81]:	-11357
[82]:	-11358
[83]:	-11359
[85]:	-11360
[86]:	-11361
[90]:	-11362
[96]:	-11363
\\.){	-11364
][0]:	-11365
_1():	-11366
_3():	-11367
__=="	-11368
accis	-11369
adgas	-11370
aller	-11371
ancer	-11372
arBad	-11373
armer	-11374
astro	-11375
aurus	-11376
aussE	-11377
avasc	-11378
balaj	-11379
bfill	-11380
billy	-11381
black	-11382
boxes	-11383
built	-11384
cards	-11385
cause	-11386
ceman	-11387
clude	-11388
defen	-11389
dfghi	-11390
dummi	-11391
emini	-11392
fails	-11393
foref	-11394
forty	-11395
gaura	-11396
guous	-11397
iluzz	-11398
india	-11399
1=5	-11400
82"	-11401
Box	-11402
Max	-11403
OfE	-11404
axx	-11405
txn	-11406
!!",	-11407
(50)	-11408
(51.	-11409
1=50	-11410
2])]	-11411
OfDi	-11412
OfEl	-11413
gori	-11414
ived	-11415
snot	-11416
yaxx	-11417
▁"<%	-11418
▁24.	-11419
▁Max	-11420
')]],	-11421
-.-',	-11422
5682"	-11423
Hence	-11424
MaxIn	-11425
isdis	-11426
joint	-11427
libra	-11428
micro	-11429
milli	-11430
mkdir	-11431
mmedi	-11432
peeps	-11433
penny	-11434
radha	-11435
rgiff	-11436
satur	-11437
sensi	-11438
sizes	-11439
third	-11440
thmic	-11441
trips	-11442
truck	-11443
uclid	-11444
uffix	-11445
vwxyz	-11446
yjain	-11447
yloni	-11448
ysics	-11449
yware	-11450
{7}"\	-11451
▁!!",	-11452
▁"").	-11453
▁"#".	-11454
▁",,,	-11455
▁"-")	-11456
▁"0")	-11457
▁"110	-11458
▁"=="	-11459
▁'#',	-11460
▁'%',	-11461
▁'&':	-11462
▁'+':	-11463
▁'-',	-11464
▁'-'.	-11465
▁'-':	-11466
▁'/':	-11467
▁'01'	-11468
▁'123	-11469
▁'200	-11470
▁'5':	-11471
▁'6':	-11472
▁'7':	-11473
▁'8':	-11474
▁'85/	-11475
▁'[1,	-11476
▁'[4,	-11477
▁'_')	-11478
▁'_'.	-11479
▁(22,	-11480
▁(33)	-11481
▁(50,	-11482
▁(90,	-11483
▁*10)	-11484
▁-1),	-11485
▁-30]	-11486
▁-5))	-11487
▁->',	-11488
▁1)];	-11489
▁11),	-11490
▁11)}	-11491
▁16);	-11492
▁180:	-11493
▁18])	-11494
▁19)]	-11495
▁2));	-11496
▁2),"	-11497
▁2*((	-11498
▁2.54	-11499
'({	-11500
-05	-11501
257	-11502
3"}	-11503
456	-11504
50:	-11505
=23	-11506
XOR	-11507
[56	-11508
aAA	-11509
dAA	-11510
izz	-11511
▁\'	-11512
(2)]	-11513
({1:	-11514
,3))	-11515
-2])	-11516
1'])	-11517
2]),	-11518
<50:	-11519
='''	-11520
HdAA	-11521
IaAA	-11522
hana	-11523
hank	-11524
hape	-11525
mers	-11526
▁(+=	-11527
▁130	-11528
▁256	-11529
▁30:	-11530
▁40:	-11531
▁456	-11532
▁\')	-11533
('257	-11534
()]):	-11535
(1/(1	-11536
([2])	-11537
([]):	-11538
)//2:	-11539
0-9].	-11540
3':24	-11541
456',	-11542
7,5,6	-11543
=[13,	-11544
DataF	-11545
Thank	-11546
[56]:	-11547
dIaAA	-11548
excel	-11549
izzes	-11550
nSort	-11551
pHdAA	-11552
rohan	-11553
▁''):	-11554
▁(44,	-11555
▁10.0	-11556
▁2021	-11557
▁211,	-11558
▁217,	-11559
▁219,	-11560
▁220]	-11561
▁239,	-11562
▁24),	-11563
▁248,	-11564
▁2700	-11565
▁3003	-11566
▁34],	-11567
▁375,	-11568
▁386,	-11569
▁399,	-11570
▁4,5*	-11571
▁40),	-11572
▁445,	-11573
▁4562	-11574
▁48);	-11575
▁55);	-11576
▁560}	-11577
▁56],	-11578
▁597,	-11579
▁615,	-11580
▁626,	-11581
▁687,	-11582
▁721,	-11583
▁743,	-11584
▁826,	-11585
▁831,	-11586
▁866,	-11587
▁88),	-11588
▁894,	-11589
▁90),	-11590
▁907,	-11591
▁949,	-11592
▁958,	-11593
▁='''	-11594
▁Buzz	-11595
▁Cell	-11596
▁Deep	-11597
▁Exer	-11598
▁Expa	-11599
Doc	-11600
Nep	-11601
)/(4	-11602
2000	-11603
3:',	-11604
5,7]	-11605
9999	-11606
:',[	-11607
={1:	-11608
Chri	-11609
Nums	-11610
oldb	-11611
olds	-11612
scii	-11613
step	-11614
zlib	-11615
▁((5	-11616
▁11}	-11617
▁16.	-11618
▁\",	-11619
("2",	-11620
)[1])	-11621
+')',	-11622
.9999	-11623
6)}")	-11624
Ascii	-11625
Capit	-11626
Goldb	-11627
Nepal	-11628
Octal	-11629
ROHAN	-11630
Where	-11631
idely	-11632
provi	-11633
talic	-11634
▁(45,	-11635
▁16],	-11636
▁30):	-11637
▁418,	-11638
▁Full	-11639
▁Hash	-11640
▁JPEG	-11641
▁Java	-11642
▁LEFT	-11643
▁Pair	-11644
▁Posi	-11645
▁Rock	-11646
▁Roll	-11647
▁Usge	-11648
▁["87	-11649
▁[1.0	-11650
▁[25,	-11651
▁[45,	-11652
▁[80,	-11653
▁[98,	-11654
▁\",\	-11655
▁arsm	-11656
▁bank	-11657
▁camp	-11658
▁cell	-11659
▁cyle	-11660
▁filt	-11661
▁gran	-11662
▁hana	-11663
▁htne	-11664
▁immp	-11665
▁isAr	-11666
▁logs	-11667
▁nude	-11668
▁octa	-11669
▁plus	-11670
▁powe	-11671
▁skip	-11672
▁typo	-11673
▁what	-11674
▁wont	-11675
▁wrie	-11676
▁wrti	-11677
▁{55-	-11678
▁{:.3	-11679
"),(3,	-11680
"{}"'.	-11681
',29))	-11682
',4,5]	-11683
':100,	-11684
("-"))	-11685
("1/",	-11686
('/'))	-11687
('0'))	-11688
('1234	-11689
('3.14	-11690
()[1])	-11691
()[1]:	-11692
(1,10)	-11693
(1,2)]	-11694
(1/(1+	-11695
(100)]	-11696
(101))	-11697
(2,10)	-11698
(2,8),	-11699
'{[	-11700
=87	-11701
▁.0	-11702
("\"	-11703
(201	-11704
1'))	-11705
2'))	-11706
3=87	-11707
412,	-11708
Bala	-11709
Copi	-11710
FMLc	-11711
Take	-11712
amir	-11713
duck	-11714
dulo	-11715
hedu	-11716
snow	-11717
unix	-11718
▁.08	-11719
▁.3,	-11720
▁.4,	-11721
▁.5,	-11722
▁.6,	-11723
▁.7,	-11724
▁.8,	-11725
▁1-9	-11726
▁15}	-11727
▁8]'	-11728
▁mix	-11729
":1,"	-11730
("\"%	-11731
323,6	-11732
FMLcN	-11733
Shift	-11734
[-1::	-11735
[-1]]	-11736
angel	-11737
delhi	-11738
rapol	-11739
stina	-11740
trace	-11741
virgo	-11742
▁"'":	-11743
▁.10,	-11744
▁.20,	-11745
▁1234	-11746
▁412,	-11747
▁512,	-11748
▁[1-9	-11749
▁miri	-11750
(2015,	-11751
(2019,	-11752
(23456	-11753
(3,9)]	-11754
(3456)	-11755
(7,16)	-11756
(900))	-11757
([1,1,	-11758
([3.0,	-11759
([[10,	-11760
({"1":	-11761
))==3:	-11762
)-1)))	-11763
)==1):	-11764
){7}"\	-11765
*(750)	-11766
**2)))	-11767
+1)/2)	-11768
+1,2):	-11769
-02'},	-11770
-13'}]	-11771
-4,-8]	-11772
..--',	-11773
...-',	-11774
.0/3.0	-11775
.0/5.0	-11776
//100:	-11777
//3)*3	-11778
/100))	-11779
0.8]))	-11780
0/5.0)	-11781
00111"	-11782
1)[2:]	-11783
1,"+",	-11784
1,"-",	-11785
100'))	-11786
101000	-11787
180020	-11788
1[-2])	-11789
1[:4]:	-11790
2)[2:]	-11791
2,-4,-	-11792
2,3,4]	-11793
2,3],[	-11794
3,3,3,	-11795
3,3,4,	-11796
4),(4,	-11797
4,5]))	-11798
4.5')]	-11799
({}	-11800
)(2	-11801
['}	-11802
bai	-11803
grt	-11804
rrt	-11805
rtu	-11806
zRe	-11807
({})	-11808
+1];	-11809
-3):	-11810
Arus	-11811
OWER	-11812
Rece	-11813
Repe	-11814
SumW	-11815
card	-11816
drwa	-11817
fabs	-11818
gard	-11819
hirt	-11820
icky	-11821
rrtt	-11822
uses	-11823
{}'.	-11824
▁0.0	-11825
▁0}]	-11826
▁17.	-11827
▁2:4	-11828
▁3}]	-11829
▁7}]	-11830
▁9}]	-11831
▁fai	-11832
('{0}	-11833
(6,7,	-11834
/{}'.	-11835
3,6),	-11836
Miles	-11837
Vicky	-11838
cises	-11839
eroes	-11840
rrttg	-11841
shirt	-11842
umbai	-11843
▁'(',	-11844
▁0.1,	-11845
▁2004	-11846
▁2:43	-11847
▁324,	-11848
▁344,	-11849
▁3]))	-11850
▁9]))	-11851
▁bcde	-11852
▁faiz	-11853
':'['}	-11854
('{0}:	-11855
5,5,7,	-11856
5],[3,	-11857
71,102	-11858
89898.	-11859
=(2,3,	-11860
={1:5,	-11861
Albert	-11862
Arushi	-11863
CarBad	-11864
Choose	-11865
Copied	-11866
Cyware	-11867
Differ	-11868
Eating	-11869
Exists	-11870
FMLcNl	-11871
Gemini	-11872
Health	-11873
Hosoya	-11874
Inputs	-11875
Keymax	-11876
LAMBDA	-11877
Letera	-11878
Logger	-11879
London	-11880
Median	-11881
Meters	-11882
MinSum	-11883
Pascal	-11884
Pisces	-11885
Repeat	-11886
STRING	-11887
Shruth	-11888
Single	-11889
Sudoku	-11890
Taurus	-11891
TpHdAA	-11892
United	-11893
UuUuza	-11894
ValRay	-11895
Varsha	-11896
[0:2]:	-11897
[0]))}	-11898
[102]:	-11899
%4:	-11900
(7)	-11901
*5)	-11902
->{	-11903
.5]	-11904
1(*	-11905
15)	-11906
15.	-11907
[6]	-11908
▁].	-11909
('</	-11910
(20,	-11911
▁	-11912
e	-11913
t	-11914
i	-11915
r	-11916
n	-11917
a	-11918
s	-11919
o	-11920
l	-11921
u	-11922
p	-11923
m	-11924
f	-11925
d	-11926
(	-11927
)	-11928
c	-11929
h	-11930
,	-11931
=	-11932
g	-11933
:	-11934
_	-11935
"	-11936
1	-11937
y	-11938
'	-11939
w	-11940
b	-11941
.	-11942
0	-11943
[	-11944
]	-11945
v	-11946
#	-11947
2	-11948
x	-11949
k	-11950
+	-11951
-	-11952
3	-11953
*	-11954
5	-11955
4	-11956
P	-11957
W	-11958
T	-11959
j	-11960
{	-11961
}	-11962
q	-11963
S	-11964
6	-11965
C	-11966
/	-11967
N	-11968
8	-11969
%	-11970
7	-11971
A	-11972
>	-11973
9	-11974
L	-11975
E	-11976
I	-11977
F	-11978
D	-11979
z	-11980
<	-11981
R	-11982
M	-11983
!	-11984
G	-11985
B	-11986
O	-11987
\	-11988
H	-11989
K	-11990
V	-11991
Y	-11992
;	-11993
U	-11994
X	-11995
?	-11996
J	-11997
&	-11998
^	-11999
