[PAD]	0
[UNK]	0
[BOS]	0
[EOS]	0
[SEP]	0
[CLS]	0
[MASK]	0
le	-0
on	-1
te	-2
</	-3
rt	-4
▁<	-5
="	-6
st	-7
lert	-8
alert	-9
(1	-10
(1)	-11
▁on	-12
ra	-13
ab	-14
ti	-15
(1)"	-16
in	-17
test	-18
di	-19
sty	-20
style	-21
tion	-22
me	-23
><	-24
tab	-25
(1)">	-26
id	-27
re	-28
fo	-29
ut	-30
ri	-31
ma	-32
pt	-33
us	-34
sc	-35
con	-36
ript	-37
de	-38
nte	-39
script	-40
rag	-41
drag	-42
▁id	-43
></	-44
conte	-45
va	-46
an	-47
table	-48
▁conte	-49
ntedi	-50
nteditable	-51
▁contenteditable	-52
00	-53
co	-54
ro	-55
ima	-56
ru	-57
anima	-58
animation	-59
ta	-60
(1)></	-61
lo	-62
ke	-63
mo	-64
tra	-65
ns	-66
inde	-67
index	-68
=1	-69
tru	-70
true	-71
ge	-72
▁style	-73
trans	-74
use	-75
fra	-76
frame	-77
div	-78
▁tab	-79
▁tabindex	-80
key	-81
▁{	-82
cus	-83
ja	-84
focus	-85
mouse	-86
▁onmouse	-87
}</	-88
java	-89
ition	-90
able	-91
dragg	-92
▁dragg	-93
javascript	-94
▁draggable	-95
ss	-96
be	-97
se	-98
ve	-99
&#	-100
nt	-101
▁ondrag	-102
transition	-103
do	-104
put	-105
ac	-106
nd	-107
▁a	-108
input	-109
//	-110
▁onbe	-111
▁x	-112
fore	-113
▁onbefore	-114
li	-115
rc	-116
he	-117
frames	-118
ht	-119
up	-120
get	-121
ad	-122
(1)"></	-123
uto	-124
▁auto	-125
">	-126
na	-127
▁autofocus	-128
ck	-129
▁1	-130
lor	-131
color	-132
);	-133
rget	-134
target	-135
>@	-136
keyframes	-137
▁onanimation	-138
acti	-139
vate	-140
activate	-141
▁s	-142
;&	-143
ide	-144
pa	-145
out	-146
qu	-147
SS	-148
XSS	-149
br	-150
name	-151
rm	-152
ment	-153
ite	-154
el	-155
mp	-156
rop	-157
so	-158
form	-159
ml	-160
▁onfocus	-161
end	-162
▁onkey	-163
dow	-164
drop	-165
sv	-166
ct	-167
;}</	-168
ration	-169
▁ontransition	-170
>:	-171
%2	-172
xss	-173
svg	-174
xt	-175
ress	-176
▁S	-177
ap	-178
lu	-179
art	-180
ot	-181
ver	-182
▁src	-183
er	-184
lick	-185
Tab	-186
can	-187
nter	-188
ul	-189
no	-190
ha	-191
RC	-192
click	-193
enter	-194
tp	-195
over	-196
('	-197
im	-198
ase	-199
img	-200
bo	-201
ig	-202
▁SRC	-203
http	-204
da	-205
://	-206
men	-207
:1	-208
dy	-209
rom	-210
cu	-211
menu	-212
or	-213
red	-214
body	-215
load	-216
ne	-217
start	-218
gro	-219
la	-220
▁he	-221
mar	-222
data	-223
col	-224
--	-225
ft	-226
transform	-227
▁me	-228
;}	-229
down	-230
ref	-231
ste	-232
ave	-233
{}</	-234
py	-235
cut	-236
copy	-237
left	-238
006	-239
lide	-240
▁here	-241
leave	-242
paste	-243
lidein	-244
iteration	-245
cel	-246
cancel	-247
em	-248
deactivate	-249
pe	-250
>]	-251
lin	-252
cument	-253
os	-254
quot	-255
sou	-256
document	-257
html	-258
CR	-259
000	-260
from	-261
SCR	-262
ing	-263
PT	-264
link	-265
83	-266
sp	-267
lt	-268
to	-269
IPT	-270
href	-271
group	-272
iframe	-273
th	-274
"><	-275
ror	-276
set	-277
11	-278
gt	-279
;&#	-280
text	-281
press	-282
IM	-283
com	-284
SCRIPT	-285
error	-286
ww	-287
80	-288
su	-289
IMG	-290
(1)>	-291
tr	-292
,83	-293
▁onload	-294
>;	-295
rea	-296
base	-297
ty	-298
▁href	-299
▁e	-300
bed	-301
embed	-302
ter	-303
"></	-304
au	-305
fon	-306
font	-307
TY	-308
))	-309
dio	-310
amp	-311
foo	-312
audio	-313
lement	-314
▁onmouseover	-315
ure	-316
ction	-317
rce	-318
source	-319
';	-320
head	-321
list	-322
type	-323
image	-324
10	-325
ur	-326
LE	-327
cap	-328
fig	-329
ideo	-330
video	-331
ron	-332
caption	-333
";	-334
tate	-335
▁onerror	-336
org	-337
is	-338
je	-339
"'	-340
fi	-341
;"	-342
px	-343
ble	-344
[]	-345
bje	-346
bject	-347
;#	-348
()	-349
pos	-350
nera	-351
position	-352
:0	-353
vul	-354
abso	-355
lute	-356
element	-357
nerable	-358
absolute	-359
vulnerable	-360
2"	-361
lur	-362
);}</	-363
▁onclick	-364
que	-365
context	-366
bl	-367
blur	-368
move	-369
▁onblur	-370
unt	-371
hr	-372
▁0	-373
sub	-374
▁onkeyup	-375
▁onmousemove	-376
il	-377
▁10	-378
007	-379
▁onfocusin	-380
▁onkeydown	-381
du	-382
TYLE	-383
▁ro	-384
▁oncut	-385
duration	-386
▁2	-387
"'`	-388
dbl	-389
deg	-390
(180	-391
count	-392
▁ondbl	-393
▁oncopy	-394
▁rotate	-395
▁onpaste	-396
▁oncontext	-397
▁onmouseup	-398
▁ondblclick	-399
▁ondragover	-400
▁onkeypress	-401
▁onmouseout	-402
▁ondragstart	-403
▁onmousedown	-404
▁oncontextmenu	-405
:2"	-406
run	-407
▁{}</	-408
slidein	-409
▁ondrop	-410
▁slidein	-411
▁ondragend	-412
▁onfocusout	-413
▁ondragenter	-414
▁ondragleave	-415
▁onanimationend	-416
▁ontransitionend	-417
▁ontransitionrun	-418
;/	-419
='	-420
>]]	-421
har	-422
▁red	-423
▁onactivate	-424
▁onbeforecut	-425
▁onbeforecopy	-426
▁ondeactivate	-427
▁onmouseenter	-428
▁onmouseleave	-429
88	-430
}:	-431
:10	-432
:0;}	-433
;}}:	-434
▁1000	-435
▁ease	-436
▁onbeforepaste	-437
▁&	-438
object	-439
')	-440
//[	-441
>]</	-442
"'`--	-443
▁type	-444
>]]>]</	-445
//["'`--	-446
//["'`-->]]>]</	-447
aa	-448
Co	-449
/*	-450
ch	-451
Str	-452
pla	-453
var	-454
String	-455
fu	-456
xx	-457
%6	-458
=&	-459
let	-460
quee	-461
marquee	-462
004	-463
url	-464
ll	-465
op	-466
');	-467
tit	-468
lock	-469
title	-470
2\	-471
tt	-472
%22	-473
app	-474
lab	-475
pro	-476
apos	-477
block	-478
>//["'`-->]]>]</	-479
meta	-480
but	-481
tex	-482
ton	-483
www	-484
button	-485
code	-486
(88	-487
Char	-488
Code	-489
tarea	-490
CharCode	-491
textarea	-492
fromCharCode	-493
%3	-494
1\	-495
time	-496
ME	-497
js	-498
(88,83	-499
(88,83,83	-500
ion	-501
main	-502
(88,83,83))	-503
*/	-504
val	-505
frameset	-506
ex	-507
ic	-508
▁H	-509
der	-510
▁'	-511
▁<;	-512
rs	-513
src	-514
']	-515
TA	-516
spac	-517
by	-518
ram	-519
df	-520
pi	-521
pict	-522
param	-523
picture	-524
log	-525
late	-526
span	-527
temp	-528
(1)</	-529
template	-530
['	-531
&#11	-532
sele	-533
applet	-534
("	-535
NT	-536
bg	-537
select	-538
noscript	-539
%7	-540
005	-541
xmp	-542
comma	-543
label	-544
content	-545
EF	-546
dl	-547
map	-548
nav	-549
bgsou	-550
plain	-551
bgsound	-552
cke	-553
&#00	-554
mark	-555
STYLE	-556
option	-557
ils	-558
pre	-559
▁</	-560
deta	-561
valu	-562
ckers	-563
details	-564
AD	-565
kb	-566
;">	-567
big	-568
isindex	-569
noembed	-570
plaintext	-571
rp	-572
▁=	-573
alog	-574
item	-575
prog	-576
value	-577
command	-578
noframes	-579
pression	-580
progress	-581
ML	-582
as	-583
td	-584
ym	-585
=";	-586
add	-587
dir	-588
sha	-589
blink	-590
dialog	-591
shadow	-592
ol	-593
gen	-594
lot	-595
tfo	-596
tbody	-597
tfoot	-598
thead	-599
keygen	-600
output	-601
dd	-602
dt	-603
rb	-604
%25	-605
bdi	-606
bdo	-607
del	-608
dfn	-609
eld	-610
hea	-611
ins	-612
kbd	-613
mul	-614
nex	-615
opt	-616
ote	-617
rtc	-618
sma	-619
sum	-620
sup	-621
tid	-622
vas	-623
wbr	-624
abbr	-625
cite	-626
gend	-627
icle	-628
mary	-629
nobr	-630
rike	-631
rong	-632
ruby	-633
samp	-634
slot	-635
acron	-636
aside	-637
field	-638
meter	-639
multi	-640
quote	-641
small	-642
track	-643
canvas	-644
center	-645
figure	-646
footer	-647
header	-648
hgroup	-649
legend	-650
nextid	-651
spacer	-652
strike	-653
strong	-654
acronym	-655
address	-656
article	-657
listing	-658
section	-659
summary	-660
basefont	-661
colgroup	-662
datalist	-663
fieldset	-664
menuitem	-665
multicol	-666
optgroup	-667
blockquote	-668
figcaption	-669
3\	-670
ange	-671
area	-672
9\	-673
xml	-674
▁"	-675
vent	-676
99	-677
const	-678
4\	-679
ca	-680
ine	-681
ctor	-682
!--	-683
1">	-684
ructor	-685
constructor	-686
(88,83,83))">	-687
5\	-688
zz	-689
fuzz	-690
▁xml	-691
fuzzelement	-692
";>;	-693
)</	-694
1>	-695
ie	-696
ort	-697
▁';	-698
(&	-699
Mo	-700
RA	-701
ok	-702
par	-703
▁value	-704
onerror	-705
sh	-706
▁/	-707
;</	-708
IV	-709
![]	-710
+[]	-711
FRA	-712
FRAME	-713
nction	-714
12	-715
et	-716
(1)><	-717
▁xmlns	-718
expression	-719
97	-720
<;/	-721
und	-722
indow	-723
fa	-724
okie	-725
function	-726
',	-727
wa	-728
ack	-729
0061	-730
back	-731
prom	-732
ground	-733
prompt	-734
background	-735
)[	-736
3.	-737
Ne	-738
▁C	-739
▁\	-740
▁c	-741
wL	-742
="\	-743
wid	-744
!![]	-745
width	-746
change	-747
▁STYLE	-748
'>	-749
20	-750
003	-751
NewL	-752
NewLine	-753
DY	-754
xE	-755
REF	-756
▁HREF	-757
window	-758
7\	-759
xxx	-760
Mouse	-761
74	-762
;1	-763
;)	-764
xhr	-765
▁--	-766
aaaa	-767
valid	-768
39	-769
Re	-770
{}	-771
&#10	-772
cation	-773
cookie	-774
onload	-775
BC	-776
TT	-777
XX	-778
__	-779
&;#	-780
ATA	-781
ady	-782
sta	-783
eval	-784
28	-785
it	-786
colon	-787
0\	-788
fe	-789
wav	-790
);//	-791
14	-792
=`	-793
BO	-794
ls	-795
}\	-796
BODY	-797
▁name	-798
'><	-799
80\	-800
TTP	-801
XML	-802
gle	-803
ope	-804
she	-805
▁alert	-806
&#00000	-807
)>	-808
29	-809
61	-810
}}	-811
ENT	-812
DATA	-813
ight	-814
sheet	-815
stylesheet	-816
09	-817
HT	-818
ba	-819
▁A	-820
['\	-821
0011	-822
HTML	-823
play	-824
this	-825
▁"><	-826
+!![]	-827
+[])[	-828
event	-829
(/	-830
64	-831
6\	-832
PE	-833
oo	-834
(';	-835
UIV	-836
TYPE	-837
▁HTTP	-838
IFRAME	-839
>\	-840
ng	-841
%26	-842
();	-843
▁to	-844
cript	-845
▁data	-846
location	-847
=\	-848
if	-849
ner	-850
▁re	-851
"/	-852
13	-853
imp	-854
0;	-855
4-	-856
<;	-857
Ch	-858
afe	-859
ert	-860
▁"`	-861
="//	-862
open	-863
port	-864
');">	-865
▁"`'><	-866
.0	-867
lay	-868
net	-869
▁foo	-870
▁url	-871
(1)//	-872
;&#10	-873
ready	-874
splay	-875
xssme	-876
bu	-877
sw	-878
61\	-879
ame	-880
css	-881
goo	-882
bute	-883
pass	-884
ttri	-885
confi	-886
+!![]]	-887
google	-888
▁attri	-889
display	-890
▁attribute	-891
▁}	-892
ONT	-893
META	-894
Name	-895
00000	-896
ONTENT	-897
▁xlink	-898
confirm	-899
+(	-900
By	-901
ET	-902
Ht	-903
pr	-904
vi	-905
▁I	-906
age	-907
Http	-908
lpar	-909
;&#11	-910
▁onMouse	-911
8\	-912
:\	-913
▁O	-914
&#4	-915
DEF	-916
new	-917
▁{{	-918
%253	-919
rpar	-920
/.	-921
58	-922
CK	-923
OU	-924
)//	-925
for	-926
curi	-927
resh	-928
(1)')	-929
inner	-930
state	-931
curity	-932
Element	-933
refresh	-934
scriptlet	-935
")	-936
%(	-937
;>	-938
ev	-939
;1&	-940
SRC	-941
ger	-942
jav	-943
tch	-944
▁/>	-945
/**/	-946
▁con	-947
compass	-948
security	-949
securitycompass	-950
BA	-951
CT	-952
%20	-953
00%	-954
bar	-955
tro	-956
labs	-957
rent	-958
maction	-959
+'	-960
/2	-961
:'	-962
>#	-963
ND	-964
ce	-965
'))	-966
65\	-967
;);	-968
="1	-969
ADw	-970
doc	-971
OUND	-972
trols	-973
import	-974
+!![]]+(	-975
▁autoplay	-976
▁controls	-977
readystate	-978
▁attributeName	-979
readystatechange	-980
![	-981
1]	-982
BJ	-983
LI	-984
ow	-985
%72	-986
123	-987
BJE	-988
mit	-989
OBJE	-990
▁-->	-991
▁ABC	-992
igger	-993
OBJECT	-994
▁CONTENT	-995
%0	-996
AG	-997
%29	-998
)">	-999
bin	-1000
top	-1001
ull	-1002
evil	-1003
▁for	-1004
&#116	-1005
');//	-1006
Event	-1007
javas	-1008
nload	-1009
▁TYPE	-1010
portsw	-1011
ropert	-1012
submit	-1013
innerHTML	-1014
validaudio	-1015
portswigger	-1016
/1	-1017
RL	-1018
].	-1019
]]	-1020
at	-1021
('\	-1022
low	-1023
0010	-1024
;&;#	-1025
0061\	-1026
xlink	-1027
▁width	-1028
(1)')()	-1029
roperty	-1030
&#000011	-1031
▁`	-1032
▁p	-1033
%28	-1034
&#3	-1035
>">	-1036
XXX	-1037
cho	-1038
sec	-1039
ult	-1040
(%22	-1041
=%22	-1042
0049\	-1043
0067\	-1044
0069\	-1045
:100%	-1046
match	-1047
quest	-1048
▁<!--	-1049
(1);</	-1050
Change	-1051
parent	-1052
27	-1053
40	-1054
=2	-1055
ER	-1056
GR	-1057
Lo	-1058
RE	-1059
Te	-1060
od	-1061
%65	-1062
2&#	-1063
;)&	-1064
URL	-1065
int	-1066
png	-1067
urn	-1068
ype	-1069
▁BA	-1070
CKGR	-1071
mage	-1072
null	-1073
send	-1074
0041\	-1075
0072\	-1076
print	-1077
▁DATA	-1078
▁http	-1079
domain	-1080
▁BACKGR	-1081
Property	-1082
xpression	-1083
getElement	-1084
▁BACKGROUND	-1085
▁formaction	-1086
41	-1087
=#	-1088
BR	-1089
Id	-1090
LA	-1091
al	-1092
jc	-1093
wd	-1094
'+'	-1095
3&#	-1096
64,	-1097
DIV	-1098
str	-1099
);">	-1100
State	-1101
fault	-1102
https	-1103
animate	-1104
ascript	-1105
▁function	-1106
(8	-1107
)'	-1108
9/	-1109
vb	-1110
▁(	-1111
%74	-1112
Njc	-1113
dle	-1114
▁<?	-1115
')">	-1116
(1)&	-1117
(1)`	-1118
000/	-1119
="0;	-1120
beha	-1121
mlwd	-1122
vior	-1123
{005	-1124
0043\	-1125
▁body	-1126
']);//	-1127
/2000/	-1128
Njcmlwd	-1129
default	-1130
(#	-1131
).	-1132
>"	-1133
Sc	-1134
ff	-1135
="#	-1136
REL	-1137
oin	-1138
wri	-1139
';);	-1140
5;&#	-1141
;);&	-1142
ById	-1143
Text	-1144
file	-1145
lass	-1146
lidi	-1147
onse	-1148
resp	-1149
▁REL	-1150
write	-1151
validi	-1152
▁class	-1153
onmouse	-1154
▁height	-1155
NjcmlwdD	-1156
onseText	-1157
validimage	-1158
onmouseover	-1159
responseText	-1160
getElementById	-1161
(2	-1162
+/	-1163
LO	-1164
No	-1165
\0	-1166
pg	-1167
GET	-1168
mas	-1169
"'><	-1170
/199	-1171
>;<;	-1172
Safe	-1173
0076\	-1174
(1)`()	-1175
/1999/	-1176
harset	-1177
height	-1178
behavior	-1179
+-	-1180
..	-1181
0,	-1182
69	-1183
;'	-1184
>'	-1185
Me	-1186
UT	-1187
[/	-1188
ly	-1189
▁?	-1190
%27	-1191
%63	-1192
/><	-1193
="&	-1194
row	-1195
tot	-1196
▁//	-1197
61&#	-1198
Load	-1199
Node	-1200
llow	-1201
onte	-1202
peat	-1203
&#115	-1204
0063\	-1205
▁onRe	-1206
▁true	-1207
Object	-1208
ontent	-1209
totype	-1210
▁`"'><	-1211
▁aaaaa	-1212
Request	-1213
▁document	-1214
validvideo	-1215
"?	-1216
'.	-1217
1.	-1218
30	-1219
76	-1220
FF	-1221
PH	-1222
Ri	-1223
Wx	-1224
["	-1225
en	-1226
vc	-1227
▁[	-1228
'/*	-1229
));	-1230
WBR	-1231
[].	-1232
box	-1233
def	-1234
jpg	-1235
qui	-1236
wor	-1237
▁IE	-1238
hash	-1239
math	-1240
▁var	-1241
%2520	-1242
)"></	-1243
000011	-1244
define	-1245
unload	-1246
▁title	-1247
";>;<;/	-1248
XMLHttp	-1249
▁onLoad	-1250
&#000010	-1251
▁charset	-1252
▁content	-1253
XMLHttpRequest	-1254
&<	-1255
-/	-1256
33	-1257
4"	-1258
PA	-1259
[0	-1260
hp	-1261
sl	-1262
ze	-1263
▁d	-1264
"))	-1265
"/>	-1266
(";	-1267
+{}	-1268
="/	-1269
▁};	-1270
'))>	-1271
2"><	-1272
6;&#	-1273
ding	-1274
safe	-1275
show	-1276
0065\	-1277
CDATA	-1278
Click	-1279
prototype	-1280
▁javascript	-1281
(88,83,83))//	-1282
'\	-1283
((	-1284
.*	-1285
2;	-1286
=5	-1287
Cg	-1288
\/	-1289
bG	-1290
gu	-1291
md	-1292
xA	-1293
%23	-1294
="0	-1295
bla	-1296
fam	-1297
gin	-1298
ild	-1299
ily	-1300
ize	-1301
loa	-1302
one	-1303
php	-1304
xsl	-1305
▁ID	-1306
")</	-1307
%252	-1308
')</	-1309
';</	-1310
0074	-1311
Page	-1312
cess	-1313
echo	-1314
page	-1315
▁dur	-1316
&#114	-1317
ssage	-1318
family	-1319
▁target	-1320
';);";>;	-1321
toString	-1322
(1)')()}}	-1323
MouseEvent	-1324
.$	-1325
15	-1326
;;	-1327
=$	-1328
??	-1329
WF	-1330
](	-1331
ci	-1332
ec	-1333
lc	-1334
ld	-1335
lf	-1336
mi	-1337
");	-1338
')>	-1339
'](	-1340
(.*	-1341
*/'	-1342
/)[	-1343
/*/	-1344
09;	-1345
2',	-1346
64\	-1347
72\	-1348
="4	-1349
=//	-1350
BLE	-1351
SET	-1352
["\	-1353
[/*	-1354
cls	-1355
scr	-1356
vml	-1357
▁&#	-1358
▁*/	-1359
▁ac	-1360
!+[]	-1361
&#97	-1362
=">"	-1363
roll	-1364
self	-1365
{006	-1366
']('\	-1367
/)[1]	-1368
0074\	-1369
TABLE	-1370
apply	-1371
clsid	-1372
space	-1373
{0053	-1374
▁code	-1375
▁this	-1376
%26%23	-1377
:100%;	-1378
+{}+[])[	-1379
FRAMESET	-1380
▁Content	-1381
!![]+[])[	-1382
+[])[!+[]	-1383
(\	-1384
)}	-1385
+{	-1386
,'	-1387
60	-1388
63	-1389
>&	-1390
BE	-1391
Do	-1392
EM	-1393
Th	-1394
sg	-1395
ys	-1396
▁-	-1397
▁>	-1398
;'>	-1399
LAY	-1400
]><	-1401
]['	-1402
bal	-1403
ded	-1404
fal	-1405
glo	-1406
moz	-1407
ted	-1408
tus	-1409
▁by	-1410
5"><	-1411
="10	-1412
="</	-1413
This	-1414
blah	-1415
equi	-1416
pera	-1417
site	-1418
▁rel	-1419
0050\	-1420
4"></	-1421
><!--	-1422
ample	-1423
equiv	-1424
false	-1425
proto	-1426
throw	-1427
;&#101	-1428
Script	-1429
global	-1430
status	-1431
substr	-1432
▁onloa	-1433
example	-1434
message	-1435
subdomain	-1436
globalThis	-1437
)"	-1438
-8	-1439
/&	-1440
23	-1441
59	-1442
70	-1443
89	-1444
;\	-1445
=/	-1446
CA	-1447
Er	-1448
HE	-1449
HR	-1450
In	-1451
Jy	-1452
\\	-1453
ed	-1454
{-	-1455
▁F	-1456
%69	-1457
';)	-1458
002	-1459
039	-1460
1><	-1461
:0;	-1462
;//	-1463
="3	-1464
=\"	-1465
AGE	-1466
dCg	-1467
den	-1468
pdf	-1469
pop	-1470
svn	-1471
uFF	-1472
&#47	-1473
&#99	-1474
7"><	-1475
=500	-1476
HEAD	-1477
ScRi	-1478
[0].	-1479
call	-1480
crea	-1481
exec	-1482
icro	-1483
root	-1484
sche	-1485
sion	-1486
soft	-1487
thod	-1488
turn	-1489
work	-1490
▁cmd	-1491
▁ver	-1492
&#105	-1493
0062\	-1494
0064\	-1495
0073\	-1496
;&#83	-1497
Error	-1498
LAYER	-1499
andle	-1500
▁form	-1501
▁onre	-1502
create	-1503
;#00000	-1504
▁action	-1505
▁repeat	-1506
&;#00000	-1507
6&#00000	-1508
adyState	-1509
icrosoft	-1510
▁classid	-1511
▁version	-1512
▁onProperty	-1513
▁onReadyState	-1514
([	-1515
){	-1516
-7	-1517
53	-1518
84	-1519
93	-1520
=<	-1521
KT	-1522
Pt	-1523
]>	-1524
_.	-1525
jA	-1526
xp	-1527
▁+	-1528
▁@	-1529
▁o	-1530
&#1	-1531
().	-1532
(){	-1533
.10	-1534
/">	-1535
/*<	-1536
==2	-1537
YWx	-1538
erl	-1539
lcn	-1540
▁/*	-1541
"?><	-1542
(1)\	-1543
0072	-1544
1></	-1545
28;1	-1546
6"><	-1547
72&#	-1548
8"><	-1549
="11	-1550
="><	-1551
><![	-1552
WFNT	-1553
join	-1554
line	-1555
ling	-1556
size	-1557
▁out	-1558
;&#97	-1559
="1.0	-1560
works	-1561
▁'(.*	-1562
▁html	-1563
▁onse	-1564
▁onto	-1565
▁perl	-1566
28;1&#	-1567
handle	-1568
schemas	-1569
microsoft	-1570
PHNjcmlwdD	-1571
!#	-1572
"<	-1573
(3	-1574
1/	-1575
16	-1576
47	-1577
50	-1578
65	-1579
91	-1580
:;	-1581
:[	-1582
=0	-1583
ID	-1584
NK	-1585
Tr	-1586
Vu	-1587
xe	-1588
";)	-1589
%64	-1590
%70	-1591
%80	-1592
','	-1593
-*/	-1594
.__	-1595
13;	-1596
?)'	-1597
NLO	-1598
dom	-1599
hid	-1600
sol	-1601
▁<!	-1602
▁ng	-1603
&#34	-1604
039;	-1605
1"><	-1606
;!--	-1607
="12	-1608
="13	-1609
LINK	-1610
Over	-1611
Trus	-1612
▁/><	-1613
▁alt	-1614
▁new	-1615
▁{{_	-1616
")}</	-1617
%22).	-1618
'))">	-1619
(1)'>	-1620
)//">	-1621
--></	-1622
/*-*/	-1623
0044\	-1624
0078\	-1625
30;&#	-1626
;"></	-1627
IMAGE	-1628
NLOAD	-1629
imple	-1630
onxxx	-1631
Cookie	-1632
YWxlcn	-1633
hidden	-1634
isTrus	-1635
▁DATAF	-1636
');"></	-1637
Cscript	-1638
binding	-1639
▁ONLOAD	-1640
▁onpage	-1641
(1)>"></	-1642
123%22).	-1643
?)'/)[1]	-1644
vascript	-1645
▁xmlHttp	-1646
isTrusted	-1647
▁onunload	-1648
▁background	-1649
▁'(.*?)'/)[1]	-1650
$%	-1651
)&	-1652
+=	-1653
,<	-1654
.<	-1655
01	-1656
2)	-1657
7.	-1658
73	-1659
;$	-1660
?@	-1661
Ac	-1662
At	-1663
Bo	-1664
DO	-1665
IN	-1666
Ja	-1667
OR	-1668
On	-1669
Pg	-1670
ST	-1671
TD	-1672
Vy	-1673
\]	-1674
`=	-1675
dH	-1676
wg	-1677
wh	-1678
xC	-1679
▁5	-1680
▁g	-1681
▁v	-1682
▁y	-1683
%77	-1684
()*	-1685
**/	-1686
*//	-1687
,%3	-1688
,10	-1689
,:;	-1690
="<	-1691
='1	-1692
DYN	-1693
INP	-1694
LOW	-1695
UTF	-1696
bor	-1697
fid	-1698
hbG	-1699
htc	-1700
ipt	-1701
rip	-1702
!#$%	-1703
(8)>	-1704
)></	-1705
*//*	-1706
+-_.	-1707
<!--	-1708
=[].	-1709
?@[/	-1710
LASS	-1711
poin	-1712
rect	-1713
▁DYN	-1714
▁LOW	-1715
&#101	-1716
&#112	-1717
/";>;	-1718
0039\	-1719
0057\	-1720
0068\	-1721
0070\	-1722
>;<;/	-1723
Child	-1724
INPUT	-1725
hbGVy	-1726
jsfid	-1727
scrip	-1728
▁"/><	-1729
▁echo	-1730
▁onsc	-1731
%63%72	-1732
(1);">	-1733
0061&#	-1734
Method	-1735
Unload	-1736
border	-1737
string	-1738
tation	-1739
▁CLASS	-1740
+-_.,:;	-1741
;%26%23	-1742
handler	-1743
▁DYNSRC	-1744
▁LOWSRC	-1745
▁srcset	-1746
jsfiddle	-1747
vbscript	-1748
&#115&#99	-1749
;&#101%72	-1750
&#105&#112	-1751
▁namespace	-1752
+-_.,:;?@[/	-1753
▁expression	-1754
&#115&#99&#114	-1755
&#105&#112&#116	-1756
▁XMLHttpRequest	-1757
$(	-1758
(0	-1759
-0	-1760
/>	-1761
2.	-1762
6-	-1763
72	-1764
Fo	-1765
HI	-1766
IH	-1767
Pa	-1768
][	-1769
ar	-1770
nc	-1771
pT	-1772
uc	-1773
um	-1774
};	-1775
▁#	-1776
")>	-1777
"--	-1778
%61	-1779
%73	-1780
'">	-1781
')"	-1782
'</	-1783
('<	-1784
="9	-1785
=20	-1786
CLI	-1787
DOC	-1788
Lin	-1789
PAN	-1790
Set	-1791
[['	-1792
ale	-1793
fin	-1794
ost	-1795
ous	-1796
the	-1797
▁'+	-1798
▁<<	-1799
▁be	-1800
▁in	-1801
%22,	-1802
());	-1803
00){	-1804
0080	-1805
27&#	-1806
53&#	-1807
63&#	-1808
74&#	-1809
://;	-1810
;#10	-1811
CKME	-1812
Link	-1813
SPAN	-1814
__']	-1815
alwa	-1816
char	-1817
heel	-1818
mask	-1819
sing	-1820
some	-1821
▁URL	-1822
▁exp	-1823
!#$%&	-1824
"/></	-1825
&#111	-1826
&#32;	-1827
');</	-1828
0030\	-1829
0079\	-1830
39;&#	-1831
[['__	-1832
derBy	-1833
xhtml	-1834
▁Page	-1835
%22></	-1836
%65%72	-1837
%69%70	-1838
(1)"><	-1839
000010	-1840
:100%"	-1841
="1.0"	-1842
ScRiPt	-1843
access	-1844
always	-1845
charAt	-1846
gument	-1847
single	-1848
stNode	-1849
▁event	-1850
▁imple	-1851
▁onsee	-1852
▁onxxx	-1853
CLICKME	-1854
DOCTYPE	-1855
orderBy	-1856
worksin	-1857
▁return	-1858
▁srcdoc	-1859
(1)`()]>	-1860
;&#39;&#	-1861
hbGVydCg	-1862
▁onbegin	-1863
%69%70%74	-1864
%73%63%72	-1865
39&#00000	-1866
mentation	-1867
▁onloaded	-1868
▁onscroll	-1869
Ajavascript	-1870
Fjavascript	-1871
▁onloadstart	-1872
▁implementation	-1873
&#0000116&#00000	-1874
%4	-1875
%5	-1876
*{	-1877
/?	-1878
06	-1879
24	-1880
25	-1881
6.	-1882
66	-1883
:-	-1884
;,	-1885
;=	-1886
As	-1887
IS	-1888
Ny	-1889
SE	-1890
UL	-1891
Va	-1892
XB	-1893
[(	-1894
[<	-1895
];	-1896
`>	-1897
dG	-1898
dm	-1899
oM	-1900
rd	-1901
vY	-1902
vo	-1903
xB	-1904
▁%	-1905
▁4	-1906
▁U	-1907
">1	-1908
"](	-1909
&#6	-1910
())	-1911
(\"	-1912
)';	-1913
+=+	-1914
,&#	-1915
,11	-1916
/&#	-1917
164	-1918
2"]	-1919
5}\	-1920
63\	-1921
69\	-1922
74\	-1923
75\	-1924
76\	-1925
8}\	-1926
:1,	-1927
;;&	-1928
<![	-1929
=""	-1930
="`	-1931
=%(	-1932
=&{	-1933
=="	-1934
=``	-1935
BED	-1936
Box	-1937
Get	-1938
Tra	-1939
[1]	-1940
[[]	-1941
\">	-1942
](/	-1943
ain	-1944
ber	-1945
ess	-1946
fff	-1947
ker	-1948
rch	-1949
swf	-1950
uch	-1951
utf	-1952
wvc	-1953
});	-1954
▁0,	-1955
▁?>	-1956
▁SI	-1957
▁if	-1958
▁st	-1959
%29;	-1960
&#61	-1961
']('	-1962
']['	-1963
(1))	-1964
);</	-1965
*/](	-1966
/200	-1967
0\12	-1968
141\	-1969
145\	-1970
154\	-1971
162\	-1972
281\	-1973
4"><	-1974
62"]	-1975
69&#	-1976
74']	-1977
76&#	-1978
;#11	-1979
;></	-1980
="%(	-1981
="0"	-1982
=''.	-1983
JaVa	-1984
Path	-1985
[[]]	-1986
]]((	-1987
__('	-1988
comp	-1989
date	-1990
expr	-1991
fill	-1992
peri	-1993
reen	-1994
user	-1995
vasc	-1996
▁\";	-1997
▁onw	-1998
▁xss	-1999
%22);	-2000
%63%6	-2001
*/]['	-2002
0034\	-2003
0047\	-2004
0053\	-2005
0059\	-2006
0074}	-2007
123</	-2008
3\123	-2009
74"](	-2010
74'](	-2011
Count	-2012
EMBED	-2013
Trans	-2014
about	-2015
navig	-2016
ument	-2017
white	-2018
{0061	-2019
{0072	-2020
▁/></	-2021
/2001/	-2022
130\12	-2023
62"]("	-2024
;&#114	-2025
;&;#11	-2026
Getter	-2027
[][[]]	-2028
append	-2029
ession	-2030
events	-2031
period	-2032
{0053}	-2033
{0074}	-2034
▁Opera	-2035
▁allow	-2036
▁oncan	-2037
+[]]]((	-2038
162\164	-2039
74']['\	-2040
==200){	-2041
CONTENT	-2042
['\141\	-2043
dropbox	-2044
jscript	-2045
{0053}\	-2046
{0058}\	-2047
{0061}\	-2048
{0065}\	-2049
{0072}\	-2050
▁onplay	-2051
▁onpoin	-2052
"))');//	-2053
154\145\	-2054
;#000011	-2055
BCscript	-2056
▁oninput	-2057
%65%72%74	-2058
&#0000083	-2059
&#0000097	-2060
&#0000114	-2061
&;#000011	-2062
;&#116;&#	-2063
+!![]]);//	-2064
3\123');//	-2065
[(+{}+[])[	-2066
▁oncanplay	-2067
']('\130\12	-2068
+!![]]+(![]	-2069
Bjavascript	-2070
appendChild	-2071
{0053}');//	-2072
{0074}']('\	-2073
defineGetter	-2074
▁repeatCount	-2075
(88,83,83))</	-2076
+!![]+!![]]+(	-2077
+!![]]+([][[]]	-2078
defineProperty	-2079
▁attributename	-2080
+[]]]((+{}+[])[	-2081
154\145\162\164	-2082
&#0000039&#00000	-2083
#0	-2084
(5	-2085
({	-2086
),	-2087
,\	-2088
-1	-2089
-4	-2090
/!	-2091
/4	-2092
1`	-2093
4%	-2094
:,	-2095
;{	-2096
=_	-2097
>{	-2098
Be	-2099
Da	-2100
IE	-2101
LD	-2102
Sk	-2103
US	-2104
XJ	-2105
[_	-2106
ae	-2107
bc	-2108
cl	-2109
dr	-2110
ib	-2111
io	-2112
ix	-2113
ka	-2114
nk	-2115
vg	-2116
yo	-2117
").	-2118
%67	-2119
()}	-2120
(15	-2121
(8)	-2122
(91	-2123
-03	-2124
-88	-2125
/13	-2126
1-8	-2127
147	-2128
14;	-2129
1</	-2130
2.0	-2131
389	-2132
404	-2133
58/	-2134
744	-2135
76-	-2136
80/	-2137
846	-2138
;'<	-2139
<\/	-2140
="5	-2141
="7	-2142
>'>	-2143
>..	-2144
>/*	-2145
><?	-2146
ACA	-2147
APA	-2148
ISO	-2149
Jyk	-2150
KTt	-2151
Num	-2152
Nya	-2153
PHN	-2154
YST	-2155
`1`	-2156
aaa	-2157
ang	-2158
cha	-2159
cor	-2160
cur	-2161
dae	-2162
fil	-2163
nco	-2164
ose	-2165
pay	-2166
▁<%	-2167
▁lo	-2168
%257	-2169
%27;	-2170
&#46	-2171
';">	-2172
('//	-2173
()+{	-2174
(1)+	-2175
(123	-2176
)"/>	-2177
));}	-2178
0,41	-2179
0000	-2180
0028	-2181
0029	-2182
0180	-2183
59-1	-2184
6-11	-2185
73&#	-2186
9"><	-2187
://0	-2188
;"><	-2189
BASE	-2190
Data	-2191
ERID	-2192
Move	-2193
SCRI	-2194
anda	-2195
ator	-2196
circ	-2197
dang	-2198
dele	-2199
fdae	-2200
ggle	-2201
kami	-2202
live	-2203
look	-2204
misc	-2205
nxss	-2206
orld	-2207
osed	-2208
path	-2209
rome	-2210
tipt	-2211
tive	-2212
▁svg	-2213
▁top	-2214
▁xhr	-2215
");</	-2216
%2528	-2217
%2529	-2218
%67%6	-2219
&#110	-2220
');}}	-2221
(1))>	-2222
/480/	-2223
0042\	-2224
0046\	-2225
0051\	-2226
6.000	-2227
7.147	-2228
>...<	-2229
Enter	-2230
Focus	-2231
NyaXB	-2232
Opera	-2233
YSTEM	-2234
child	-2235
noxss	-2236
onent	-2237
trunk	-2238
▁"></	-2239
▁enco	-2240
▁fill	-2241
▁from	-2242
▁loop	-2243
▁onSc	-2244
%77%77	-2245
%80%80	-2246
&#62&#	-2247
(91)</	-2248
0061')	-2249
404%22	-2250
;&;#10	-2251
Number	-2252
USERID	-2253
Window	-2254
\0061\	-2255
circle	-2256
hellow	-2257
lookup	-2258
markup	-2259
xssmoz	-2260
▁&#32;	-2261
▁<!--[	-2262
▁begin	-2263
▁false	-2264
▁frame	-2265
(150,41	-2266
-8859-1	-2267
/130180	-2268
09;&#10	-2269
76-0080	-2270
88;&#83	-2271
__']]['	-2272
corkami	-2273
guments	-2274
onclick	-2275
payload	-2276
xmlHttp	-2277
▁SYSTEM	-2278
▁onPage	-2279
▁prompt	-2280
Document	-2281
aaaaaaaa	-2282
composed	-2283
dangling	-2284
scrscrip	-2285
▁ascript	-2286
▁onError	-2287
▁onFocus	-2288
▁onstart	-2289
avascript	-2290
▁encoding	-2291
▁onResize	-2292
▁onScroll	-2293
▁onUnload	-2294
▁onchange	-2295
&#110&#101	-2296
/13018058/	-2297
JaVaScRiPt	-2298
googlecode	-2299
helloworld	-2300
livescript	-2301
readyState	-2302
▁aaaaaaaaa	-2303
%69%70%74%3	-2304
-8859-1"?><	-2305
Ejavascript	-2306
09;&#10;&#11	-2307
composedPath	-2308
lookupMethod	-2309
scrscriptipt	-2310
▁frameborder	-2311
▁onMouseMove	-2312
▁onMouseOver	-2313
▁onMouseEnter	-2314
▁onbeforeload	-2315
(88,83,83))//\	-2316
▁'(.*?)'/)[1])	-2317
▁onbeforeunload	-2318
'}	-2319
(4	-2320
34	-2321
85	-2322
;:	-2323
<!	-2324
={	-2325
>+	-2326
>.	-2327
>/	-2328
BG	-2329
CB	-2330
De	-2331
LT	-2332
Lm	-2333
Of	-2334
PS	-2335
YX	-2336
\2	-2337
\3	-2338
aW	-2339
bW	-2340
bx	-2341
ia	-2342
pO	-2343
pp	-2344
rI	-2345
ub	-2346
un	-2347
wM	-2348
yB	-2349
}&	-2350
"?>	-2351
%><	-2352
(&#	-2353
()>	-2354
(10	-2355
*%7	-2356
0;1	-2357
20"	-2358
29>	-2359
41>	-2360
;)>	-2361
<</	-2362
="2	-2363
="6	-2364
="8	-2365
=';	-2366
='\	-2367
>><	-2368
BGS	-2369
ITY	-2370
ORM	-2371
Pop	-2372
ank	-2373
ays	-2374
bru	-2375
che	-2376
fer	-2377
ght	-2378
gif	-2379
lle	-2380
msg	-2381
rds	-2382
vbm	-2383
via	-2384
vie	-2385
xxs	-2386
{};	-2387
}">	-2388
▁%2	-2389
▁&&	-2390
▁''	-2391
▁'<	-2392
▁ev	-2393
▁mo	-2394
▁ns	-2395
▁ta	-2396
""><	-2397
"><?	-2398
&#12	-2399
&#32	-2400
&#41	-2401
(%26	-2402
()">	-2403
()//	-2404
-7">	-2405
/1='	-2406
123.	-2407
;%29	-2408
="&#	-2409
="&{	-2410
='><	-2411
ATAS	-2412
Comp	-2413
Csvg	-2414
arch	-2415
caro	-2416
dend	-2417
difi	-2418
feed	-2419
hide	-2420
imap	-2421
leng	-2422
roke	-2423
scRi	-2424
usel	-2425
▁"'`	-2426
▁<![	-2427
▁<;/	-2428
▁app	-2429
▁doc	-2430
▁gte	-2431
▁the	-2432
▁via	-2433
▁{{$	-2434
">]><	-2435
%65%6	-2436
&#106	-2437
(2)">	-2438
0032\	-2439
0033\	-2440
0058\	-2441
0075\	-2442
0077\	-2443
25;&#	-2444
75;&#	-2445
:,*%7	-2446
=%27;	-2447
appli	-2448
blank	-2449
brute	-2450
mocha	-2451
opera	-2452
owner	-2453
refix	-2454
tiveX	-2455
xmlns	-2456
▁eval	-2457
▁mode	-2458
▁onpa	-2459
▁says	-2460
▁text	-2461
');\">	-2462
(1))">	-2463
(1)>">	-2464
>123</	-2465
ENTITY	-2466
chrome	-2467
delete	-2468
dified	-2469
length	-2470
msgbox	-2471
onents	-2472
update	-2473
▁click	-2474
▁onend	-2475
(123)</	-2476
));}<\/	-2477
;%29></	-2478
BGSOUND	-2479
ORMATAS	-2480
andards	-2481
astNode	-2482
cscript	-2483
current	-2484
express	-2485
request	-2486
{}[['__	-2487
▁iframe	-2488
▁prefix	-2489
▁values	-2490
▁window	-2491
(1)//></	-2492
;#000010	-2493
Transfer	-2494
carousel	-2495
modified	-2496
▁--><!--	-2497
▁DATAFLD	-2498
▁DATASRC	-2499
▁ontouch	-2500
expressio	-2501
namespace	-2502
navigator	-2503
▁onrepeat	-2504
▁onselect	-2505
Components	-2506
▁onloadend	-2507
Cjavascript	-2508
application	-2509
tiveXObject	-2510
▁formtarget	-2511
▁onpagehide	-2512
▁onpageshow	-2513
88;&#83;&#83	-2514
createElement	-2515
ownerDocument	-2516
▁DATAFORMATAS	-2517
(150,41));}<\/	-2518
!>	-2519
&&	-2520
':	-2521
(7	-2522
+,	-2523
0&	-2524
1)	-2525
22	-2526
2]	-2527
32	-2528
6&	-2529
6)	-2530
6,	-2531
67	-2532
8%	-2533
82	-2534
86	-2535
87	-2536
94	-2537
:&	-2538
;+	-2539
;<	-2540
=4	-2541
=>	-2542
=?	-2543
=@	-2544
=[	-2545
>?	-2546
>`	-2547
?<	-2548
AB	-2549
Cs	-2550
IG	-2551
Ke	-2552
My	-2553
NY	-2554
Ow	-2555
RS	-2556
TI	-2557
Ta	-2558
VA	-2559
Vg	-2560
WV	-2561
[[	-2562
`<	-2563
af	-2564
bk	-2565
gh	-2566
go	-2567
iB	-2568
mF	-2569
mV	-2570
mc	-2571
pc	-2572
ua	-2573
ue	-2574
vL	-2575
wi	-2576
}]	-2577
▁!	-2578
▁.	-2579
▁E	-2580
▁G	-2581
▁X	-2582
▁r	-2583
";;	-2584
#0#	-2585
'([	-2586
("<	-2587
)%3	-2588
)'>	-2589
))&	-2590
)+{	-2591
*{-	-2592
.$$	-2593
/\/	-2594
0,'	-2595
0][	-2596
111	-2597
14.	-2598
15"	-2599
2)`	-2600
2;<	-2601
64&	-2602
7">	-2603
7-4	-2604
:-(	-2605
;/*	-2606
=&#	-2607
>'"	-2608
>({	-2609
>//	-2610
><!	-2611
AGn	-2612
AHI	-2613
Acg	-2614
CrI	-2615
ELE	-2616
Key	-2617
LCA	-2618
MjA	-2619
Msg	-2620
Own	-2621
Sib	-2622
Swg	-2623
Top	-2624
[{}	-2625
adm	-2626
afa	-2627
bWx	-2628
cDo	-2629
dHJ	-2630
ebk	-2631
ere	-2632
fld	-2633
hac	-2634
ick	-2635
ish	-2636
ked	-2637
pha	-2638
pus	-2639
ret	-2640
tas	-2641
ucz	-2642
uff	-2643
ugh	-2644
vYW	-2645
xBC	-2646
xEF	-2647
xKT	-2648
xee	-2649
ync	-2650
▁";	-2651
▁">	-2652
▁%3	-2653
▁'-	-2654
▁'`	-2655
▁+/	-2656
▁/&	-2657
▁Ac	-2658
▁Fu	-2659
▁Lo	-2660
▁Me	-2661
▁an	-2662
▁dy	-2663
▁is	-2664
")'>	-2665
"-->	-2666
";);	-2667
";</	-2668
">1<	-2669
"><\	-2670
%28&	-2671
&#1;	-2672
'"--	-2673
';))	-2674
']%2	-2675
(1)-	-2676
(133	-2677
,%20	-2678
--`<	-2679
."))	-2680
/#0#	-2681
0"><	-2682
0][\	-2683
58&#	-2684
62;<	-2685
65&#	-2686
70&#	-2687
9999	-2688
;()*	-2689
;)">	-2690
;))&	-2691
="0.	-2692
='1'	-2693
=20>	-2694
=`>`	-2695
>%26	-2696
>');	-2697
>=&{	-2698
????	-2699
MENT	-2700
RSna	-2701
Type	-2702
ance	-2703
bind	-2704
dige	-2705
erre	-2706
king	-2707
lici	-2708
lume	-2709
nsrc	-2710
post	-2711
push	-2712
rate	-2713
sole	-2714
tele	-2715
vbmx	-2716
vcmc	-2717
with	-2718
word	-2719
}});	-2720
▁%22	-2721
▁'';	-2722
▁'="	-2723
▁1</	-2724
▁:-(	-2725
▁@[_	-2726
▁ANY	-2727
▁XSS	-2728
▁[<!	-2729
▁key	-2730
▁pop	-2731
▁xdr	-2732
▁xxe	-2733
!--"<	-2734
%2522	-2735
%29%3	-2736
%61%6	-2737
&#11;	-2738
(&#1;	-2739
();</	-2740
(/'([	-2741
(1)';	-2742
(1)>'	-2743
(2)//	-2744
0035\	-2745
0038\	-2746
0048\	-2747
0056\	-2748
29;'>	-2749
33;&#	-2750
389><	-2751
63;&#	-2752
:1000	-2753
;%28&	-2754
;&#47	-2755
;);">	-2756
;//">	-2757
="`><	-2758
=&#10	-2759
='100	-2760
='>'"	-2761
=1000	-2762
>/**/	-2763
Block	-2764
Input	-2765
Nodes	-2766
]);">	-2767
admin	-2768
afari	-2769
after	-2770
cDovL	-2771
check	-2772
clone	-2773
ebkit	-2774
ended	-2775
forma	-2776
nWFNT	-2777
phase	-2778
previ	-2779
timer	-2780
{}*{-	-2781
▁&#34	-2782
▁*/</	-2783
▁--!>	-2784
▁/**/	-2785
▁Host	-2786
▁\/\/	-2787
▁blah	-2788
▁onin	-2789
▁onvo	-2790
▁open	-2791
▁size	-2792
▁{{{}	-2793
%28%29	-2794
&#40;1	-2795
("*//*	-2796
(1)'">	-2797
)/)[1]	-2798
.")));	-2799
/**/</	-2800
00%00%	-2801
5;&#11	-2802
5;&#99	-2803
6;&#97	-2804
8;&#97	-2805
;&#108	-2806
;&#10;	-2807
="1000	-2808
="315"	-2809
="420"	-2810
>'"-->	-2811
><!--#	-2812
Access	-2813
MsgBox	-2814
RSnake	-2815
ScRipT	-2816
bWxucz	-2817
digest	-2818
ealert	-2819
filter	-2820
finish	-2821
getOwn	-2822
hacker	-2823
malici	-2824
ousSib	-2825
return	-2826
secret	-2827
stance	-2828
xKTwvc	-2829
▁"""><	-2830
▁&#13;	-2831
▁&#14;	-2832
▁/***/	-2833
▁<!--#	-2834
▁<--`<	-2835
▁Allow	-2836
▁CDATA	-2837
')")}</	-2838
(1)')</	-2839
(1)//">	-2840
(1)`()>	-2841
/*--></	-2842
58;&#97	-2843
5;&#112	-2844
;&#039;	-2845
;&#62;<	-2846
>#00000	-2847
>=&{()}	-2848
Content	-2849
Cookies	-2850
ELEMENT	-2851
comment	-2852
orClick	-2853
referre	-2854
vbmxvYW	-2855
▁&#039;	-2856
▁'`"><\	-2857
▁applet	-2858
▁dynsrc	-2859
▁onform	-2860
▁onhash	-2861
▁ontime	-2862
▁script	-2863
▁stroke	-2864
!#$%&()*	-2865
';))";>;	-2866
;)%22></	-2867
;//--></	-2868
Descript	-2869
formatas	-2870
metadata	-2871
nWFNTJyk	-2872
password	-2873
teleport	-2874
vmlframe	-2875
▁Cookies	-2876
▁datafld	-2877
▁datasrc	-2878
▁onafter	-2879
▁onended	-2880
▁onpause	-2881
%2529%253	-2882
&#0000101	-2883
&#0000105	-2884
&#0000108	-2885
&#0000115	-2886
("*//*");	-2887
=&#000010	-2888
accessKey	-2889
arguments	-2890
fileInput	-2891
innerhtml	-2892
malicious	-2893
▁'';!--"<	-2894
▁Function	-2895
▁Location	-2896
▁onfinish	-2897
▁onresize	-2898
▁onseeked	-2899
▁onsubmit	-2900
▁ontoggle	-2901
▁onvolume	-2902
▁onwebkit	-2903
'"--><!--#	-2904
40;&#39;&#	-2905
6&#0000097	-2906
8&#0000097	-2907
=%22404%22	-2908
Descriptor	-2909
childNodes	-2910
javaSCRIPT	-2911
ousSibling	-2912
▁oninvalid	-2913
▁onpointer	-2914
▁onseeking	-2915
6;&#97;&#11	-2916
88&#0000083	-2917
99&#0000114	-2918
;&#114;&#10	-2919
Djavascript	-2920
(88,83,83))>	-2921
-8859-1"?><!	-2922
;&#108;&#101	-2923
ScriptAccess	-2924
scriptaccess	-2925
▁&#34;&#62;<	-2926
09;&#10;&#11;	-2927
▁dataformatas	-2928
▁onhashchange	-2929
▁onloadeddata	-2930
▁ontimeupdate	-2931
getOwnProperty	-2932
hbGVydCgxKTwvc	-2933
▁ActiveXObject	-2934
previousSibling	-2935
▁onvolumechange	-2936
hbGVydCgnWFNTJyk	-2937
▁'(.*?)'/)[1])</	-2938
!!	-2939
",	-2940
(%	-2941
*\	-2942
+"	-2943
+1	-2944
,_	-2945
-9	-2946
/"	-2947
/)	-2948
/+	-2949
/;	-2950
02	-2951
0:	-2952
1&	-2953
1,	-2954
1-	-2955
21	-2956
37	-2957
4.	-2958
4/	-2959
48	-2960
75	-2961
77	-2962
81	-2963
9,	-2964
;.	-2965
<<	-2966
=(	-2967
An	-2968
BF	-2969
DE	-2970
FT	-2971
Fj	-2972
GV	-2973
HN	-2974
Ig	-2975
KC	-2976
Le	-2977
Ly	-2978
Nh	-2979
Nt	-2980
Pj	-2981
Sh	-2982
TE	-2983
TU	-2984
Up	-2985
VF	-2986
XN	-2987
XS	-2988
[3	-2989
[{	-2990
\"	-2991
]&	-2992
]:	-2993
``	-2994
az	-2995
cc	-2996
cy	-2997
dC	-2998
dE	-2999
gE	-3000
ga	-3001
ik	-3002
mn	-3003
nL	-3004
po	-3005
ry	-3006
sb	-3007
sx	-3008
uk	-3009
xM	-3010
xy	-3011
zI	-3012
zY	-3013
▁$	-3014
▁3	-3015
▁:	-3016
▁;	-3017
▁f	-3018
▁l	-3019
▁m	-3020
","	-3021
";'	-3022
"}}	-3023
$("	-3024
%31	-3025
%75	-3026
%78	-3027
'%(	-3028
'%3	-3029
',{	-3030
';;	-3031
';\	-3032
'].	-3033
']=	-3034
(""	-3035
(%(	-3036
('1	-3037
(49	-3038
(83	-3039
)))	-3040
))>	-3041
);$	-3042
+-+	-3043
,!!	-3044
--&	-3045
-->	-3046
/',	-3047
/+/	-3048
0&#	-3049
074	-3050
145	-3051
146	-3052
1],	-3053
203	-3054
20;	-3055
223	-3056
27\	-3057
29'	-3058
302	-3059
39&	-3060
398	-3061
61&	-3062
63/	-3063
64_	-3064
6;&	-3065
7.0	-3066
74;	-3067
97&	-3068
:">	-3069
:{}	-3070
;&<	-3071
;0;	-3072
;};	-3073
="$	-3074
=%2	-3075
='&	-3076
='_	-3077
=0;	-3078
==4	-3079
=`&	-3080
>%(	-3081
>&#	-3082
>')	-3083
>+-	-3084
?\/	-3085
Bea	-3086
DEp	-3087
Dow	-3088
HRw	-3089
Jpc	-3090
Out	-3091
Pro	-3092
Sta	-3093
TIT	-3094
Tag	-3095
Tri	-3096
Unc	-3097
XLE	-3098
[0]	-3099
[2]	-3100
\0\	-3101
]">	-3102
_="	-3103
all	-3104
als	-3105
ape	-3106
asp	-3107
aux	-3108
bus	-3109
chr	-3110
dGl	-3111
dWV	-3112
dif	-3113
equ	-3114
hel	-3115
iIH	-3116
ign	-3117
ile	-3118
jAv	-3119
lem	-3120
mdW	-3121
ome	-3122
our	-3123
sBy	-3124
sVg	-3125
ser	-3126
sli	-3127
spa	-3128
ssi	-3129
ssl	-3130
tim	-3131
try	-3132
ube	-3133
vbs	-3134
vic	-3135
wMC	-3136
xBF	-3137
xyz	-3138
zdm	-3139
}};	-3140
▁'"	-3141
▁*\	-3142
▁*{	-3143
▁1<	-3144
▁>;	-3145
▁FF	-3146
▁OM	-3147
▁On	-3148
▁Re	-3149
▁St	-3150
▁Up	-3151
▁\&	-3152
▁`<	-3153
▁aa	-3154
▁fo	-3155
▁it	-3156
%20=	-3157
'%><	-3158
'(.*	-3159
')()	-3160
');>	-3161
';";	-3162
'></	-3163
(1)'	-3164
(2)>	-3165
)"><	-3166
)%22	-3167
)'">	-3168
+-1-	-3169
+></	-3170
,0,'	-3171
,101	-3172
0058	-3173
0077	-3174
1;&#	-3175
28&#	-3176
2867	-3177
3"><	-3178
41;>	-3179
42.0	-3180
4></	-3181
66.0	-3182
7)</	-3183
8203	-3184
97;&	-3185
:-)>	-3186
:///	-3187
;&&<	-3188
;)}&	-3189
;};>	-3190
="';	-3191
="/"	-3192
="50	-3193
=&#1	-3194
=<><	-3195
==2)	-3196
>#11	-3197
>'>"	-3198
>/*<	-3199
>//&	-3200
Bfff	-3201
Blur	-3202
Bxhr	-3203
Cxsl	-3204
Down	-3205
HTTP	-3206
Hide	-3207
JpcH	-3208
Jywg	-3209
KDEp	-3210
RegE	-3211
Show	-3212
Trig	-3213
VENT	-3214
VFdm	-3215
[3].	-3216
](1)	-3217
]-->	-3218
]]</	-3219
abla	-3220
allb	-3221
angu	-3222
auto	-3223
bWVu	-3224
colu	-3225
cute	-3226
find	-3227
full	-3228
here	-3229
iaHR	-3230
info	-3231
init	-3232
jdGl	-3233
lypo	-3234
none	-3235
oMSk	-3236
oMik	-3237
reon	-3238
sers	-3239
thro	-3240
vari	-3241
view	-3242
void	-3243
youa	-3244
your	-3245
yout	-3246
▁%64	-3247
▁--\	-3248
▁11.	-3249
▁1=2	-3250
▁302	-3251
▁DEF	-3252
▁aaa	-3253
▁any	-3254
▁get	-3255
▁tag	-3256
▁try	-3257
▁use	-3258
▁xpe	-3259
▁{{'	-3260
▁});	-3261
▁}</	-3262
";)>;	-3263
%22%3	-3264
%65%2	-3265
%77%2	-3266
&#102	-3267
&#104	-3268
&#108	-3269
&#109	-3270
&#121	-3271
&#97:	-3272
')></	-3273
';)>;	-3274
(%22<	-3275
());}	-3276
(){};	-3277
([1],	-3278
));</	-3279
);//<	-3280
,&#60	-3281
.102.	-3282
/');>	-3283
/)></	-3284
00007	-3285
0027\	-3286
0061'	-3287
0073.	-3288
0074(	-3289
102.0	-3290
146.0	-3291
2&#58	-3292
2&#97	-3293
29'</	-3294
36;&#	-3295
61&;#	-3296
64_,<	-3297
6;&;#	-3298
72;&#	-3299
74;&#	-3300
83"><	-3301
:'[].	-3302
://66	-3303
;!--&	-3304
;#10;	-3305
;);//	-3306
="0.0	-3307
=";0;	-3308
>"></	-3309
AsCrI	-3310
Image	-3311
Insta	-3312
Leave	-3313
Resol	-3314
Start	-3315
TITLE	-3316
Uncau	-3317
Wheel	-3318
\0028	-3319
]]<![	-3320
ables	-3321
blein	-3322
calle	-3323
catch	-3324
eight	-3325
endif	-3326
files	-3327
green	-3328
hover	-3329
iness	-3330
jAiIH	-3331
logic	-3332
slice	-3333
vcmcv	-3334
▁--><	-3335
▁/=%2	-3336
▁4]><	-3337
▁=">"	-3338
▁=_="	-3339
▁Here	-3340
▁Over	-3341
▁Redi	-3342
▁aaaa	-3343
▁link	-3344
▁mask	-3345
▁null	-3346
▁onBe	-3347
")';</	-3348
";)<;/	-3349
";>;<;	-3350
%26%26	-3351
%28%22	-3352
%28%31	-3353
'));">	-3354
(1)"/>	-3355
(1)<;/	-3356
)//"><	-3357
.1027\	-3358
00&#97	-3359
00074;	-3360
0061%6	-3361
074,&#	-3362
111398	-3363
60&#47	-3364
8203">	-3365
:{}});	-3366
;#97;&	-3367
=">'>"	-3368
='100'	-3369
=//14.	-3370
>;";>;	-3371
Beacon	-3372
Ealert	-3373
IMGSRC	-3374
Motion	-3375
RegExp	-3376
VFdmVu	-3377
\0065\	-3378
blabla	-3379
column	-3380
equals	-3381
fullsc	-3382
llTrig	-3383
onpage	-3384
quired	-3385
sByTag	-3386
scRipt	-3387
victim	-3388
▁"'`><	-3389
▁'"></	-3390
▁DEFER	-3391
▁Mouse	-3392
▁color	-3393
▁langu	-3394
▁match	-3395
▁onPop	-3396
▁onaux	-3397
▁onpop	-3398
%20=%20	-3399
');//">	-3400
(1);></	-3401
(1);}</	-3402
*//*/*/	-3403
+-1-+-+	-3404
0058.10	-3405
0061;&#	-3406
0065;&#	-3407
0072;&#	-3408
0074('\	-3409
102.014	-3410
6.0007.	-3411
:\0075\	-3412
;&;#10;	-3413
="1000"	-3414
AsCrIpT	-3415
ClickMe	-3416
Fscript	-3417
XMLHTTP	-3418
allbrow	-3419
itworks	-3420
jection	-3421
lypossi	-3422
thesite	-3423
through	-3424
valueOf	-3425
xsstest	-3426
youtube	-3427
▁<%<!--	-3428
▁Safari	-3429
▁aaaaaa	-3430
▁method	-3431
▁onBlur	-3432
▁onshow	-3433
▁usemap	-3434
&#47&#47	-3435
&#61&#34	-3436
')");}</	-3437
(1)//"}}	-3438
(1)`()'>	-3439
(1)`()}}	-3440
(1337)</	-3441
00000223	-3442
000070&#	-3443
0061')</	-3444
0072\006	-3445
0074\003	-3446
>#000011	-3447
Resolver	-3448
Uncaught	-3449
business	-3450
fileName	-3451
onchrome	-3452
referrer	-3453
somevari	-3454
youareon	-3455
▁aaaaaaa	-3456
▁astNode	-3457
▁onStart	-3458
▁onreset	-3459
▁onwheel	-3460
▁worksin	-3461
";;&;#10;	-3462
%2520%253	-3463
&#0000112	-3464
&#102&#97	-3465
&#111&#46	-3466
&#112&#58	-3467
&#114&#99	-3468
&#115&#34	-3469
&#116&#47	-3470
&#121&#46	-3471
&#32&#115	-3472
&;#000010	-3473
0000066.0	-3474
0027\0029	-3475
0074\0028	-3476
6&;#00000	-3477
://%77%77	-3478
://111398	-3479
==4%26%26	-3480
\0061\006	-3481
cloneNode	-3482
llTrigger	-3483
▁Redirect	-3484
▁aaaaaaaa	-3485
▁frameset	-3486
▁language	-3487
▁onBefore	-3488
▁onpointe	-3489
▁onsearch	-3490
▁required	-3491
&#101&#114	-3492
&#102&#111	-3493
&#104&#116	-3494
&#105&#108	-3495
&#115&#116	-3496
&#116&#97:	-3497
&#40;1&#41	-3498
';)";>;<;/	-3499
(1)//');}}	-3500
.102.7.147	-3501
0061')"></	-3502
0061\0073\	-3503
0063\0072\	-3504
0069\0070\	-3505
6.000146.0	-3506
;#0000097&	-3507
=&#100&#97	-3508
>+-+-1-+-+	-3509
ScriptType	-3510
bleinopera	-3511
brutelogic	-3512
deleteuser	-3513
fullscreen	-3514
jAvAsCrIpT	-3515
lineNumber	-3516
sByTagName	-3517
sendBeacon	-3518
statusline	-3519
victimsite	-3520
▁Standards	-3521
▁itworksin	-3522
▁onMouseUp	-3523
▁onlypossi	-3524
▁onmessage	-3525
▁onplaying	-3526
▁worksinIE	-3527
%28%31%29%3	-3528
%65%72%74(/	-3529
00000072;&#	-3530
58&#0000097	-3531
8;&#97;&#11	-3532
://0102.014	-3533
Aexpression	-3534
\0061\0076\	-3535
\0065\0072\	-3536
allbrowsers	-3537
createEvent	-3538
somecommand	-3539
▁<%<!--'%><	-3540
▁aaaaaaaaaa	-3541
▁actiontype	-3542
▁onMouseOut	-3543
▁onPageHide	-3544
▁onPageShow	-3545
▁onPopState	-3546
▁onauxclick	-3547
▁onpopstate	-3548
▁{{{}.")));	-3549
&#62&#60&#47	-3550
&#62&#8203">	-3551
(88,83,83))&	-3552
00074;(1)></	-3553
;&#39;&#41;>	-3554
businessinfo	-3555
columnNumber	-3556
▁constructor	-3557
▁onMouseDown	-3558
.1027\0058.10	-3559
://1113982867	-3560
animateMotion	-3561
maliciouscode	-3562
somevariables	-3563
▁onMouseLeave	-3564
▁onMouseWheel	-3565
▁onafterprint	-3566
&#102&#97&#109	-3567
&#106&#115&#34	-3568
&#116&#112&#58	-3569
0053\0027\0029	-3570
://%77%77%77%2	-3571
InstallTrigger	-3572
▁onbeforeprint	-3573
(88,83,83))//";	-3574
6.0007.00000223	-3575
://66.102.7.147	-3576
:\0075\0072\006	-3577
;&#114;&#116;&#	-3578
itworksonchrome	-3579
thesiteyouareon	-3580
▁onBeforeUnload	-3581
&#0000115&#00000	-3582
5;&#112;&#116;&#	-3583
=&#106;&#97;&#11	-3584
animatetransform	-3585
".	-3586
"@	-3587
'&	-3588
'/	-3589
($	-3590
(6	-3591
(<	-3592
(_	-3593
(`	-3594
)(	-3595
)+	-3596
*3	-3597
,$	-3598
,%	-3599
&;	-3600
+4	-3601
,&	-3602
-"	-3603
-'	-3604
-5	-3605
."	-3606
._	-3607
/#	-3608
/\	-3609
0"	-3610
0%	-3611
0'	-3612
03	-3613
04	-3614
05	-3615
07	-3616
08	-3617
2=	-3618
3)	-3619
3/	-3620
4&	-3621
43	-3622
45	-3623
5&	-3624
5)	-3625
55	-3626
57	-3627
7"	-3628
78	-3629
7}	-3630
8&	-3631
8,	-3632
8.	-3633
9&	-3634
9;	-3635
:/	-3636
:<	-3637
;@	-3638
;[	-3639
;`	-3640
>*	-3641
>0	-3642
>>	-3643
?>	-3644
?]	-3645
AA	-3646
AE	-3647
AH	-3648
AK	-3649
Ab	-3650
Ad	-3651
BY	-3652
Bi	-3653
CD	-3654
CI	-3655
DA	-3656
DC	-3657
Di	-3658
Fi	-3659
Fk	-3660
Fs	-3661
GJ	-3662
Hk	-3663
Ix	-3664
JA	-3665
Ju	-3666
LU	-3667
MF	-3668
MS	-3669
Mn	-3670
Mu	-3671
Mz	-3672
NA	-3673
OT	-3674
Se	-3675
TS	-3676
TW	-3677
Ti	-3678
UA	-3679
UI	-3680
Un	-3681
Vt	-3682
WA	-3683
XY	-3684
\&	-3685
\6	-3686
]"	-3687
cG	-3688
cL	-3689
dz	-3690
eg	-3691
fr	-3692
gb	-3693
ho	-3694
hs	-3695
mL	-3696
nS	-3697
oJ	-3698
oN	-3699
$=	-3700
'<	-3701
)\	-3702
0-	-3703
19	-3704
1;	-3705
IC	-3706
gi	-3707
oe	-3708
of	-3709
qt	-3710
rC	-3711
sC	-3712
{[	-3713
▁6	-3714
▁B	-3715
▁D	-3716
▁_	-3717
▁b	-3718
▁n	-3719
">0	-3720
#">	-3721
#0=	-3722
$($	-3723
%03	-3724
%09	-3725
%68	-3726
&&>	-3727
&1>	-3728
'")	-3729
').	-3730
':'	-3731
'];	-3732
("1	-3733
(30	-3734
(41	-3735
(89	-3736
(97	-3737
(\&	-3738
(_.	-3739
)'/	-3740
);"	-3741
);&	-3742
){_	-3743
){}	-3744
)};	-3745
*/<	-3746
*/>	-3747
*3+	-3748
+'/	-3749
+='	-3750
+==	-3751
-11	-3752
-56	-3753
-7"	-3754
.%2	-3755
/*&	-3756
0',	-3757
00/	-3758
00=	-3759
00>	-3760
04-	-3761
09-	-3762
09=	-3763
0:'	-3764
0;'	-3765
1);	-3766
11\	-3767
169	-3768
1].	-3769
2">	-3770
2)%	-3771
23-	-3772
27&	-3773
28&	-3774
29;	-3775
333	-3776
39;	-3777
3=>	-3778
4+,	-3779
4-4	-3780
40,	-3781
41\	-3782
45\	-3783
4;&	-3784
5-8	-3785
52\	-3786
53&	-3787
53\	-3788
54\	-3789
58&	-3790
58;	-3791
5;&	-3792
6">	-3793
6-9	-3794
61)	-3795
61;	-3796
64)	-3797
72&	-3798
74&	-3799
'+	-3800
++	-3801
7&	-3802
Bl	-3803
Ms	-3804
]/	-3805
mU	-3806
'%2	-3807
11/	-3808
598	-3809
7%2	-3810
80-	-3811
81\	-3812
83&	-3813
8;&	-3814
927	-3815
96\	-3816
:&#	-3817
:'(	-3818
:..	-3819
:02	-3820
:[_	-3821
;![	-3822
;.&	-3823
;1.	-3824
;1/	-3825
;>&	-3826
;><	-3827
;["	-3828
;[\	-3829
;\&	-3830
="'	-3831
="-	-3832
="[	-3833
="]	-3834
="_	-3835
=%5	-3836
='?	-3837
=1;	-3838
=1>	-3839
=1}	-3840
=\'	-3841
>"/	-3842
>"`	-3843
>#<	-3844
>*{	-3845
>/<	-3846
>;@	-3847
>{-	-3848
???	-3849
AAo	-3850
ABC	-3851
ABD	-3852
ABl	-3853
ADE	-3854
ADz	-3855
AEf	-3856
AGO	-3857
AGU	-3858
AHM	-3859
ALT	-3860
ATT	-3861
Abg	-3862
Dog	-3863
FkP	-3864
Fox	-3865
GJv	-3866
Hel	-3867
Hit	-3868
IHR	-3869
JnL	-3870
KCl	-3871
LUE	-3872
Laz	-3873
Moz	-3874
Mub	-3875
Nvb	-3876
PSB	-3877
Pjx	-3878
RAM	-3879
Rle	-3880
RvY	-3881
SHI	-3882
Sym	-3883
TUx	-3884
The	-3885
UmV	-3886
Una	-3887
WFs	-3888
XSL	-3889
Xxx	-3890
[*/	-3891
[[[	-3892
\";	-3893
\%(	-3894
\28	-3895
\><	-3896
],'	-3897
]=[	-3898
]]&	-3899
]]<	-3900
``>	-3901
aHI	-3902
ace	-3903
and	-3904
ans	-3905
ate	-3906
ato	-3907
beh	-3908
bol	-3909
cpa	-3910
dHA	-3911
dre	-3912
ery	-3913
etc	-3914
exp	-3915
fet	-3916
fir	-3917
fox	-3918
gra	-3919
has	-3920
iai	-3921
ibi	-3922
iti	-3923
its	-3924
ive	-3925
jec	-3926
jqu	-3927
ldk	-3928
ldy	-3929
mac	-3930
mps	-3931
mpt	-3932
nPg	-3933
nce	-3934
noS	-3935
nth	-3936
num	-3937
oli	-3938
ori	-3939
ove	-3940
pIH	-3941
res	-3942
rpr	-3943
rsi	-3944
rta	-3945
rum	-3946
ryE	-3947
sCR	-3948
sct	-3949
sid	-3950
sim	-3951
srC	-3952
tie	-3953
tor	-3954
une	-3955
ups	-3956
vis	-3957
wap	-3958
wml	-3959
xBB	-3960
xdr	-3961
}+"	-3962
}]{	-3963
▁"-	-3964
▁&<	-3965
▁&{	-3966
▁'>	-3967
▁()	-3968
▁/"	-3969
▁/,	-3970
▁==	-3971
▁??	-3972
▁GC	-3973
▁JA	-3974
▁NA	-3975
▁OS	-3976
▁RC	-3977
▁VA	-3978
▁[\	-3979
▁ar	-3980
▁cl	-3981
▁fa	-3982
▁ob	-3983
▁of	-3984
▁or	-3985
▁po	-3986
▁{}	-3987
▁}+	-3988
!--#	-3989
!--[	-3990
"))>	-3991
"/+/	-3992
";)}	-3993
"="&	-3994
">><	-3995
%20{	-3996
%22/	-3997
%22;	-3998
%255	-3999
%80%	-4000
&#09	-4001
&#39	-4002
')%3	-4003
')/*	-4004
');+	-4005
';>;	-4006
'>//	-4007
'}].	-4008
(%64	-4009
(''.	-4010
()</	-4011
(){}	-4012
(0%0	-4013
(0)"	-4014
(100	-4015
(\";	-4016
)'%3	-4017
))%7	-4018
))</	-4019
)+{}	-4020
).$=	-4021
);}}	-4022
)\20	-4023
)}};	-4024
,105	-4025
,108	-4026
,114	-4027
,1</	-4028
,[{}	-4029
--%3	-4030
--><	-4031
._('	-4032
/)</	-4033
/></	-4034
0,0,	-4035
1").	-4036
10.0	-4037
12-4	-4038
1450	-4039
17-4	-4040
2").	-4041
2',+	-4042
2)//	-4043
29;"	-4044
3488	-4045
39;&	-4046
41);	-4047
509-	-4048
7">&	-4049
7055	-4050
83;&	-4051
93;"	-4052
9;')	-4053
:%20	-4054
://6	-4055
:333	-4056
:[].	-4057
;#1;	-4058
;%26	-4059
;&;{	-4060
;)&#	-4061
;)}\	-4062
;--&	-4063
;:&#	-4064
;;//	-4065
;=&#	-4066
;[1]	-4067
="#"	-4068
="%2	-4069
="/.	-4070
="1>	-4071
="20	-4072
="40	-4073
=";/	-4074
="``	-4075
=#><	-4076
=$,_	-4077
='+/	-4078
='0'	-4079
=100	-4080
==">	-4081
=></	-4082
=@"/	-4083
=``&	-4084
={};	-4085
>%22	-4086
>'%2	-4087
>''<	-4088
>/</	-4089
>1</	-4090
>;</	-4091
>]]>	-4092
AcgA	-4093
Anch	-4094
Ared	-4095
Brow	-4096
ByAG	-4097
CTRL	-4098
DAvc	-4099
Fire	-4100
Fsvg	-4101
Hkgb	-4102
IHho	-4103
Iden	-4104
Java	-4105
LIST	-4106
Lazy	-4107
PGJv	-4108
PSIx	-4109
Refe	-4110
RleH	-4111
Test	-4112
Time	-4113
UmVx	-4114
YXIg	-4115
[1]+	-4116
[2]+	-4117
[<]]	-4118
[]/+	-4119
[{}@	-4120
\")>	-4121
\');	-4122
\27\	-4123
\></	-4124
answ	-4125
atob	-4126
bGlu	-4127
boun	-4128
card	-4129
cert	-4130
cudz	-4131
dWVz	-4132
dome	-4133
else	-4134
fier	-4135
flow	-4136
gPSB	-4137
glow	-4138
hend	-4139
ifra	-4140
illa	-4141
jack	-4142
javA	-4143
lder	-4144
lity	-4145
loaD	-4146
logo	-4147
loit	-4148
lose	-4149
make	-4150
mpeg	-4151
nFox	-4152
ogle	-4153
pgno	-4154
ream	-4155
riPt	-4156
sans	-4157
semi	-4158
sgTE	-4159
sort	-4160
srpr	-4161
ster	-4162
sxvc	-4163
texe	-4164
ueue	-4165
uick	-4166
vbig	-4167
zIwM	-4168
};</	-4169
}<;/	-4170
▁">/	-4171
▁#[_	-4172
▁'"=	-4173
▁');	-4174
▁//<	-4175
▁5-0	-4176
▁5-9	-4177
▁5.0	-4178
▁6-9	-4179
▁:[_	-4180
▁ALT	-4181
▁FOR	-4182
▁\"<	-4183
▁fcc	-4184
▁one	-4185
▁onp	-4186
");//	-4187
%2526	-4188
%65%4	-4189
%69%6	-4190
%74%2	-4191
%75%6	-4192
&#00;	-4193
&#039	-4194
&#09;	-4195
&#41;	-4196
&#58;	-4197
'")`>	-4198
'%252	-4199
')\">	-4200
')}">	-4201
',+'/	-4202
'](1)	-4203
'](8)	-4204
('&#4	-4205
())</	-4206
()></	-4207
(1)%2	-4208
(1)))	-4209
(1)/.	-4210
(1);'	-4211
(1)}}	-4212
);"/>	-4213
);"><	-4214
)})</	-4215
**/</	-4216
*3+9/	-4217
+()+{	-4218
+4)+{	-4219
,[{}]	-4220
/"></	-4221
///><	-4222
00006	-4223
0022\	-4224
0052\	-4225
0066\	-4226
00;&#	-4227
09;;>	-4228
0:#0=	-4229
0:'__	-4230
0;'&#	-4231
10.10	-4232
1455\	-4233
2"></	-4234
2%22,	-4235
27&;#	-4236
29;">	-4237
31;&#	-4238
32;&#	-4239
37;&#	-4240
39"><	-4241
4-460	-4242
43;&#	-4243
5"><?	-4244
53&;#	-4245
64,%(	-4246
69;&#	-4247
7">&<	-4248
7"><?	-4249
70;&#	-4250
72&;#	-4251
73;&#	-4252
74&;#	-4253
75598	-4254
9&11/	-4255
91;&#	-4256
:..."	-4257
;!--#	-4258
;";&#	-4259
;#14;	-4260
;&&<&	-4261
;';">	-4262
;';&#	-4263
;(1)>	-4264
;);}&	-4265
;{()}	-4266
="%><	-4267
="0.3	-4268
="10"	-4269
=";//	-4270
="[[[	-4271
="]><	-4272
='?><	-4273
=1/+/	-4274
=1></	-4275
=="&#	-4276
=\"0;	-4277
>'>">	-4278
><![<	-4279
ABDDC	-4280
ADEAK	-4281
AGEAb	-4282
AHIAd	-4283
APABi	-4284
Adata	-4285
Async	-4286
Atype	-4287
BYTUx	-4288
Blbig	-4289
Bound	-4290
Ctype	-4291
Dtype	-4292
Etype	-4293
Ftype	-4294
Hello	-4295
IdHRw	-4296
Jumps	-4297
MnKTt	-4298
Msxml	-4299
PARAM	-4300
PjxzY	-4301
Press	-4302
SHIFT	-4303
Units	-4304
[1]);	-4305
\")</	-4306
]";>;	-4307
]]"><	-4308
async	-4309
cLick	-4310
dCgpO	-4311
dispa	-4312
farsi	-4313
fetch	-4314
filte	-4315
first	-4316
forms	-4317
forum	-4318
hasIn	-4319
hello	-4320
imgur	-4321
injec	-4322
iting	-4323
maskF	-4324
mhtml	-4325
movie	-4326
mtext	-4327
olicy	-4328
pIHsg	-4329
patie	-4330
radio	-4331
rence	-4332
reset	-4333
right	-4334
scape	-4335
vents	-4336
viour	-4337
wheel	-4338
while	-4339
zdmci	-4340
▁"'`>	-4341
▁%253	-4342
▁&#00	-4343
▁';';	-4344
▁<///	-4345
▁>"><	-4346
▁JAVA	-4347
▁NAME	-4348
▁[1].	-4349
▁base	-4350
▁drop	-4351
▁elem	-4352
▁fake	-4353
▁feed	-4354
▁give	-4355
▁onqt	-4356
▁onun	-4357
▁onwa	-4358
▁sand	-4359
▁some	-4360
▁test	-4361
");}</	-4362
$($){_	-4363
%29;%3	-4364
%61%74	-4365
&#09;&	-4366
&#10;&	-4367
&#11;=	-4368
&#61;"	-4369
';";--	-4370
';);//	-4371
';)<;/	-4372
';;<;/	-4373
(&#39;	-4374
()%253	-4375
());};	-4376
(1)">'	-4377
(1)"].	-4378
(1))%7	-4379
(1);/*	-4380
(8)>"@	-4381
)(1)'>	-4382
/&#13;	-4383
0074&#	-4384
1);[].	-4385
169-56	-4386
39;&;#	-4387
7&(1)&	-4388
83;&;#	-4389
999999	-4390
:&#13;	-4391
;");</	-4392
;#39;&	-4393
;#83;&	-4394
;&#13;	-4395
;&;#97	-4396
;(1)</	-4397
;);//&	-4398
;//<</	-4399
="--><	-4400
="0.0"	-4401
=="></	-4402
=@&#32	-4403
>">'><	-4404
>*[{}@	-4405
>/***/	-4406
>;<;![	-4407
AGUAcg	-4408
FkPWFs	-4409
IHhoci	-4410
Identi	-4411
IjAiIH	-4412
KDEpPg	-4413
MjAwMC	-4414
Popups	-4415
SwgdHJ	-4416
Symbol	-4417
UnaryE	-4418
__'}].	-4419
aalert	-4420
action	-4421
answer	-4422
bWVudC	-4423
bounce	-4424
callee	-4425
getPro	-4426
gohttp	-4427
images	-4428
ingBox	-4429
jquery	-4430
marker	-4431
noSuch	-4432
overta	-4433
sCriPt	-4434
search	-4435
server	-4436
setter	-4437
simple	-4438
stener	-4439
stream	-4440
toggle	-4441
uchend	-4442
visibi	-4443
weight	-4444
xtmenu	-4445
▁&#111	-4446
▁'">><	-4447
▁<!--<	-4448
▁<![><	-4449
▁EVENT	-4450
▁Error	-4451
▁OnXxx	-4452
▁VALUE	-4453
▁\";<;	-4454
▁image	-4455
▁input	-4456
";)}<;/	-4457
%22--%3	-4458
%27';">	-4459
%80%80%	-4460
&#61;&#	-4461
'(.*)'/	-4462
'](8)")	-4463
(&#039;	-4464
(0%0)</	-4465
(1));">	-4466
(1)//'>	-4467
(1)>'</	-4468
(41)></	-4469
(49))</	-4470
(88)"/>	-4471
(88)'%3	-4472
(89)"/>	-4473
)/**/</	-4474
)//"></	-4475
+='';</	-4476
.%241);	-4477
/404%22	-4478
04-0080	-4479
29;"/*/	-4480
61)')</	-4481
;">]]</	-4482
;#114;&	-4483
;#116;&	-4484
;&#110;	-4485
;&;#114	-4486
;'&#41;	-4487
;/*')">	-4488
<!--]]<	-4489
="&#106	-4490
>%22)};	-4491
><!--</	-4492
ATTLIST	-4493
BEalert	-4494
DataURL	-4495
Firefox	-4496
JnLzIwM	-4497
JywgdHJ	-4498
LazyDog	-4499
Mozilla	-4500
OnMouse	-4501
OverThe	-4502
Timeout	-4503
Windows	-4504
[*/[]/+	-4505
__']],'	-4506
__('0',	-4507
bWxuczp	-4508
cesskey	-4509
charset	-4510
checkup	-4511
clickme	-4512
console	-4513
cpasgTE	-4514
cudzMub	-4515
feImage	-4516
foreign	-4517
jacking	-4518
onevent	-4519
ontimer	-4520
pointer	-4521
rchange	-4522
ression	-4523
}+"")</	-4524
▁"'`><\	-4525
▁&#13;<	-4526
▁folder	-4527
▁object	-4528
▁onrate	-4529
▁poster	-4530
");//<</	-4531
";);}<;/	-4532
%22,%22/	-4533
%63%75%6	-4534
&#40;'&#	-4535
(1)"&#11	-4536
(1)')()>	-4537
(1)');}}	-4538
(1);"></	-4539
*3+9/3=>	-4540
+==+4)+{	-4541
/#0#/#0#	-4542
/404%22;	-4543
1450')/*	-4544
:/*--></	-4545
:1,0:'__	-4546
;&#09;;>	-4547
;&#47;">	-4548
;;&#039;	-4549
="1"/></	-4550
="1.0"?>	-4551
="999999	-4552
={}[['__	-4553
>">123</	-4554
>(123)</	-4555
>({0:#0=	-4556
AAoADEAK	-4557
ABlAHIAd	-4558
ACAAPABi	-4559
BrownFox	-4560
UmVxdWVz	-4561
argument	-4562
checkbox	-4563
dispatch	-4564
htmlfile	-4565
injected	-4566
instance	-4567
javapgno	-4568
jdGlvbig	-4569
ldyBYTUx	-4570
operator	-4571
overflow	-4572
postdome	-4573
protocol	-4574
showshow	-4575
simpatie	-4576
texecute	-4577
totypeOf	-4578
wapforum	-4579
yoursite	-4580
▁&#00;</	-4581
▁&#32;><	-4582
▁CLASSID	-4583
▁Windows	-4584
▁console	-4585
▁default	-4586
▁exploit	-4587
▁handler	-4588
▁marquee	-4589
▁onfilte	-4590
▁popover	-4591
▁sandbox	-4592
!#$%&;()*	-4593
%2520%257	-4594
%2529%257	-4595
&#039;)}\	-4596
('&#49;')	-4597
(1)");}</	-4598
(1)')()">	-4599
(1)/**/</	-4600
)/)[1])</	-4601
,[{}][0].	-4602
00;&#93;"	-4603
61;%26%23	-4604
75598"></	-4605
>')%22></	-4606
Blocation	-4607
Reference	-4608
Transform	-4609
VFdmVudCg	-4610
bdocument	-4611
behaviour	-4612
evalAsync	-4613
handledre	-4614
initEvent	-4615
ndocument	-4616
openBlock	-4617
▁:-(>/**/	-4618
▁codebase	-4619
▁fakeData	-4620
▁observer	-4621
▁onbounce	-4622
▁toString	-4623
$($){_/**/	-4624
%69%70%74>	-4625
&#116;(1)>	-4626
&;#0000039	-4627
&;#0000083	-4628
&;#0000097	-4629
&;#0000114	-4630
(1);/*';">	-4631
)/)[1])}};	-4632
;!--&#09;&	-4633
;#0000039&	-4634
;#0000083&	-4635
;#0000114&	-4636
;#0000116&	-4637
AGUAcgByAG	-4638
Identifier	-4639
JavaScript	-4640
\";;&#039;	-4641
answerhere	-4642
firstChild	-4643
instanceof	-4644
javAscript	-4645
makePopups	-4646
overtarget	-4647
parentNode	-4648
procheckup	-4649
setTimeout	-4650
visibility	-4651
▁/**/>/**/	-4652
▁accesskey	-4653
▁arguments	-4654
▁avascript	-4655
▁onwaiting	-4656
▁standards	-4657
';);";>;<;/	-4658
(1)-%27';">	-4659
;&;#116;&;#	-4660
AnchorClick	-4661
Bexpression	-4662
BoundingBox	-4663
JnLzIwMDAvc	-4664
OnMouseOver	-4665
createBlock	-4666
hasInstance	-4667
pIHsgYWxlcn	-4668
sxvccpasgTE	-4669
▁<![<!--]]<	-4670
▁JAVASCRIPT	-4671
▁nsResolver	-4672
▁onduration	-4673
▁onpointero	-4674
▁onprogress	-4675
▁onproperty	-4676
▁ontouchend	-4677
&#61;&#91;&#	-4678
(88,83,83));	-4679
=1/+/[*/[]/+	-4680
=@&#32;&#13;	-4681
JumpsOverThe	-4682
dataTransfer	-4683
maskForClick	-4684
noSuchMethod	-4685
parentWindow	-4686
uickBrownFox	-4687
▁/***/>/***/	-4688
▁5-0*3+9/3=>	-4689
▁contextmenu	-4690
▁onforminput	-4691
▁ontouchmove	-4692
▁strokecolor	-4693
(1)"&#11;&#10	-4694
09;6.000146.0	-4695
1450')/***/</	-4696
;&#47;&#47;">	-4697
AGEAbABlAHIAd	-4698
IdHRwUmVxdWVz	-4699
contentWindow	-4700
dispatchEvent	-4701
foreignObject	-4702
postdomevents	-4703
scriptexecute	-4704
worksinchrome	-4705
xAFjavascript	-4706
▁&#111;&#110;	-4707
▁dataTransfer	-4708
▁onformchange	-4709
▁onmousewheel	-4710
▁onratechange	-4711
▁ontouchstart	-4712
▁strokeweight	-4713
%2528%2529%253	-4714
(88,83,83))<;/	-4715
/**/$($){_/**/	-4716
00;&#93;"&#00;	-4717
09;&#10;&#11;>	-4718
ReferenceError	-4719
getPrototypeOf	-4720
▁onunhandledre	-4721
▁popovertarget	-4722
▁targetElement	-4723
(88,83,83))//--	-4724
(88,83,83))//\&	-4725
UnaryExpression	-4726
▁giveanswerhere	-4727
▁onfilterchange	-4728
.1027\0058.1053\	-4729
/&#09;&#10;&#11;	-4730
aaaaaaaaaaaaaaaa	-4731
fullscreenchange	-4732
▁&#09;&#10;&#11;	-4733
"+"	-4734
%43	-4735
%51	-4736
%53	-4737
%57	-4738
&&/	-4739
($$	-4740
(((	-4741
(0,	-4742
(32	-4743
(33	-4744
(5)	-4745
(66	-4746
(67	-4747
(68	-4748
(7)	-4749
(73	-4750
(81	-4751
(84	-4752
(93	-4753
(94	-4754
(\'	-4755
({'	-4756
)'}	-4757
),'	-4758
)}@	-4759
++)	-4760
,69	-4761
-1.	-4762
-7&	-4763
-7;	-4764
.63	-4765
/"<	-4766
1)\	-4767
22>	-4768
3"<	-4769
349	-4770
4%4	-4771
40&	-4772
41&	-4773
41)	-4774
46,	-4775
47=	-4776
6)"	-4777
6)`	-4778
63&	-4779
65&	-4780
69)	-4781
73"	-4782
76&	-4783
777	-4784
8%5	-4785
8(%	-4786
84,	-4787
9+,	-4788
98,	-4789
;27	-4790
;\/	-4791
;`>	-4792
<<<	-4793
=$$	-4794
=/>	-4795
=0>	-4796
==#	-4797
>""	-4798
?]{	-4799
(77	-4800
(\0	-4801
,%1	-4802
.")	-4803
2].	-4804
8].	-4805
=%0	-4806
=..	-4807
?69	-4808
AsJ	-4809
CBm	-4810
CCI	-4811
DAn	-4812
DoS	-4813
Fec	-4814
GVp	-4815
Ghp	-4816
HNz	-4817
HRo	-4818
ICB	-4819
IGh	-4820
IiB	-4821
InF	-4822
IpO	-4823
Jod	-4824
Jvc	-4825
KGV	-4826
KHR	-4827
Lio	-4828
Lmh	-4829
Lnc	-4830
Loa	-4831
NCg	-4832
NXN	-4833
ORT	-4834
OST	-4835
OTk	-4836
OyB	-4837
Pgo	-4838
RED	-4839
RWx	-4840
Scv	-4841
Skp	-4842
TEX	-4843
TMz	-4844
TWV	-4845
UIi	-4846
Uga	-4847
VGV	-4848
Vue	-4849
WAR	-4850
WNt	-4851
XJu	-4852
XNw	-4853
XSl	-4854
[86	-4855
[{'	-4856
]"<	-4857
]:[	-4858
aWN	-4859
amF	-4860
bHN	-4861
bWw	-4862
cGU	-4863
dGg	-4864
dXN	-4865
dmF	-4866
dpc	-4867
enT	-4868
fKC	-4869
gJy	-4870
guK	-4871
gub	-4872
iIC	-4873
iMS	-4874
iwg	-4875
lNh	-4876
lcl	-4877
mUu	-4878
nJy	-4879
oeC	-4880
pJy	-4881
pOy	-4882
pdG	-4883
sID	-4884
sIG	-4885
sKT	-4886
sbn	-4887
ubG	-4888
vbn	-4889
vcC	-4890
xBE	-4891
xCB	-4892
xMj	-4893
yBp	-4894
zIj	-4895
zLm	-4896
zOn	-4897
})}	-4898
}={	-4899
(47	-4900
(_)	-4901
.0'	-4902
.0.	-4903
.01	-4904
4-.	-4905
70;	-4906
=<;	-4907
=\&	-4908
HOU	-4909
YOU	-4910
[<;	-4911
dCh	-4912
eCh	-4913
goL	-4914
ifr	-4915
▁!=	-4916
▁4]	-4917
▁9,	-4918
▁>"	-4919
▁Ed	-4920
▁Ga	-4921
▁WA	-4922
▁`-	-4923
▁`>	-4924
▁mu	-4925
▁oN	-4926
");}	-4927
";)`	-4928
";<;	-4929
%08%	-4930
%27]	-4931
%28/	-4932
%28[	-4933
%29{	-4934
%31]	-4935
&#65	-4936
&&>&	-4937
&()*	-4938
')[0	-4939
')\"	-4940
'/%3	-4941
'/*"	-4942
'/*`	-4943
'>=(	-4944
']]:	-4945
']}]	-4946
(%74	-4947
())&	-4948
(/\/	-4949
(102	-4950
(104	-4951
(106	-4952
(107	-4953
(108	-4954
(115	-4955
(116	-4956
(125	-4957
(127	-4958
(130	-4959
(137	-4960
(21)	-4961
(25)	-4962
(30)	-4963
(500	-4964
(56)	-4965
(69)	-4966
(86)	-4967
(93)	-4968
(97,	-4969
(`1`	-4970
)'/)	-4971
)';-	-4972
)';;	-4973
)))<	-4974
))>#	-4975
))][	-4976
)//#	-4977
)//1	-4978
,$).	-4979
,(""	-4980
,107	-4981
,109	-4982
,116	-4983
/'%3	-4984
/)//	-4985
/*'+	-4986
/*<;	-4987
0,'/	-4988
1)?>	-4989
1,99	-4990
116)	-4991
2&#3	-4992
2')"	-4993
2)><	-4994
20)}	-4995
28)&	-4996
3)><	-4997
3.6.	-4998
384,	-4999
(/.	-5000
(29	-5001
(75	-5002
,61	-5003
09"	-5004
14,	-5005
141	-5006
647	-5007
90\	-5008
;<;	-5009
=50	-5010
Bif	-5011
UTT	-5012
dEJ	-5013
{61	-5014
{}[	-5015
▁41	-5016
▁}}	-5017
";)>	-5018
%%20	-5019
%26#	-5020
(128	-5021
(129	-5022
({}[	-5023
)//'	-5024
,61,	-5025
/*)}	-5026
29>;	-5027
389&	-5028
39..	-5029
40&<	-5030
40,4	-5031
40;&	-5032
41;&	-5033
41>;	-5034
45;'	-5035
4=';	-5036
5)">	-5037
5)%3	-5038
58&<	-5039
58;&	-5040
6">+	-5041
6)">	-5042
60+,	-5043
647/	-5044
7)//	-5045
70)>	-5046
7485	-5047
7813	-5048
93".	-5049
9\06	-5050
:'&#	-5051
:''.	-5052
;);+	-5053
;)>&	-5054
;27-	-5055
;>">	-5056
;]]&	-5057
="$(	-5058
="%0	-5059
="&"	-5060
="0%	-5061
="24	-5062
="28	-5063
="29	-5064
="30	-5065
="34	-5066
="41	-5067
="43	-5068
="58	-5069
="60	-5070
="73	-5071
="76	-5072
="93	-5073
="`<	-5074
=%26	-5075
=']]	-5076
=/*&	-5077
=//0	-5078
=0',	-5079
=250	-5080
=`>;	-5081
=``<	-5082
>%23	-5083
>'?>	-5084
>(((	-5085
>0</	-5086
><>>	-5087
>[{'	-5088
?]</	-5089
AsIG	-5090
BUTT	-5091
Bvbn	-5092
CRMF	-5093
EwMC	-5094
Ggle	-5095
Here	-5096
ICco	-5097
IHht	-5098
Ince	-5099
(&;	-5100
(/,	-5101
(39	-5102
,12	-5103
09:	-5104
12=	-5105
1>&	-5106
20=	-5107
20\	-5108
21>	-5109
69&	-5110
;).	-5111
;{}	-5112
Mou	-5113
ReE	-5114
Res	-5115
Vie	-5116
Vsx	-5117
ies	-5118
oeG	-5119
wat	-5120
}*{	-5121
▁Ch	-5122
▁TU	-5123
▁\"	-5124
▁cy	-5125
(/,/	-5126
(31)	-5127
))'>	-5128
,126	-5129
1">[	-5130
5)</	-5131
89".	-5132
="69	-5133
=%09	-5134
Exhr	-5135
Exxx	-5136
IpOz	-5137
Jvcj	-5138
Jyko	-5139
KScv	-5140
KVsx	-5141
LAYE	-5142
LCAx	-5143
LCAy	-5144
LEFT	-5145
MjAw	-5146
MubG	-5147
Next	-5148
OURC	-5149
Port	-5150
RWxl	-5151
ReEN	-5152
ScxM	-5153
Sele	-5154
SkpP	-5155
Some	-5156
UIiw	-5157
User	-5158
VGhp	-5159
View	-5160
XNwb	-5161
YWxz	-5162
[0],	-5163
[2],	-5164
[8].	-5165
\";'	-5166
\22\	-5167
\\,<	-5168
]]><	-5169
`))>	-5170
`/+/	-5171
`1`}	-5172
``</	-5173
``]>	-5174
aDoS	-5175
aler	-5176
bGwg	-5177
bHNl	-5178
dETA	-5179
dXJu	-5180
dual	-5181
elem	-5182
emit	-5183
face	-5184
gdmF	-5185
gray	-5186
guKj	-5187
hsaW	-5188
ical	-5189
ieHN	-5190
inTe	-5191
jcmV	-5192
jour	-5193
jwvc	-5194
lKTt	-5195
lace	-5196
lone	-5197
mber	-5198
nIiB	-5199
%76	-5200
'[{	-5201
("#	-5202
(56	-5203
(99	-5204
(['	-5205
,99	-5206
.',	-5207
20<	-5208
={'	-5209
Udl	-5210
cat	-5211
dtd	-5212
mFs	-5213
▁"<	-5214
▁$$	-5215
!--&	-5216
')")	-5217
(119	-5218
2)}@	-5219
8)</	-5220
99">	-5221
;#99	-5222
=\"&	-5223
Asrc	-5224
Bsrc	-5225
Eadd	-5226
OnpO	-5227
RESS	-5228
Udld	-5229
UsID	-5230
mFsK	-5231
nJyB	-5232
naHR	-5233
oeGh	-5234
paga	-5235
pdGx	-5236
rIiB	-5237
ramH	-5238
rypt	-5239
sCrI	-5240
sKTs	-5241
saWN	-5242
sbnM	-5243
scar	-5244
spam	-5245
sult	-5246
tied	-5247
uate	-5248
vbiB	-5249
xOTk	-5250
ydWV	-5251
ydXN	-5252
zdmc	-5253
},!!	-5254
}=0;	-5255
}])+	-5256
▁");	-5257
▁";&	-5258
▁';=	-5259
▁*/;	-5260
▁//>	-5261
▁360	-5262
▁40,	-5263
▁49,	-5264
▁4]&	-5265
▁5-8	-5266
▁500	-5267
▁6-8	-5268
▁:=_	-5269
▁<//	-5270
▁>>>	-5271
▁Box	-5272
▁DIS	-5273
▁ENT	-5274
▁IiB	-5275
▁TUy	-5276
▁YOU	-5277
▁[1,	-5278
▁\&#	-5279
▁box	-5280
▁cur	-5281
▁ifr	-5282
▁net	-5283
▁not	-5284
▁off	-5285
▁sol	-5286
▁sub	-5287
▁tro	-5288
▁wor	-5289
▁xsl	-5290
▁})(	-5291
"))'>	-5292
";)";	-5293
">1</	-5294
"?><!	-5295
#&#12	-5296
%%203	-5297
%&()*	-5298
%48%5	-5299
')&	-5300
'],	-5301
((`	-5302
/%3	-5303
32=	-5304
350	-5305
5%6	-5306
88&	-5307
=&>	-5308
KSk	-5309
VTT	-5310
ecs	-5311
gue	-5312
vtt	-5313
▁'=	-5314
▁=&	-5315
▁GI	-5316
!'],	-5317
");&	-5318
%22>	-5319
')('	-5320
');"	-5321
');}	-5322
')>;	-5323
)');	-5324
/%29	-5325
5&#6	-5326
88;&	-5327
:350	-5328
;1)&	-5329
="74	-5330
="84	-5331
="88	-5332
=1}}	-5333
>$("	-5334
>;=&	-5335
BVTT	-5336
Fwww	-5337
InFe	-5338
MFra	-5339
chan	-5340
cker	-5341
guee	-5342
nxxx	-5343
qKSk	-5344
rich	-5345
wTWV	-5346
▁'><	-5347
▁GIF	-5348
▁all	-5349
%51%6	-5350
%53%6	-5351
%64%2	-5352
&#1&#	-5353
&#10\	-5354
&#12\	-5355
&#13\	-5356
&#1;;	-5357
&#4&#	-5358
&#97;	-5359
&;&&<	-5360
')"/>	-5361
')[0]	-5362
'/*/"	-5363
':''.	-5364
';));	-5365
(""+{	-5366
($)</	-5367
(''+'	-5368
(';<;	-5369
((`1`	-5370
()">+	-5371
())>;	-5372
()//>	-5373
();};	-5374
(/.*/	-5375
(1)'}	-5376
(1)-'	-5377
(1);>	-5378
(1)<!	-5379
(104)	-5380
(146,	-5381
(16)`	-5382
(2));	-5383
(3)">	-5384
(5)',	-5385
(500)	-5386
(5611	-5387
(68)"	-5388
(70)>	-5389
(71)\	-5390
(77))	-5391
(8)-"	-5392
(8)-'	-5393
(8)><	-5394
(81)"	-5395
)%22>	-5396
)%253	-5397
)%255	-5398
)'%22	-5399
&>	-5400
52	-5401
:4	-5402
GF	-5403
Io	-5404
OS	-5405
PY	-5406
WD	-5407
cg	-5408
gX	-5409
jK	-5410
mO	-5411
nV	-5412
$='	-5413
'},	-5414
'}}	-5415
);(	-5416
12"	-5417
2".	-5418
32"	-5419
52,	-5420
:0,	-5421
='(	-5422
='<	-5423
>";	-5424
?">	-5425
Bon	-5426
Iob	-5427
SmO	-5428
cgd	-5429
cnV	-5430
ffi	-5431
jKX	-5432
')}\	-5433
'},0	-5434
())>	-5435
92".	-5436
:400	-5437
;");	-5438
="63	-5439
="\\	-5440
=&;#	-5441
='//	-5442
=({}	-5443
PORT	-5444
PYmo	-5445
SmOb	-5446
[>]]	-5447
\145	-5448
ffic	-5449
gXar	-5450
icon	-5451
ndom	-5452
perc	-5453
uble	-5454
ycgd	-5455
▁!--	-5456
▁';;	-5457
▁row	-5458
';>";	-5459
(67)"	-5460
)}),'	-5461
,110,	-5462
,126"	-5463
,[8].	-5464
-1.4.	-5465
//<</	-5466
00%02	-5467
00004	-5468
0020\	-5469
0036\	-5470
0054\	-5471
0055\	-5472
0061}	-5473
01)">	-5474
1%255	-5475
11.01	-5476
2"><!	-5477
2"><?	-5478
27"><	-5479
27)'}	-5480
28;&#	-5481
3"<"/	-5482
35)</	-5483
439..	-5484
46;&#	-5485
4=%22	-5486
5">1<	-5487
53"><	-5488
53;&#	-5489
58&;#	-5490
59"><	-5491
59;&#	-5492
5;&;#	-5493
6"><?	-5494
61"><	-5495
63&;#	-5496
64"><	-5497
64,&#	-5498
65&;#	-5499
!<	-5500
${	-5501
)?	-5502
1!	-5503
51	-5504
<\	-5505
<`	-5506
<{	-5507
Fd	-5508
HJ	-5509
Ln	-5510
MT	-5511
NS	-5512
Yy	-5513
bL	-5514
lh	-5515
('#	-5516
)+$	-5517
)?'	-5518
*/=	-5519
11"	-5520
27;	-5521
41;	-5522
;0"	-5523
<`[	-5524
=13	-5525
Age	-5526
Aid	-5527
FdK	-5528
HJl	-5529
Ilh	-5530
Jlc	-5531
MTk	-5532
Suc	-5533
csp	-5534
lYy	-5535
raw	-5536
rep	-5537
ura	-5538
yLn	-5539
▁)(	-5540
▁al	-5541
"/><	-5542
(("1	-5543
)//;	-5544
:,%3	-5545
=13&	-5546
FdKS	-5547
lLmh	-5548
ndbL	-5549
oIlh	-5550
ssDi	-5551
▁1=1	-5552
%78%6	-5553
(1)<\	-5554
)?'':	-5555
,%20{	-5556
,%253	-5557
0045\	-5558
41;>;	-5559
51;&#	-5560
65;&#	-5561
69&;#	-5562
7"><!	-5563
7)"><	-5564
7,109	-5565
70"><	-5566
72)">	-5567
73&;#	-5568
78;&#	-5569
8&#11	-5570
8(%22	-5571
89"><	-5572
9)//1	-5573
9,41)	-5574
93/">	-5575
97"><	-5576
://%0	-5577
://6&	-5578
:\%26	-5579
;!--[	-5580
;#101	-5581
;#112	-5582
;));&	-5583
;*//*	-5584
;\%26	-5585
;\006	-5586
<;!--	-5587
=""">	-5588
="#">	-5589
="''.	-5590
="/">	-5591
="/*<	-5592
="100	-5593
="2">	-5594
="20"	-5595
="50"	-5596
=";<;	-5597
="<%(	-5598
=">"+	-5599
)=	-5600
/,	-5601
4=	-5602
>$	-5603
>(	-5604
Fr	-5605
Im	-5606
JS	-5607
Li	-5608
Rl	-5609
TO	-5610
Vj	-5611
[&	-5612
]=	-5613
iM	-5614
iR	-5615
ou	-5616
pW	-5617
{6	-5618
},	-5619
▁)	-5620
%87	-5621
(40	-5622
(65	-5623
-8;	-5624
0:(	-5625
10"	-5626
13=	-5627
99;	-5628
FrA	-5629
Imh	-5630
YXR	-5631
You	-5632
iMG	-5633
nLG	-5634
pWz	-5635
rio	-5636
{},	-5637
▁1;	-5638
▁TO	-5639
%87%	-5640
)}</	-5641
2%03	-5642
=/\0	-5643
=?><	-5644
>$=1	-5645
Csrc	-5646
Swgd	-5647
VjLm	-5648
ario	-5649
iFrA	-5650
kdGg	-5651
llID	-5652
tYXR	-5653
▁!==	-5654
▁Exe	-5655
▁and	-5656
'\006	-5657
(65)"	-5658
));})	-5659
0029&	-5660
1%87%	-5661
14"><	-5662
76&;#	-5663
="?">	-5664
=$,_=	-5665
=%22/	-5666
='"><	-5667
=';>;	-5668
=//0>	-5669
=//15	-5670
=//33	-5671
=/></	-5672
=7813	-5673
==200	-5674
=[2].	-5675
=`<`[	-5676
=`>;`	-5677
>#114	-5678
>$=1,	-5679
>;";;	-5680
><<<<	-5681
>><<<	-5682
>\";'	-5683
Agent	-5684
BvbnN	-5685
CgpOy	-5686
Cjwvc	-5687
ERWAR	-5688
EVENT	-5689
Evalu	-5690
EwMCc	-5691
Fnxxx	-5692
HNzbW	-5693
HOULD	-5694
HRlcl	-5695
Inter	-5696
IobmF	-5697
JywgJ	-5698
LAYED	-5699
'-	-5700
)1	-5701
*%	-5702
.)	-5703
/%	-5704
6%	-5705
7)	-5706
:5	-5707
;?	-5708
>-	-5709
BB	-5710
To	-5711
WE	-5712
`&	-5713
dD	-5714
hz	-5715
pb	-5716
xF	-5717
&#7	-5718
(58	-5719
+.)	-5720
-*%	-5721
2%3	-5722
29&	-5723
=1.	-5724
>;+	-5725
NeT	-5726
fcc	-5727
hzc	-5728
mlu	-5729
neC	-5730
▁sh	-5731
%27-	-5732
(17)	-5733
/%%3	-5734
:500	-5735
:\00	-5736
;)`&	-5737
="/\	-5738
dodD	-5739
fail	-5740
neCc	-5741
onTo	-5742
pbml	-5743
pend	-5744
sCRI	-5745
setC	-5746
}));	-5747
▁1='	-5748
▁\'-	-5749
">0?<	-5750
&#7&#	-5751
')().	-5752
(83)&	-5753
(88)&	-5754
="1">	-5755
IGhla	-5756
LmNvb	-5757
Mario	-5758
NsaWN	-5759
NvbXB	-5760
OnMou	-5761
PSJod	-5762
PScxM	-5763
Pjwvc	-5764
Range	-5765
Right	-5766
RpdGx	-5767
RydXN	-5768
SOURC	-5769
SkpPC	-5770
SmObP	-5771
VNode	-5772
VRleH	-5773
VUIiw	-5774
VwTWV	-5775
WNtYX	-5776
WdodD	-5777
XaDoS	-5778
[8680	-5779
[<]]>	-5780
[>]]>	-5781
\0\00	-5782
\22\2	-5783
\27\3	-5784
]"<">	-5785
`);</	-5786
`1`</	-5787
aHIub	-5788
aHIuc	-5789
allow	-5790
aonTo	-5791
aycgd	-5792
bHNlL	-5793
brate	-5794
cessf	-5795
chann	-5796
chers	-5797
close	-5798
ctors	-5799
"*	-5800
#\	-5801
.%	-5802
.1	-5803
17	-5804
5.	-5805
:"	-5806
>2	-5807
CN	-5808
IL	-5809
Jz	-5810
PW	-5811
cm	-5812
vd	-5813
"*"	-5814
2;$	-5815
Gle	-5816
ILS	-5817
dWx	-5818
guc	-5819
uce	-5820
▁'(	-5821
▁UA	-5822
▁aW	-5823
">">	-5824
000;	-5825
10.1	-5826
:"/*	-5827
;)>;	-5828
=".<	-5829
=";>	-5830
='#\	-5831
>"><	-5832
>></	-5833
CgvY	-5834
GGle	-5835
TEXT	-5836
mFsc	-5837
tali	-5838
udWx	-5839
';)";	-5840
(0)</	-5841
(28)&	-5842
:=".<	-5843
;{}</	-5844
="123	-5845
cuted	-5846
dChkb	-5847
dashe	-5848
ellow	-5849
enTer	-5850
evalu	-5851
gaGVp	-5852
gdmFy	-5853
grade	-5854
iMSIg	-5855
iMjAw	-5856
itali	-5857
items	-5858
iwgMz	-5859
lkdGg	-5860
llend	-5861
lling	-5862
mUxMj	-5863
noecs	-5864
oMTMz	-5865
opPro	-5866
orien	-5867
orker	-5868
otcha	-5869
ption	-5870
requi	-5871
rypto	-5872
scard	-5873
setCa	-5874
somew	-5875
ssign	-5876
times	-5877
toXML	-5878
tuate	-5879
uPSIx	-5880
uVGhp	-5881
xssed	-5882
{0000	-5883
}%29;	-5884
▁!");	-5885
▁!--"	-5886
▁";";	-5887
▁";<;	-5888
▁%22/	-5889
▁'(%2	-5890
▁';<;	-5891
▁'>//	-5892
▁'>><	-5893
▁-->;	-5894
▁108,	-5895
▁114,	-5896
▁1="1	-5897
▁3.6.	-5898
▁4.0.	-5899
->	-5900
;6	-5901
?&	-5902
AF	-5903
ON	-5904
gJ	-5905
(74	-5906
09>	-5907
45"	-5908
70&	-5909
77%	-5910
`)>	-5911
gdG	-5912
lip	-5913
pat	-5914
see	-5915
txt	-5916
▁No	-5917
▁})	-5918
!--<	-5919
">0<	-5920
%03%	-5921
');\	-5922
(('1	-5923
**/\	-5924
,%%3	-5925
.*'/	-5926
29',	-5927
73&<	-5928
clip	-5929
oNto	-5930
reth	-5931
same	-5932
▁1);	-5933
▁col	-5934
▁pat	-5935
▁see	-5936
%22><	-5937
28&;#	-5938
33"><	-5939
34957	-5940
70&;#	-5941
77485	-5942
PortS	-5943
rcSet	-5944
rethy	-5945
unesc	-5946
▁'.',	-5947
▁--->	-5948
▁4]>;	-5949
▁5.0,	-5950
▁<;<;	-5951
▁>%22	-5952
▁DISP	-5953
▁Data	-5954
▁File	-5955
▁IiBp	-5956
▁LEFT	-5957
▁Safe	-5958
▁WANT	-5959
▁\";;	-5960
▁call	-5961
▁cols	-5962
▁file	-5963
▁rela	-5964
▁rows	-5965
▁safe	-5966
▁slot	-5967
▁tags	-5968
▁{{(_	-5969
▁}});	-5970
▁}}</	-5971
");<;/	-5972
";);//	-5973
";)`>;	-5974
%22%20	-5975
%22>`>	-5976
%2520'	-5977
%27%20	-5978
%27]%2	-5979
%29;};	-5980
%29}};	-5981
%43%68	-5982
%61%70	-5983
%64%65	-5984
%65%61	-5985
%65));	-5986
%69%65	-5987
%69%76	-5988
%72%75	-5989
&#10;;	-5990
&&>&&<	-5991
')%253	-5992
')(),'	-5993
')()</	-5994
');"><	-5995
');$("	-5996
')[0].	-5997
')[0];	-5998
')}\">	-5999
1=	-6000
2%	-6001
2&	-6002
6;	-6003
Bx	-6004
Ij	-6005
KH	-6006
PU	-6007
am	-6008
dx	-6009
mN	-6010
vI	-6011
{{	-6012
▁t	-6013
(('	-6014
(-8	-6015
(37	-6016
,'=	-6017
11=	-6018
73&	-6019
<6;	-6020
KHh	-6021
bmN	-6022
cks	-6023
jPU	-6024
onl	-6025
pam	-6026
▁BE	-6027
▁sc	-6028
▁ve	-6029
())%	-6030
=400	-6031
Dnew	-6032
Spam	-6033
TIvI	-6034
deTA	-6035
onlO	-6036
▁+</	-6037
▁tha	-6038
'">{{	-6039
(20)}	-6040
(_.__	-6041
);'><	-6042
1"></	-6043
123')	-6044
="){}	-6045
InFeT	-6046
\")'>	-6047
`1`}`	-6048
ctype	-6049
deTAi	-6050
rocks	-6051
▁\'><	-6052
▁scro	-6053
▁that	-6054
')";</	-6055
';";>;	-6056
';\006	-6057
'\0029	-6058
']}]</	-6059
'},0)>	-6060
("#").	-6061
("1")>	-6062
(%64%2	-6063
(%64%6	-6064
(&;#1;	-6065
('\141	-6066
());</	-6067
());})	-6068
())<\/	-6069
();});	-6070
(/,/))	-6071
(1)')>	-6072
(1)'><	-6073
(1)))+	-6074
(1)???	-6075
(1)}">	-6076
(10)//	-6077
(11)?>	-6078
(116)&	-6079
(12)><	-6080
(23)><	-6081
(27)'}	-6082
(3)//'	-6083
(36)">	-6084
(42)//	-6085
(47)</	-6086
(55)">	-6087
(57)//	-6088
(58)</	-6089
(62)//	-6090
(66)%3	-6091
(72)">	-6092
(73)">	-6093
(88)%3	-6094
(94)</	-6095
)%22><	-6096
)'%252	-6097
)');}}	-6098
)));}}	-6099
#[	-6100
'"	-6101
54	-6102
7+	-6103
9%	-6104
Ct	-6105
Fa	-6106
SW	-6107
UC	-6108
Uy	-6109
fX	-6110
/1.	-6111
4)&	-6112
;=&	-6113
=2>	-6114
Ctx	-6115
Nyk	-6116
__(	-6117
abc	-6118
evt	-6119
gre	-6120
nTW	-6121
ooI	-6122
pag	-6123
▁cx	-6124
▁la	-6125
▁oo	-6126
(1)}	-6127
(120	-6128
="23	-6129
MSIE	-6130
{61}	-6131
▁%27	-6132
▁12.	-6133
▁=";	-6134
▁ono	-6135
">/*<	-6136
')(),	-6137
');";	-6138
(1)"&	-6139
(1)";	-6140
(1)`>	-6141
(24)&	-6142
LCAxM	-6143
\27\2	-6144
canon	-6145
onpag	-6146
▁'></	-6147
▁="1>	-6148
(1)}),	-6149
));}</	-6150
)//','	-6151
);";>;	-6152
)}";>;	-6153
)}/></	-6154
++;}</	-6155
,61,97	-6156
-7";>;	-6157
./";>;	-6158
0,0,82	-6159
00"></	-6160
1"><//	-6161
1)"></	-6162
111)</	-6163
123').	-6164
2%2522	-6165
2'%252	-6166
29'}</	-6167
4%2520	-6168
4=%22>	-6169
6,40,4	-6170
647/1>	-6171
777)%3	-6172
8)//">	-6173
88;&;#	-6174
;#41;&	-6175
;#58;&	-6176
;#88;&	-6177
;#99;&	-6178
;;!--&	-6179
;},%20	-6180
="#">{	-6181
="0.3"	-6182
="0.7"	-6183
="1"><	-6184
="16">	-6185
="20">	-6186
="3"><	-6187
="6"><	-6188
="7"><	-6189
="8"><	-6190
="99">	-6191
=";&;{	-6192
="]]><	-6193
=%09((	-6194
=&#10<	-6195
=&;#10	-6196
='%27-	-6197
='/'%3	-6198
='/*'+	-6199
(9	-6200
/-	-6201
1'	-6202
18	-6203
Ls	-6204
Oi	-6205
TR	-6206
VU	-6207
XR	-6208
_=	-6209
aG	-6210
dp	-6211
hi	-6212
nR	-6213
}.	-6214
(("	-6215
(/@	-6216
(63	-6217
10%	-6218
5-9	-6219
=%3	-6220
>]>	-6221
FOR	-6222
XJz	-6223
ory	-6224
xEE	-6225
xpr	-6226
':['	-6227
:180	-6228
='%(	-6229
=../	-6230
Dsrc	-6231
hist	-6232
▁"">	-6233
▁(_=	-6234
(";<;	-6235
(1)>#	-6236
57;&#	-6237
:'"><	-6238
<;<;/	-6239
="1>[	-6240
=\"&{	-6241
FdKSB	-6242
HRwOi	-6243
UIRED	-6244
XJzaW	-6245
jcmVh	-6246
scope	-6247
vbmVu	-6248
▁expr	-6249
▁must	-6250
'};");	-6251
(9)';-	-6252
,_(1))	-6253
/)//'>	-6254
40;&;#	-6255
='1.0'	-6256
=({}).	-6257
=//15.	-6258
=0;0;1	-6259
>""","	-6260
>%22);	-6261
>&#97;	-6262
>')%22	-6263
>;&#83	-6264
?69,69	-6265
Acript	-6266
Aonxxx	-6267
BUTTON	-6268
Balert	-6269
Bcript	-6270
BvbnNl	-6271
Ccript	-6272
CgpOyA	-6273
ChudWx	-6274
Conxxx	-6275
DAnPgo	-6276
DOMFra	-6277
Dcript	-6278
Donxxx	-6279
Fstyle	-6280
IHhtbG	-6281
InRleH	-6282
IobmFt	-6283
KHRvcC	-6284
KTtmdW	-6285
LjAiIH	-6286
LnczLm	-6287
Loaded	-6288
MjAsIG	-6289
Modele	-6290
NXNlYy	-6291
NsaWNr	-6292
PSIxOT	-6293
ParamH	-6294
Policy	-6295
PortSw	-6296
RpdGxl	-6297
SmObPX	-6298
TIvIix	-6299
:8	-6300
Rs	-6301
SA	-6302
ds	-6303
)&#	-6304
./&	-6305
///	-6306
16,	-6307
:</	-6308
="(	-6309
='%	-6310
Con	-6311
`><	-6312
dpt	-6313
haW	-6314
ini	-6315
mat	-6316
zdE	-6317
▁<"	-6318
▁><	-6319
()',	-6320
(35)	-6321
)(1)	-6322
0006	-6323
1=$$	-6324
4-%(	-6325
93/&	-6326
:800	-6327
=50,	-6328
>;";	-6329
atta	-6330
ends	-6331
help	-6332
ords	-6333
spli	-6334
▁></	-6335
▁onE	-6336
▁ons	-6337
▁{{!	-6338
";}</	-6339
'"></	-6340
)//--	-6341
/////	-6342
29;&#	-6343
;>;&#	-6344
Conta	-6345
PRESS	-6346
abort	-6347
split	-6348
wLlNh	-6349
▁116,	-6350
▁Drop	-6351
▁onon	-6352
▁onst	-6353
"%%203	-6354
');<![	-6355
(1)';-	-6356
)//--!	-6357
,107),	-6358
/')></	-6359
64"><!	-6360
;#40;&	-6361
='%></	-6362
Target	-6363
UgaHJl	-6364
WEBVTT	-6365
Worker	-6366
[<]]>/	-6367
\";)>;	-6368
\00006	-6369
\0028&	-6370
\\,<'>	-6371
__,$).	-6372
aaaaaa	-6373
andler	-6374
assign	-6375
bGluaz	-6376
caller	-6377
confir	-6378
coords	-6379
crypto	-6380
dHMubG	-6381
dalert	-6382
dashed	-6383
double	-6384
eChjKX	-6385
fKCdpc	-6386
ffline	-6387
finite	-6388
gPSBkb	-6389
genera	-6390
geshow	-6391
gotcha	-6392
hbHNlL	-6393
iFrAMe	-6394
iIGhla	-6395
iMSIgb	-6396
ldmFsK	-6397
member	-6398
mptied	-6399
/')	-6400
00"	-6401
00(	-6402
00:	-6403
09<	-6404
200	-6405
20>	-6406
65;	-6407
;}#	-6408
[><	-6409
ant	-6410
cyA	-6411
dev	-6412
inG	-6413
lol	-6414
rup	-6415
▁%6	-6416
▁Sa	-6417
')"]	-6418
(1)1	-6419
0,0"	-6420
0065	-6421
Cimg	-6422
KinG	-6423
]]>;	-6424
lled	-6425
orag	-6426
"](1)	-6427
%20%0	-6428
';);+	-6429
(%252	-6430
)(1)>	-6431
000%2	-6432
45;&#	-6433
59%57	-6434
>'"><	-6435
></><	-6436
ICBkb	-6437
OndbL	-6438
orage	-6439
▁101,	-6440
▁<%78	-6441
▁Salt	-6442
▁down	-6443
%59%57	-6444
('1');	-6445
('1')>	-6446
,101))	-6447
2000%2	-6448
="5"><	-6449
=1%22,	-6450
Fxssme	-6451
active	-6452
movies	-6453
naviga	-6454
neCcge	-6455
oNloaD	-6456
onLoad	-6457
onlOad	-6458
opener	-6459
origin	-6460
passwd	-6461
percnt	-6462
phbGVy	-6463
postMe	-6464
rPSJod	-6465
random	-6466
reduce	-6467
repeat	-6468
result	-6469
riends	-6470
sCRIpt	-6471
sCRipt	-6472
sCrIpt	-6473
safari	-6474
scRiPt	-6475
scRipT	-6476
schema	-6477
stroke	-6478
styles	-6479
tYXRja	-6480
teCRMF	-6481
terval	-6482
urable	-6483
uspend	-6484
vcmcve	-6485
ventDe	-6486
yLnJlc	-6487
yellow	-6488
}}}});	-6489
▁"/></	-6490
▁#000;	-6491
▁%22%3	-6492
▁%61%6	-6493
▁%64%2	-6494
▁%64%6	-6495
▁'""><	-6496
▁'"`><	-6497
▁'>"><	-6498
▁(''+'	-6499
%8	-6500
8+	-6501
"%2	-6502
">?	-6503
">@	-6504
')%	-6505
'};	-6506
(12	-6507
(59	-6508
//#	-6509
99&	-6510
>;.	-6511
UoJ	-6512
[<!	-6513
cmV	-6514
htt	-6515
mly	-6516
odG	-6517
}']	-6518
▁up	-6519
▁wa	-6520
%280	-6521
'});	-6522
(""+	-6523
28&<	-6524
;28&	-6525
\006	-6526
haha	-6527
inse	-6528
toDi	-6529
▁--&	-6530
▁chr	-6531
%27><	-6532
35;&#	-6533
>")'>	-6534
Eload	-6535
Fecma	-6536
▁='><	-6537
▁else	-6538
▁oncu	-6539
#&#127	-6540
(126)"	-6541
(137)"	-6542
(48)</	-6543
(86)><	-6544
=/\02.	-6545
Fonxxx	-6546
KTtldk	-6547
insecu	-6548
srcdoc	-6549
}']="_	-6550
▁10.63	-6551
▁11.64	-6552
▁1="1"	-6553
▁1=">"	-6554
▁1='1'	-6555
▁200){	-6556
▁41)</	-6557
▁<!--\	-6558
▁<?='<	-6559
▁>"'><	-6560
▁?????	-6561
▁ENTER	-6562
▁Salty	-6563
▁XPath	-6564
▁[1,2]	-6565
▁\\');	-6566
▁apply	-6567
▁clone	-6568
▁curso	-6569
▁focus	-6570
▁green	-6571
▁onEnd	-6572
▁oncue	-6573
▁onmoz	-6574
▁onsta	-6575
▁shape	-6576
▁slide	-6577
▁solid	-6578
▁watch	-6579
▁world	-6580
";)';>;	-6581
";);<;/	-6582
";)>";;	-6583
">">"*"	-6584
#&#127;	-6585
%22%29;	-6586
%22,%20	-6587
%26#99;	-6588
%27%28[	-6589
%28%29;	-6590
%28%29{	-6591
%29%20{	-6592
%29/%29	-6593
%74(%22	-6594
&#39;)&	-6595
');}}</	-6596
')[0],'	-6597
'/*"/*/	-6598
';);<;/	-6599
1<	-6600
Cx	-6601
Dx	-6602
FJ	-6603
xD	-6604
";}	-6605
';}	-6606
72;	-6607
75"	-6608
9%2	-6609
>1<	-6610
>;;	-6611
blu	-6612
lic	-6613
svG	-6614
xxe	-6615
▁'%	-6616
▁);	-6617
▁He	-6618
')).	-6619
:100	-6620
="80	-6621
Drop	-6622
HOST	-6623
blue	-6624
boot	-6625
cimg	-6626
iner	-6627
ride	-6628
tern	-6629
▁100	-6630
▁6-7	-6631
▁<;?	-6632
▁@['	-6633
▁end	-6634
▁exe	-6635
▁img	-6636
';});	-6637
(1)>.	-6638
61;&#	-6639
8"><?	-6640
Fhtml	-6641
Hover	-6642
JqKSk	-6643
],1</	-6644
aopen	-6645
popup	-6646
▁over	-6647
&#39;)	-6648
';>;<;	-6649
)[%31]	-6650
,("""<	-6651
;*//*&	-6652
="/\%(	-6653
="2"><	-6654
="9"><	-6655
SOURCE	-6656
Setter	-6657
▁!/**/	-6658
▁Heide	-6659
▁below	-6660
";});</	-6661
';\0029	-6662
(";*//*	-6663
(%27%20	-6664
(-8))>#	-6665
(0)})</	-6666
(0,0,'/	-6667
(1)"/>?	-6668
(1)%253	-6669
(1)')">	-6670
(1)';</	-6671
(1))}</	-6672
(1)//";	-6673
(1)//';	-6674
(1)//]>	-6675
(1);};>	-6676
(1)<!--	-6677
(1)>*/=	-6678
(1)\29>	-6679
(100)">	-6680
(100,11	-6681
(101)">	-6682
(102)</	-6683
(115)</	-6684
(127)</	-6685
(128)//	-6686
(129)</	-6687
(130)">	-6688
(135)</	-6689
(146,20	-6690
(19)//1	-6691
(2)"></	-6692
(2));%7	-6693
(2)//'>	-6694
(2)//]>	-6695
(20)}),	-6696
(25)}</	-6697
(29))%7	-6698
(3)"></	-6699
7%	-6700
<?	-6701
FC	-6702
(80	-6703
-=_	-6704
10=	-6705
12!	-6706
:";	-6707
==1	-6708
>;1	-6709
SVg	-6710
rsa	-6711
">&#	-6712
(0).	-6713
;(&#	-6714
foof	-6715
uKCl	-6716
ubWF	-6717
▁dir	-6718
(1)>>	-6719
(80))	-6720
0%80%	-6721
00010	-6722
=">"/	-6723
pture	-6724
(1)/*<	-6725
(`1`)>	-6726
))()//	-6727
="/"><	-6728
="\\%(	-6729
config	-6730
escape	-6731
(2)//">	-6732
(3)//">	-6733
(30))%7	-6734
(33);">	-6735
(56)"><	-6736
(71)\29	-6737
(74)"><	-6738
(77))"/	-6739
(83)"><	-6740
(83)))<	-6741
(84)//#	-6742
(87)"><	-6743
(99,108	-6744
({}[$='	-6745
)%22)</	-6746
)');[].	-6747
)))``</	-6748
,%20%27	-6749
,101))(	-6750
,105,99	-6751
,114,11	-6752
-1.4.4.	-6753
/';";>;	-6754
0"><!--	-6755
0000006	-6756
000061}	-6757
1,99,11	-6758
123'));	-6759
2"><!--	-6760
3"><!--	-6761
389>;<;	-6762
5;&;#11	-6763
5;&;#99	-6764
6;&;#97	-6765
7.147/&	-6766
8"><!--	-6767
8%80%80	-6768
8;&;#10	-6769
8;&;#97	-6770
93/";>;	-6771
://"></	-6772
://6&;#	-6773
;#101;&	-6774
;#105;&	-6775
;#106;&	-6776
;#108;&	-6777
;#112;&	-6778
;#115;&	-6779
;#118;&	-6780
;;&#10;	-6781
;\0029&	-6782
="#"?><	-6783
="//14.	-6784
="0.45"	-6785
="10"><	-6786
="11"><	-6787
="12"><	-6788
="13"><	-6789
="14"><	-6790
="15"><	-6791
="18"><	-6792
="19"><	-6793
="20"><	-6794
="21"><	-6795
="22"><	-6796
="23"><	-6797
="25"><	-6798
="26">+	-6799
="27"><	-6800
="29"><	-6801
="30"><	-6802
="31"><	-6803
="32"><	-6804
="33"><	-6805
="36"><	-6806
="37"><	-6807
="38"><	-6808
="39"><	-6809
="40"><	-6810
="41"><	-6811
="42"><	-6812
="44"><	-6813
="45"><	-6814
="46"><	-6815
="47"><	-6816
="48"><	-6817
="49"><	-6818
="50"><	-6819
="51"><	-6820
="52"><	-6821
="53"><	-6822
="54"><	-6823
="55"><	-6824
="56"><	-6825
="57"><	-6826
="58"><	-6827
="59"><	-6828
="60"><	-6829
="61"><	-6830
="63"><	-6831
="65"><	-6832
="68"><	-6833
="69"><	-6834
="70"><	-6835
="72"><	-6836
="73"><	-6837
="74"><	-6838
="75"><	-6839
="79"><	-6840
="80"><	-6841
="81"><	-6842
="83"><	-6843
="84"><	-6844
="85"><	-6845
="86"><	-6846
="87"><	-6847
="88"><	-6848
="89"><	-6849
="91">[	-6850
="92"><	-6851
="93"><	-6852
="94"><	-6853
="95"><	-6854
="96"><	-6855
="97"><	-6856
="98"><	-6857
=";>;";	-6858
="\63&#	-6859
=']]></	-6860
=\";&;{	-6861
>;";;';	-6862
???????	-6863
Aonload	-6864
BYWxlcn	-6865
BlbigiR	-6866
BlbignR	-6867
Bonjour	-6868
CBmYWxz	-6869
Ciframe	-6870
Eshadow	-6871
EventLi	-6872
Fcookie	-6873
HNzbWUy	-6874
ICcoLio	-6875
IHRydWV	-6876
IHhociA	-6877
IjAiIHk	-6878
IpOzwvc	-6879
JykoKTt	-6880
JzEwMCc	-6881
KDEpJyk	-6882
KVsxXSl	-6883
LjAiIHg	-6884
MyEvent	-6885
OnMouSE	-6886
OncLick	-6887
Propert	-6888
RangeAt	-6889
ReENter	-6890
Scripts	-6891
VUJywgJ	-6892
[>]]></	-6893
\")';</	-6894
\")>";'	-6895
\";)<;/	-6896
`1`}`</	-6897
``]"<">	-6898
actuate	-6899
bWVudEJ	-6900
cessful	-6901
channel	-6902
cnVlKTt	-6903
dCgpOyB	-6904
dETAILS	-6905
dHMnKTt	-6906
deTAiLs	-6907
defined	-6908
discard	-6909
doctype	-6910
eObject	-6911
friends	-6912
gJyguKj	-6913
gPSBmdW	-6914
history	-6915
iYWxlcn	-6916
ieHNzIj	-6917
italize	-6918
iterate	-6919
jcmVhdG	-6920
kKHRvcC	-6921
lcnJvcj	-6922
llowing	-6923
marguee	-6924
neCcgeG	-6925
noalert	-6926
oMSkiIC	-6927
onfocus	-6928
onstart	-6929
outline	-6930
replace	-6931
rollend	-6932
rpolicy	-6933
sNXNlYy	-6934
scripts	-6935
setData	-6936
stopPro	-6937
strings	-6938
traffic	-6939
upgrade	-6940
validjs	-6941
vibrate	-6942
withCtx	-6943
zOnhsaW	-6944
▁";&;<;	-6945
▁";>;<;	-6946
▁&;#14;	-6947
▁'(.*%3	-6948
▁)));}}	-6949
▁//**/\	-6950
▁11.52,	-6951
▁3.6.28	-6952
▁<!--><	-6953
▁<;!--#	-6954
▁<;!--[	-6955
▁Chrome	-6956
▁Method	-6957
▁MjAwMC	-6958
▁Object	-6959
▁SHOULD	-6960
▁SrcSet	-6961
▁active	-6962
▁border	-6963
▁cookie	-6964
▁coords	-6965
▁cursor	-6966
▁dashed	-6967
▁format	-6968
▁getURL	-6969
▁latest	-6970
▁oNloaD	-6971
▁onhelp	-6972
▁onsele	-6973
▁result	-6974
▁secret	-6975
▁standa	-6976
▁submit	-6977
▁trough	-6978
▁{{{}[{	-6979
%27)%22>	-6980
%27,%20{	-6981
%29;%253	-6982
%48%54%4	-6983
%65%45%6	-6984
%70%65%6	-6985
&;&&<&&/	-6986
'(.*%253	-6987
');\"></	-6988
';";)`>;	-6989
';";-->;	-6990
';)>;<;/	-6991
';)}";>;	-6992
'\0029">	-6993
(("1"))>	-6994
(('1'))>	-6995
((`1`))>	-6996
(1)")}</	-6997
(1)))+';	-6998
(1)))//#	-6999
(1))//">	-7000
(1))})</	-7001
(1)//#">	-7002
(1);//">	-7003
(1)`()">	-7004
(107)></	-7005
(108)></	-7006
(11)"></	-7007
(1111)</	-7008
(119,114	-7009
(123))][	-7010
(17)"?><	-7011
(2)">]><	-7012
(30)](1)	-7013
(32)"></	-7014
(37)//">	-7015
(38)//">	-7016
(39)//">	-7017
(40)//">	-7018
(49)"></	-7019
(57)//</	-7020
(59)"></	-7021
(62)//'>	-7022
(63)"></	-7023
(80))}</	-7024
(93));">	-7025
(97)"></	-7026
);%22></	-7027
)[%31]);	-7028
,105,116	-7029
,108,101	-7030
/////"><	-7031
0%80%80%	-7032
1;&;#114	-7033
2%03"></	-7034
34;(1)</	-7035
45;'"></	-7036
5"><!--[	-7037
58;&;#97	-7038
5;&;#112	-7039
7"&&>&&<	-7040
7.147/">	-7041
88;&#83<	-7042
:"/*'/*`	-7043
://"/></	-7044
:\000072	-7045
;!--";<;	-7046
="&#106;	-7047
="0,0,82	-7048
="0.075"	-7049
="0.373"	-7050
="10"></	-7051
="100"><	-7052
="101"><	-7053
="102"><	-7054
="103"><	-7055
="104"><	-7056
="105"><	-7057
="106"><	-7058
="107"><	-7059
="109"><	-7060
="110"><	-7061
="111"><	-7062
="112"><	-7063
="113"><	-7064
="114"><	-7065
="116"><	-7066
="117"><	-7067
="118"><	-7068
="119"><	-7069
="120"><	-7070
="121"><	-7071
="122"><	-7072
="123"><	-7073
="124"><	-7074
="126"><	-7075
="127"><	-7076
="128"><	-7077
="129"><	-7078
="130"><	-7079
="131"><	-7080
="134"><	-7081
="136"><	-7082
="137"><	-7083
="138"><	-7084
="139"><	-7085
="17"><?	-7086
="24">1<	-7087
="28">1<	-7088
="34">1<	-7089
="35">1<	-7090
="4">0?<	-7091
="40"></	-7092
="43"><?	-7093
="64"><!	-7094
="66"><?	-7095
="67"><!	-7096
="76"><?	-7097
="77"><?	-7098
="78"><?	-7099
="82"><?	-7100
=$,_=1}}	-7101
='+/"/+/	-7102
='+/`/+/	-7103
='1';}</	-7104
='100'><	-7105
=0',0,0,	-7106
=781339&	-7107
==1)?'':	-7108
>#116;&#	-7109
>;<;!--#	-7110
Aonerror	-7111
Bonerror	-7112
Chandler	-7113
Conerror	-7114
Cression	-7115
DOMFrame	-7116
Donerror	-7117
Fhandler	-7118
Fonerror	-7119
IjAiIHdp	-7120
Interval	-7121
OnpOinTe	-7122
Security	-7123
UsIDAsIG	-7124
[0])}),'	-7125
\")>\";'	-7126
]]>;<;![	-7127
animated	-7128
attacker	-7129
createNS	-7130
dropHere	-7131
eChjKXty	-7132
evaluate	-7133
filename	-7134
iggerRes	-7135
insecure	-7136
interval	-7137
jPUNvbXB	-7138
jdGlvbiB	-7139
ldmFsKGF	-7140
listener	-7141
navigate	-7142
oMTMzNyk	-7143
oNtoGGle	-7144
ontoggle	-7145
onunload	-7146
pWzFdKSB	-7147
pagation	-7148
requests	-7149
requires	-7150
ssDialog	-7151
uVGhpcyA	-7152
unescape	-7153
username	-7154
vcmcvMTk	-7155
watchers	-7156
})};//">	-7157
▁(''+''.	-7158
▁//--></	-7159
▁11.60+,	-7160
▁4.0.4+,	-7161
▁Execute	-7162
▁Garethy	-7163
▁Message	-7164
▁OnError	-7165
▁bgsound	-7166
▁dirname	-7167
▁getSele	-7168
▁network	-7169
▁onabort	-7170
▁onclose	-7171
▁onorien	-7172
▁pattern	-7173
▁referre	-7174
▁request	-7175
▁strings	-7176
▁vectors	-7177
▁{}[['__	-7178
!#$%%&()*	-7179
";)';;<;/	-7180
%2522%252	-7181
%28%29;%3	-7182
%63%72%65	-7183
%64%43%68	-7184
%64%69%76	-7185
%64(%64%6	-7186
%68%65%61	-7187
&#0000106	-7188
&#1&#2&#3	-7189
&#10\0006	-7190
&#4&#5&#6	-7191
&#40;1)</	-7192
')\");}</	-7193
';));";>;	-7194
';);";)";	-7195
'](8)")-"	-7196
'](8)")-'	-7197
();%22>`>	-7198
();});$("	-7199
(1)')()</	-7200
(1)//";</	-7201
(1)//';</	-7202
(1)}}).$=	-7203
(10)//></	-7204
(106)//">	-7205
(125)"></	-7206
(2)//"></	-7207
(2)//'></	-7208
(42)//#">	-7209
(5)',384,	-7210
(69)"/></	-7211
(75)}/></	-7212
(\61)')</	-7213
,101,110,	-7214
."),("""<	-7215
.*'/));</	-7216
/#0#/#0#(	-7217
00%02%03%	-7218
000045)%3	-7219
5&;#00000	-7220
63;%26%23	-7221
64,%59%57	-7222
69;%26%23	-7223
70;%26%23	-7224
72;%26%23	-7225
73;%26%23	-7226
74;%26%23	-7227
76;%26%23	-7228
8&#11&#12	-7229
8;&#97;&<	-7230
:100%;"><	-7231
="){}}])+	-7232
="1.0"?><	-7233
="125"><?	-7234
="132"><!	-7235
="135"><?	-7236
="400"></	-7237
="71"><//	-7238
=";>';>";	-7239
="><">/*<	-7240
=';>;';";	-7241
==200%29{	-7242
>#0000083	-7243
>#0000097	-7244
>#0000112	-7245
>#0000114	-7246
>;=&;{()}	-7247
><>>>><<<	-7248
BvbnNlVGV	-7249
Container	-7250
Dfunction	-7251
Evaluator	-7252
HRoPSIxOT	-7253
Inception	-7254
LCAxLCAxM	-7255
Microsoft	-7256
NjcmlwdCI	-7257
Pageclick	-7258
UdldHRlcl	-7259
VUIiwiaHR	-7260
[1]%29}};	-7261
aonToGgle	-7262
autofocus	-7263
bGluaycgd	-7264
canonical	-7265
component	-7266
eshowshow	-7267
important	-7268
onmessage	-7269
preventDe	-7270
pushState	-7271
rawupdate	-7272
somewhere	-7273
toDisplay	-7274
undefined	-7275
userAgent	-7276
▁'%22--%3	-7277
▁NoScript	-7278
▁download	-7279
▁executed	-7280
▁javapgno	-7281
▁keytimes	-7282
▁location	-7283
▁ononline	-7284
▁relative	-7285
▁{{(_=''.	-7286
▁{}.")));	-7287
%08%00%00%	-7288
%20=%20%27	-7289
%2520%2528	-7290
%2526%2520	-7291
%2528%2522	-7292
%28%29%20{	-7293
%63%68(%22	-7294
%64%65(%74	-7295
&#039;)}\&	-7296
&#12\00006	-7297
&;#0000088	-7298
&;#0000101	-7299
&;#0000105	-7300
&;#0000108	-7301
&;#0000112	-7302
&;#0000118	-7303
');{}[['__	-7304
';)";)}<;/	-7305
';);//";>;	-7306
'];{}[['__	-7307
('1');'>=(	-7308
(1)'}{}*{-	-7309
(1);">]]</	-7310
(1);');}</	-7311
(120,61,97	-7312
(133)//--!	-7313
(21)')()</	-7314
(561177485	-7315
(\061)')</	-7316
)%2520%257	-7317
));})();</	-7318
5;&#112;&<	-7319
7.147/";>;	-7320
:";;&;#10;	-7321
;#0000040&	-7322
;#0000041&	-7323
;#0000058&	-7324
;#0000088&	-7325
;#0000099&	-7326
;#0000101&	-7327
;#0000105&	-7328
;#0000106&	-7329
;#0000108&	-7330
;#0000112&	-7331
;#0000115&	-7332
;#0000118&	-7333
="39"><!--	-7334
="62"><!--	-7335
="90"><!--	-7336
="97"><!--	-7337
=&;#000010	-7338
=//3334957	-7339
=50');}}</	-7340
>#115;&#99	-7341
>;';";-->;	-7342
?69,69"></	-7343
ChudWxsKTs	-7344
JaVaScript	-7345
LCAyMjAsIG	-7346
OndbLcLick	-7347
PYmogPSBkb	-7348
Properties	-7349
Successful	-7350
YXNjcmlwdD	-7351
[8680439..	-7352
\0028'\006	-7353
bGwgKTtldk	-7354
capitalize	-7355
dHMnKTtldk	-7356
gXarSmObPX	-7357
getRangeAt	-7358
indefinite	-7359
jAvascript	-7360
mUxMjMnKTt	-7361
navigation	-7362
oeGhyLnJlc	-7363
setCapture	-7364
showModele	-7365
tYXRjaCgvY	-7366
zdmciPjxzY	-7367
});{}[['__	-7368
▁''=']]></	-7369
▁--><!--*{	-7370
▁<!'/*"/*/	-7371
▁>%22%27><	-7372
▁DISPLAYED	-7373
▁Heiderich	-7374
▁fileInput	-7375
▁following	-7376
▁injection	-7377
▁innerHTML	-7378
▁isTrusted	-7379
▁maskUnits	-7380
▁navigator	-7381
▁onemptied	-7382
▁onoffline	-7383
▁onstalled	-7384
▁onstorage	-7385
▁onsuspend	-7386
▁scrolling	-7387
";);//<;<;/	-7388
";)>";;';>;	-7389
%28/%27%28[	-7390
&#0000101&<	-7391
&#0000105&<	-7392
&#0000115&<	-7393
';)";);}<;/	-7394
';\0029";>;	-7395
(";*//*";);	-7396
()%2520%257	-7397
());})();};	-7398
(27)'}{}*{-	-7399
39;&;#41;>;	-7400
4%2520%2526	-7401
5&;#0000099	-7402
6&;#0000040	-7403
6&;#0000058	-7404
6&;#0000097	-7405
6,40,49,41)	-7406
8%80%80%80%	-7407
;&#39;&#41>	-7408
="&#0000106	-7409
="1000"/></	-7410
="108"><!--	-7411
="133"><!--	-7412
="37"><!--<	-7413
="\63&#9\06	-7414
=%22/%22></	-7415
Cexpression	-7416
Dexpression	-7417
EaddEventLi	-7418
Eshadowlabs	-7419
Fecmascript	-7420
KScvKVsxXSl	-7421
MouseEvents	-7422
PScxMDAnPgo	-7423
ParamHeight	-7424
RWxlbWVudEJ	-7425
RpdGxlPjxzY	-7426
VFdmVudCggJ	-7427
\0028';\006	-7428
bWxuczpzdmc	-7429
createVNode	-7430
ctionchange	-7431
dXJuIHRydWV	-7432
defaultView	-7433
iIGhlaWdodD	-7434
iterateNext	-7435
onpageonpag	-7436
phbGVydChkb	-7437
postMessage	-7438
rPSJodHRwOi	-7439
setInterval	-7440
toXMLString	-7441
validstyles	-7442
vbmVudHMubG	-7443
vcmcvMjAwMC	-7444
zdmciIHhtbG	-7445
▁";";";>;<;	-7446
▁%27%22--%3	-7447
▁'>//\\,<'>	-7448
▁6.000146.0	-7449
▁<%73%63%72	-7450
▁MouseEvent	-7451
▁TUyIpOzwvc	-7452
▁makePopups	-7453
▁standalone	-7454
%28%29%29;};	-7455
%28%29;},%20	-7456
%72%75%65));	-7457
&;#0000041>;	-7458
'/*/"/*--></	-7459
';);";>;]]>;	-7460
(";";;&;#10;	-7461
(1)&&;&&<&&/	-7462
(146,20));</	-7463
1,99,117,109	-7464
200%2529%257	-7465
39;&;#88;&;#	-7466
6&#0000097&<	-7467
83;&;#83;&;#	-7468
="115"><!--[	-7469
="999999">0<	-7470
=$,_=1}}).$=	-7471
='+/`/+/"/+/	-7472
>;";>;';>;<;	-7473
>;\";;&#039;	-7474
ContentUnits	-7475
JzEwMCcgaGVp	-7476
OnMouSEenTer	-7477
VFdmVudCgnTW	-7478
animationend	-7479
configurable	-7480
defineSetter	-7481
functionname	-7482
gdmFyIHhociA	-7483
generateCRMF	-7484
onpageonpage	-7485
tationchange	-7486
uPSIxLjAiIHg	-7487
{0000000061}	-7488
▁6;&#97;&#11	-7489
▁</%73%63%72	-7490
▁oncuechange	-7491
▁onpointerup	-7492
▁onscrollend	-7493
▁repeatcount	-7494
%2520'(.*%253	-7495
%80%80%80%80%	-7496
&#039;)}\";>;	-7497
(1)///////"><	-7498
(150,41));}</	-7499
(88,83,83))>;	-7500
)'%22)[%31]);	-7501
,101,110,116)	-7502
,105,99,107),	-7503
6;&;#97;&;#11	-7504
88&#0000083&<	-7505
8;&;#97;&;#11	-7506
;&;#108;&;#10	-7507
;&;#114;&;#10	-7508
="0,0,82,126"	-7509
="999999">1</	-7510
ActiveXObject	-7511
ContentLoaded	-7512
NsaWNrJywgdHJ	-7513
currentTarget	-7514
hbHNlLCBmYWxz	-7515
importScripts	-7516
transitionend	-7517
vcmcveHNzbWUy	-7518
xAEjavascript	-7519
xBEjavascript	-7520
xBFexpression	-7521
xBFjavascript	-7522
▁';';;!--";<;	-7523
▁????????????	-7524
▁DataTransfer	-7525
▁getSelection	-7526
▁onpointerout	-7527
%2528%2529%257	-7528
%61%70%70%65%6	-7529
%61%74%65%45%6	-7530
%64%43%68%69%6	-7531
%64%69%76%22);	-7532
%65%72%48%54%4	-7533
%68%65%61%64%2	-7534
&#39;)";);}<;/	-7535
&#4&#5&#6&#7&#	-7536
';";-->;<;!--#	-7537
(88,83,83))//&	-7538
64,%59%57%78%6	-7539
>#114;&#116;&#	-7540
LCAxLCAxMiwgMz	-7541
PortSwiggerRes	-7542
WNtYXNjcmlwdCI	-7543
aaaaaaaaaaaaaa	-7544
animationstart	-7545
initMouseEvent	-7546
preventDefault	-7547
startContainer	-7548
▁onbeforeinput	-7549
▁onpointerdown	-7550
▁onpointermove	-7551
▁onpointerover	-7552
▁onselectstart	-7553
▁ontouchcancel	-7554
%63%68(%22%63%6	-7555
%65%72%74(%64%2	-7556
';);";)";;&#10;	-7557
(1)')()})};//">	-7558
(88,83,83))//';	-7559
,105,116,101))(	-7560
,108,101,114,11	-7561
.1027\0058.1053	-7562
/#0#/#0#(0)})</	-7563
00%00%00%02%03%	-7564
0053\0027\0029&	-7565
2%2522%2529%253	-7566
:"/*'/*`/*--></	-7567
://1113982867/&	-7568
;#09;6.000146.0	-7569
;&#108;&#101;&<	-7570
>#116;&#58;&#97	-7571
OnpOinTeReENter	-7572
contentDocument	-7573
documentElement	-7574
eshowshowgeshow	-7575
stopPropagation	-7576
toDisplayString	-7577
▁XPathEvaluator	-7578
▁onbeforetoggle	-7579
▁onpointerleave	-7580
▁referrerpolicy	-7581
%29/%29[1]%29}};	-7582
(561177485777)%3	-7583
(88,83,83))//";;	-7584
(88,83,83))//--&	-7585
(88,83,83))//\";	-7586
(88,83,83))//\';	-7587
4//["'`-->]]>]</	-7588
://1113982867/">	-7589
=//3334957647/1>	-7590
>#0000039&#00000	-7591
VFdmVudHMnKTtldk	-7592
\";)>;\";;&#039;	-7593
createNSResolver	-7594
defineProperties	-7595
javafunctionname	-7596
▁allowfullscreen	-7597
▁onpaonpageonpag	-7598
$%&	-7599
!#$	-7600
""<	-7601
%45	-7602
(31	-7603
(35	-7604
(42	-7605
(71	-7606
({0	-7607
)``	-7608
,_=	-7609
.7.	-7610
0?<	-7611
1)?	-7612
1`}	-7613
34;	-7614
373	-7615
4.4	-7616
50"	-7617
73;	-7618
957	-7619
:;?	-7620
AsC	-7621
Asy	-7622
EAK	-7623
EwM	-7624
Exe	-7625
HIF	-7626
HIu	-7627
Hkg	-7628
IHd	-7629
IHh	-7630
IwM	-7631
IxO	-7632
KDE	-7633
LcL	-7634
LnJ	-7635
Onh	-7636
Onp	-7637
PSI	-7638
SIE	-7639
SIg	-7640
UAc	-7641
UxM	-7642
WVu	-7643
YTU	-7644
YXI	-7645
aGV	-7646
azy	-7647
bAB	-7648
dAA	-7649
dHM	-7650
dPa	-7651
dXJ	-7652
dmc	-7653
dzM	-7654
gPS	-7655
gaH	-7656
iFr	-7657
iIG	-7658
jMn	-7659
kdG	-7660
lPj	-7661
mVx	-7662
mcv	-7663
nFo	-7664
nLz	-7665
ncz	-7666
oMS	-7667
oMi	-7668
pPg	-7669
pcH	-7670
rIi	-7671
ueu	-7672
wgJ	-7673
whi	-7674
xJu	-7675
xMD	-7676
xXS	-7677
xvY	-7678
yIH	-7679
ycg	-7680
you	-7681
zFd	-7682
}])	-7683
▁#[	-7684
▁6.	-7685
▁:-	-7686
▁EV	-7687
▁gi	-7688
")-'	-7689
"<"/	-7690
">"*	-7691
#0#/	-7692
%64%	-7693
&<&&	-7694
'}{}	-7695
())<	-7696
(16)	-7697
(71)	-7698
**/>	-7699
6-7	-7700
93/	-7701
IHk	-7702
KTw	-7703
jAi	-7704
jAs	-7705
jdG	-7706
nEr	-7707
nKT	-7708
oKT	-7709
sIn	-7710
▁Fi	-7711
(&#1	-7712
([1]	-7713
*[{}	-7714
,111	-7715
,_=1	-7716
.105	-7717
.4+,	-7718
/404	-7719
/480	-7720
0%80	-7721
1%70	-7722
1%87	-7723
1-+-	-7724
1301	-7725
16)&	-7726
1`))	-7727
1`</	-7728
2.7.	-7729
4,11	-7730
5">1	-7731
5\16	-7732
6,20	-7733
6,40	-7734
6.28	-7735
69-5	-7736
7%78	-7737
7/">	-7738
7559	-7739
8%69	-7740
8,10	-7741
83)&	-7742
8680	-7743
9&11	-7744
9)';	-7745
:-(>	-7746
:1,0	-7747
:;?@	-7748
;*//	-7749
;//<	-7750
="26	-7751
="37	-7752
="79	-7753
="90	-7754
=1)?	-7755
>({0	-7756
>><<	-7757
>>><	-7758
AGEA	-7759
AHIA	-7760
AbAB	-7761
AnPg	-7762
BmdW	-7763
ByTa	-7764
CBkb	-7765
HIFT	-7766
HNzI	-7767
HRvc	-7768
HRwU	-7769
IDAs	-7770
IdHR	-7771
Inst	-7772
IxOT	-7773
MSIg	-7774
NTJy	-7775
OncL	-7776
Onhs	-7777
RipT	-7778
SSID	-7779
Such	-7780
USER	-7781
VALU	-7782
VudC	-7783
Wxuc	-7784
XBvb	-7785
[0];	-7786
]]>/	-7787
__'}	-7788
__,$	-7789
argu	-7790
bser	-7791
dGVF	-7792
dHMu	-7793
dard	-7794
dmVu	-7795
dmci	-7796
gExp	-7797
hbHN	-7798
iIHd	-7799
"&&	-7800
"+{	-7801
&>&	-7802
)})	-7803
0)"	-7804
1)"	-7805
2)}	-7806
23/	-7807
3/&	-7808
360	-7809
5)"	-7810
559	-7811
59%	-7812
6-8	-7813
60+	-7814
7)"	-7815
7/&	-7816
8)"	-7817
89&	-7818
:,*	-7819
CAA	-7820
CAx	-7821
Dov	-7822
MBE	-7823
POR	-7824
])}	-7825
gKT	-7826
sgT	-7827
sgY	-7828
▁Er	-7829
-8))	-7830
1.4.	-7831
1.60	-7832
23/&	-7833
3334	-7834
89><	-7835
;\00	-7836
>&&<	-7837
Unit	-7838
aded	-7839
cted	-7840
iIHk	-7841
iMjA	-7842
iYWx	-7843
isTr	-7844
isib	-7845
jAva	-7846
jAwM	-7847
lAHI	-7848
lPjx	-7849
lcnJ	-7850
luaz	-7851
lumn	-7852
mUxM	-7853
mcve	-7854
nLzI	-7855
nary	-7856
oKTt	-7857
odHR	-7858
ousS	-7859
pJyk	-7860
pOin	-7861
pOyB	-7862
phbG	-7863
poss	-7864
pzdm	-7865
rIpT	-7866
rIpt	-7867
sCri	-7868
uIHR	-7869
uare	-7870
uczp	-7871
umbe	-7872
unce	-7873
vIix	-7874
vMjA	-7875
veHN	-7876
wMCc	-7877
wgMz	-7878
xLCA	-7879
xplo	-7880
xvYW	-7881
yDog	-7882
yIpO	-7883
yMjA	-7884
zFdK	-7885
{}}]	-7886
});$	-7887
▁%61	-7888
▁4.0	-7889
▁OnX	-7890
▁bor	-7891
▁fol	-7892
▁gre	-7893
")>";	-7894
">"*"	-7895
$($){	-7896
%54%4	-7897
%64%6	-7898
%70%7	-7899
&<&	-7900
1&<	-7901
1;;	-7902
3&<	-7903
315	-7904
Bmd	-7905
Cgg	-7906
Cgn	-7907
Cgx	-7908
PWF	-7909
Rlc	-7910
SPA	-7911
bGV	-7912
bGw	-7913
ciA	-7914
ldm	-7915
mci	-7916
nWF	-7917
rgu	-7918
tld	-7919
")-"	-7920
(";*	-7921
(.*?	-7922
*/*/	-7923
.*)'	-7924
//33	-7925
09;6	-7926
1\15	-7927
29'\	-7928
83&<	-7929
="44	-7930
="47	-7931
AdAA	-7932
HIub	-7933
Nloa	-7934
PARA	-7935
Wxlc	-7936
nKTt	-7937
▁&#0	-7938
▁bla	-7939
"")</	-7940
&#100	-7941
&#13;	-7942
&#49;	-7943
&#6&#	-7944
';";)	-7945
']]['	-7946
((+{}	-7947
(.*%3	-7948
(1))}	-7949
(3)//	-7950
(30))	-7951
(49))	-7952
(8)")	-7953
(8)>"	-7954
(\61)	-7955
)))``	-7956
)//]>	-7957
)](1)	-7958
){}}]	-7959
)};//	-7960
*';">	-7961
+==+4	-7962
,105,	-7963
,111,	-7964
-0080	-7965
.%241	-7966
.1053	-7967
/#0#(	-7968
/#0#/	-7969
/&#09	-7970
/+/"/	-7971
/1301	-7972
02%03	-7973
039;)	-7974
09;6.	-7975
1&#46	-7976
1)\29	-7977
11139	-7978
2"]("	-7979
2&#60	-7980
203">	-7981
22"><	-7982
23)</	-7983
25"><	-7984
28.10	-7985
2;%26	-7986
39828	-7987
3\002	-7988
4,105	-7989
42"><	-7990
46,20	-7991
47)</	-7992
47;">	-7993
47;&#	-7994
5)}</	-7995
51"><	-7996
57647	-7997
6%252	-7998
6,40,	-7999
''.	-8000
)"?	-8001
1.5	-8002
1.6	-8003
30)	-8004
5;'	-8005
76;	-8006
>''	-8007
>'?	-8008
@[/	-8009
AVA	-8010
RiP	-8011
Rip	-8012
Vud	-8013
Wxl	-8014
Wxz	-8015
XPa	-8016
rJy	-8017
rka	-8018
vcc	-8019
xvc	-8020
▁30	-8021
▁[1	-8022
!'/*	-8023
%27,	-8024
'/*/	-8025
1.64	-8026
3%63	-8027
9,11	-8028
='>'	-8029
Mess	-8030
chMe	-8031
hpcy	-8032
iIHg	-8033
quiv	-8034
rown	-8035
stMe	-8036
▁//*	-8037
%27';	-8038
%63%7	-8039
);[].	-8040
)>";;	-8041
30)">	-8042
41));	-8043
63"><	-8044
65"><	-8045
66.10	-8046
67"><	-8047
68"><	-8048
69,69	-8049
7)></	-8050
73)">	-8051
75"><	-8052
76"><	-8053
77"><	-8054
8%00%	-8055
8&#12	-8056
8,101	-8057
8,105	-8058
81"><	-8059
82"><	-8060
85"><	-8061
9)"/>	-8062
9,101	-8063
91)</	-8064
93"><	-8065
94)</	-8066
99">0	-8067
99">1	-8068
99,10	-8069
;#09;	-8070
;#105	-8071
;#106	-8072
;#116	-8073
;)}\&	-8074
;;!--	-8075
<!--'	-8076
="#"?	-8077
="0.4	-8078
="103	-8079
="109	-8080
="130	-8081
="134	-8082
="315	-8083
='1.0	-8084
=\";&	-8085
>'"--	-8086
>*[{}	-8087
>;\";	-8088
@&#32	-8089
AAoAD	-8090
AbABl	-8091
AcgBy	-8092
AdAAo	-8093
CLICK	-8094
CRipt	-8095
Conte	-8096
CrIpt	-8097
DAnPg	-8098
ELEME	-8099
$).	-8100
(21	-8101
).$	-8102
*)'	-8103
+-1	-8104
+-_	-8105
+/[	-8106
+/`	-8107
+9/	-8108
,0,	-8109
-+-	-8110
...	-8111
/\0	-8112
0).	-8113
0,0	-8114
69-	-8115
69;	-8116
9/3	-8117
>"+	-8118
NoS	-8119
\02	-8120
aSc	-8121
ami	-8122
lvb	-8123
vbi	-8124
▁LO	-8125
")`>	-8126
%74(	-8127
+-+-	-8128
+/"/	-8129
02%0	-8130
3%68	-8131
999/	-8132
="0,	-8133
Jygu	-8134
LOAD	-8135
Scro	-8136
VUIi	-8137
XNjc	-8138
dled	-8139
dler	-8140
stNo	-8141
}[['	-8142
}}).	-8143
▁/**	-8144
▁mas	-8145
&(1)&	-8146
(1)&&	-8147
3&#9\	-8148
30"><	-8149
60&#4	-8150
69"><	-8151
;'&#4	-8152
FkPWF	-8153
FoxJu	-8154
HNzIj	-8155
InRle	-8156
KCdpc	-8157
KScvK	-8158
LnJlc	-8159
NloaD	-8160
PageH	-8161
Popup	-8162
Propa	-8163
ScRiP	-8164
ScRip	-8165
Symbo	-8166
TUxId	-8167
TeReE	-8168
UgaHJ	-8169
Unary	-8170
VlKTt	-8171
VydCg	-8172
XBvbm	-8173
YXRja	-8174
[*/[]	-8175
[0],'	-8176
[][[]	-8177
\0029	-8178
_(1))	-8179
_.,:;	-8180
__']]	-8181
aScRi	-8182
acker	-8183
anceo	-8184
andal	-8185
ccess	-8186
cious	-8187
cpasg	-8188
ctive	-8189
curso	-8190
dETAI	-8191
dGlvb	-8192
dNode	-8193
eChjK	-8194
ecute	-8195
errer	-8196
famil	-8197
fflin	-8198
fileI	-8199
,40	-8200
,41	-8201
/40	-8202
=2)	-8203
ERW	-8204
IdH	-8205
YER	-8206
jcm	-8207
wdC	-8208
wdD	-8209
xAF	-8210
xId	-8211
▁40	-8212
▁RE	-8213
"","	-8214
")>\	-8215
#0#(	-8216
%65)	-8217
."),	-8218
0%65	-8219
2&#6	-8220
5%65	-8221
5&#3	-8222
5,11	-8223
62&#	-8224
8%65	-8225
9%65	-8226
;#40	-8227
="38	-8228
\";)	-8229
onLo	-8230
riod	-8231
seTe	-8232
ultV	-8233
ypeO	-8234
}<\/	-8235
%28%3	-8236
0007.	-8237
39;)&	-8238
4(%22	-8239
96"><	-8240
=%224	-8241
Brown	-8242
ENTER	-8243
guage	-8244
hbHNl	-8245
heLaz	-8246
hrome	-8247
ibili	-8248
ictim	-8249
ingBo	-8250
isibi	-8251
jdGlv	-8252
kePop	-8253
lbWVu	-8254
ldmFs	-8255
lineN	-8256
llTri	-8257
llowf	-8258
margu	-8259
maskC	-8260
matas	-8261
micro	-8262
mlwdC	-8263
nerDo	-8264
oMSki	-8265
oNloa	-8266
oPSIx	-8267
odHRw	-8268
overt	-8269
pdGxl	-8270
place	-8271
possi	-8272
pplet	-8273
query	-8274
quire	-8275
rJywg	-8276
refox	-8277
ripti	-8278
rokew	-8279
rowse	-8280
sIDAs	-8281
scrsc	-8282
secre	-8283
sendB	-8284
setDa	-8285
sgYWx	-8286
sgbox	-8287
story	-8288
sxXSl	-8289
tanda	-8290
terch	-8291
ubmit	-8292
upgra	-8293
vccpa	-8294
veHNz	-8295
vious	-8296
waiti	-8297
wgKTt	-8298
xMDAn	-8299
%08	-8300
0%0	-8301
0].	-8302
1])	-8303
2%0	-8304
3].	-8305
<]]	-8306
ERI	-8307
IDA	-8308
LIN	-8309
LIS	-8310
OBJ	-8311
]]>	-8312
how	-8313
lLm	-8314
![><	-8315
)">]	-8316
)[1]	-8317
*");	-8318
0)">	-8319
001/	-8320
1%29	-8321
1%74	-8322
1)">	-8323
1]%2	-8324
1]);	-8325
2)">	-8326
23))	-8327
3%72	-8328
4('\	-8329
8%29	-8330
83;'	-8331
<;![	-8332
="17	-8333
="45	-8334
IMAG	-8335
TTLI	-8336
\061	-8337
lowf	-8338
owsh	-8339
!--]]	-8340
%29}}	-8341
00106	-8342
0;&;#	-8343
1;&;#	-8344
54"><	-8345
8;&;#	-8346
BJECT	-8347
CrIpT	-8348
ROUND	-8349
SOUND	-8350
ullsc	-8351
zEwMC	-8352
zOnhs	-8353
{0065	-8354
{0074	-8355
{}[['	-8356
{}});	-8357
});{}	-8358
}."))	-8359
▁#000	-8360
▁&#13	-8361
▁&#14	-8362
▁//--	-8363
▁11.5	-8364
▁1='1	-8365
▁<?='	-8366
▁BACK	-8367
▁ONLO	-8368
▁SHOU	-8369
▁SYST	-8370
▁inje	-8371
▁nsRe	-8372
▁onFo	-8373
▁onLo	-8374
▁onwe	-8375
▁pref	-8376
▁stan	-8377
▁stro	-8378
▁work	-8379
!#$%&;	-8380
")>";'	-8381
";)';;	-8382
%22%27	-8383
%22)};	-8384
%26#99	-8385
%29[1]	-8386
%57%78	-8387
%61%64	-8388
%63%68	-8389
%63%75	-8390
%64%43	-8391
%65%45	-8392
%68%69	-8393
%70%70	-8394
%72%65	-8395
%72%74	-8396
%74%28	-8397
%74%72	-8398
%75%65	-8399
")`	-8400
(86	-8401
+''	-8402
,%(	-8403
1")	-8404
1;>	-8405
50,	-8406
93)	-8407
<%(	-8408
>")	-8409
ACK	-8410
CTR	-8411
ECT	-8412
ICK	-8413
OUL	-8414
OUN	-8415
cce	-8416
ceo	-8417
ciP	-8418
▁:[	-8419
")';	-8420
%00%	-8421
%20%	-8422
&#58	-8423
',+'	-8424
(+{}	-8425
)//]	-8426
00%"	-8427
00%;	-8428
4)//	-8429
7%20	-8430
7,10	-8431
8)//	-8432
8058	-8433
9%20	-8434
9)//	-8435
:'__	-8436
;);}	-8437
=%20	-8438
MjAs	-8439
acce	-8440
atCo	-8441
dCgp	-8442
gger	-8443
lice	-8444
tche	-8445
wgKT	-8446
▁{{(	-8447
!/**/	-8448
";)';	-8449
%20%2	-8450
));">	-8451
)/**/	-8452
)//',	-8453
)//</	-8454
00%00	-8455
28)//	-8456
39)//	-8457
58"><	-8458
58&#4	-8459
82,12	-8460
;%253	-8461
="139	-8462
=%22>	-8463
VALUE	-8464
eNode	-8465
finis	-8466
patch	-8467
rentN	-8468
rentT	-8469
rrent	-8470
userA	-8471
▁cont	-8472
&#039;	-8473
&#116;	-8474
&#3&#4	-8475
&#34&#	-8476
&#40;'	-8477
&#5&#6	-8478
&#99&#	-8479
');[].	-8480
',0,0,	-8481
',384,	-8482
';";)`	-8483
';);";	-8484
';;!--	-8485
("1"))	-8486
(";*//	-8487
(%22%6	-8488
(0,0,'	-8489
(1);//	-8490
(1)\29	-8491
(123))	-8492
(56117	-8493
)"/></	-8494
)();</	-8495
)();};	-8496
));'))	-8497
**/>/*	-8498
*//*";	-8499
0.0	-8500
4-%	-8501
4.0	-8502
66)	-8503
857	-8504
ByA	-8505
_,<	-8506
yCh	-8507
▁Ii	-8508
▁ON	-8509
▁vi	-8510
&#40	-8511
'&#4	-8512
+([]	-8513
.014	-8514
0&#4	-8515
0)//	-8516
1&#4	-8517
11.0	-8518
4-00	-8519
7&#4	-8520
8&#4	-8521
;{()	-8522
="36	-8523
Chan	-8524
Chkb	-8525
HRlc	-8526
UAcg	-8527
ageS	-8528
havi	-8529
llee	-8530
prin	-8531
ribu	-8532
stCh	-8533
swig	-8534
udCg	-8535
wgdH	-8536
▁Ope	-8537
▁per	-8538
#0#(0	-8539
&#40;	-8540
+(![]	-8541
:\007	-8542
PLAYE	-8543
\")>\	-8544
\061)	-8545
aught	-8546
endCh	-8547
gName	-8548
maskU	-8549
openB	-8550
umber	-8551
xmlHt	-8552
▁CONT	-8553
%22%29	-8554
(1)//"	-8555
)%2520	-8556
+/"/+/	-8557
-->;<;	-8558
.00000	-8559
/#0#(0	-8560
/));</	-8561
/)[1])	-8562
/*'/*`	-8563
///"><	-8564
0&#101	-8565
0&#115	-8566
0,116)	-8567
000002	-8568
000004	-8569
000005	-8570
000072	-8571
0028'\	-8572
0029">	-8573
0029';	-8574
0070&#	-8575
0;1)</	-8576
1%29%3	-8577
1&#114	-8578
1)')()	-8579
112"><	-8580
115;&#	-8581
117"><	-8582
118"><	-8583
122"><	-8584
127"><	-8585
128"><	-8586
132"><	-8587
136"><	-8588
138"><	-8589
141\15	-8590
145\16	-8591
1;&#11	-8592
2&#115	-8593
2&#116	-8594
2)//'>	-8595
20)}),	-8596
223/">	-8597
24">1<	-8598
27\005	-8599
%48	-8600
(/'	-8601
(/\	-8602
)"/	-8603
.*?	-8604
.0"	-8605
.64	-8606
/"/	-8607
09(	-8608
0;0	-8609
1"/	-8610
130	-8611
132	-8612
134	-8613
136	-8614
137	-8615
138	-8616
40;	-8617
69,	-8618
<"/	-8619
=$,	-8620
LCB	-8621
zNy	-8622
▁AL	-8623
')"/	-8624
(';<	-8625
();}	-8626
.0"?	-8627
110;	-8628
1339	-8629
4%26	-8630
6,10	-8631
64']	-8632
;#09	-8633
="16	-8634
>\";	-8635
Poli	-8636
\%26	-8637
ciPj	-8638
erHT	-8639
loba	-8640
nerD	-8641
simp	-8642
wner	-8643
▁CLA	-8644
▁MjA	-8645
▁[1]	-8646
▁ret	-8647
%26%2	-8648
%77%7	-8649
&;#09	-8650
']['\	-8651
);'))	-8652
/**/$	-8653
/**/>	-8654
00112	-8655
00118	-8656
13"><	-8657
://"/	-8658
;&#13	-8659
>>>><	-8660
CTYPE	-8661
XMLHt	-8662
arSmO	-8663
mFsKG	-8664
setTi	-8665
▁requ	-8666
+!![]+	-8667
+[])[!	-8668
28%252	-8669
2867/&	-8670
29%253	-8671
2;&#11	-8672
3)"></	-8673
33);">	-8674
4&#116	-8675
4-0080	-8676
40"></	-8677
41)></	-8678
4;&#11	-8679
4\145\	-8680
5&#6&#	-8681
58&#47	-8682
58;&;#	-8683
6%22);	-8684
63&#9\	-8685
6;&#40	-8686
6;&#58	-8687
7&#115	-8688
7)//">	-8689
7)//</	-8690
76"><?	-8691
82,126	-8692
89>;<;	-8693
9&#105	-8694
99,107	-8695
99,108	-8696
99;&;#	-8697
://%77	-8698
://010	-8699
%54	-8700
(28	-8701
)>"	-8702
)>\	-8703
)}}	-8704
.28	-8705
014	-8706
061	-8707
2)>	-8708
28'	-8709
28.	-8710
286	-8711
30\	-8712
3}\	-8713
509	-8714
61,	-8715
8)>	-8716
9}}	-8717
;28	-8718
CAy	-8719
\61	-8720
ciI	-8721
itw	-8722
kit	-8723
lTh	-8724
}\&	-8725
}}}	-8726
▁fe	-8727
(8)-	-8728
)>";	-8729
.075	-8730
/'/*	-8731
//14	-8732
09;&	-8733
28">	-8734
28';	-8735
29">	-8736
29';	-8737
29))	-8738
37)"	-8739
7"&&	-8740
ATAF	-8741
ENTI	-8742
MATA	-8743
Ript	-8744
XMLH	-8745
adyS	-8746
aope	-8747
fere	-8748
lsid	-8749
nsta	-8750
rols	-8751
stal	-8752
trou	-8753
}}}}	-8754
▁ope	-8755
);//&	-8756
00'><	-8757
1339&	-8758
41"><	-8759
52"><	-8760
;&#09	-8761
>(123	-8762
DATAS	-8763
KTtmd	-8764
evalA	-8765
opsta	-8766
0061}\	-8767
147/">	-8768
29";>;	-8769
6)//">	-8770
://111	-8771
;!--";	-8772
;&#115	-8773
;&#116	-8774
;&#118	-8775
;&#83<	-8776
;&&<&&	-8777
;&;#39	-8778
;&;#83	-8779
;&;#88	-8780
;&;#99	-8781
;'"></	-8782
;'&#41	-8783
;)";);	-8784
<!--]]	-8785
="//14	-8786
="26">	-8787
="9999	-8788
=$,_=1	-8789
=%2240	-8790
=&#100	-8791
=&{()}	-8792
=50');	-8793
==4%26	-8794
>">123	-8795
>';>";	-8796
>;';";	-8797
??????	-8798
Active	-8799
'>"	-8800
'>=	-8801
,20	-8802
139	-8803
20'	-8804
20,	-8805
339	-8806
39.	-8807
74"	-8808
748	-8809
774	-8810
7\3	-8811
820	-8812
9;)	-8813
:33	-8814
;)}	-8815
={}	-8816
TTL	-8817
__'	-8818
__,	-8819
eRe	-8820
{{}	-8821
{})	-8822
{}.	-8823
{}]	-8824
{}}	-8825
}{}	-8826
▁DY	-8827
()'>	-8828
()}}	-8829
//'>	-8830
0020	-8831
0030	-8832
0036	-8833
0038	-8834
1%72	-8835
1&;#	-8836
2&;#	-8837
20">	-8838
3&;#	-8839
4&;#	-8840
4\14	-8841
6&;#	-8842
7\00	-8843
9&;#	-8844
9,10	-8845
;#39	-8846
;1&#	-8847
="[[	-8848
BYWx	-8849
Read	-8850
Redi	-8851
SEen	-8852
['__	-8853
▁HTT	-8854
%72%6	-8855
%<!--	-8856
&#10<	-8857
');'>	-8858
');{}	-8859
0&#10	-8860
20"><	-8861
20%25	-8862
39&;#	-8863
5&#10	-8864
57"><	-8865
58;&#	-8866
7&#10	-8867
73"><	-8868
74"><	-8869
7\005	-8870
88&;#	-8871
9&#10	-8872
;)%22	-8873
DEpPg	-8874
MjAwM	-8875
aaaaa	-8876
▁6;&#	-8877
%70%65	-8878
28">1<	-8879
97&#10	-8880
="&#10	-8881
="0.45	-8882
Before	-8883
Blbigi	-8884
Blbign	-8885
CBmYWx	-8886
DEpJyk	-8887
DYNSRC	-8888
Dialog	-8889
EventL	-8890
GROUND	-8891
HRwUmV	-8892
Height	-8893
JodHRw	-8894
LASSID	-8895
LOWSRC	-8896
LcLick	-8897
MFrame	-8898
MouseD	-8899
$){	-8900
',0	-8901
)[!	-8902
)[+	-8903
)[1	-8904
121	-8905
124	-8906
125	-8907
127	-8908
129	-8909
2]+	-8910
3.6	-8911
93"	-8912
97)	-8913
97:	-8914
97;	-8915
ARA	-8916
Ref	-8917
\12	-8918
efa	-8919
esh	-8920
lKT	-8921
lwa	-8922
nMo	-8923
tMo	-8924
wLl	-8925
way	-8926
wgM	-8927
xAE	-8928
▁/=	-8929
▁CD	-8930
▁CL	-8931
▁CO	-8932
▁Mo	-8933
▁\/	-8934
▁\\	-8935
![]+	-8936
"<">	-8937
+[])	-8938
+[]]	-8939
/));	-8940
1')>	-8941
1)')	-8942
3\12	-8943
97&#	-8944
;#97	-8945
;<;/	-8946
BYTU	-8947
Cook	-8948
IFRA	-8949
Mode	-8950
STEM	-8951
[+[]	-8952
defa	-8953
etch	-8954
fari	-8955
heet	-8956
ound	-8957
owge	-8958
shch	-8959
▁Con	-8960
▁wid	-8961
!![]+	-8962
);<;/	-8963
00,11	-8964
00097	-8965
12"><	-8966
;#114	-8967
buteN	-8968
wLine	-8969
▁onMo	-8970
▁onsh	-8971
![]+[]	-8972
000061	-8973
97&#11	-8974
FRAMES	-8975
MouseE	-8976
MouseL	-8977
MouseW	-8978
ORMATA	-8979
Refere	-8980
SResol	-8981
Scroll	-8982
TeReEN	-8983
TheLaz	-8984
ToGgle	-8985
UJywgJ	-8986
UNvbXB	-8987
UdldHR	-8988
VGhpcy	-8989
VsxXSl	-8990
WFNTJy	-8991
[1]%29	-8992
]+[])[	-8993
]]>;<;	-8994
`1`))>	-8995
adysta	-8996
andard	-8997
andbox	-8998
arSmOb	-8999
.14	-9000
133	-9001
199	-9002
1>[	-9003
34\	-9004
39)	-9005
4\1	-9006
99,	-9007
999	-9008
\13	-9009
cal	-9010
ieH	-9011
kie	-9012
▁"/	-9013
▁ca	-9014
!--'	-9015
!--*	-9016
!--\	-9017
![]]	-9018
$)</	-9019
&#9\	-9020
&;#0	-9021
.*%3	-9022
0)</	-9023
0:#0	-9024
0\00	-9025
3)</	-9026
4)</	-9027
4\00	-9028
9)</	-9029
;%28	-9030
Line	-9031
])</	-9032
dyBY	-9033
fine	-9034
ineS	-9035
ined	-9036
lica	-9037
mYWx	-9038
orts	-9039
owMo	-9040
rtie	-9041
sxml	-9042
teMo	-9043
teNe	-9044
uche	-9045
ydCg	-9046
})</	-9047
!--";	-9048
!--&#	-9049
";>;]	-9050
(1)??	-9051
00099	-9052
00101	-9053
1"?><	-9054
40)//	-9055
5\007	-9056
9";>;	-9057
99;&#	-9058
;&#99	-9059
="113	-9060
NTENT	-9061
SwgdH	-9062
WxsKT	-9063
mport	-9064
usine	-9065
ventL	-9066
yIpOz	-9067
▁";>;	-9068
";;&;#	-9069
";>;';	-9070
"><!--	-9071
%22)</	-9072
%72%69	-9073
(1)//#	-9074
))";>;	-9075
2&#111	-9076
97,108	-9077
97;&;#	-9078
99&#11	-9079
behavi	-9080
bigpIH	-9081
busine	-9082
coding	-9083
criptT	-9084
cripts	-9085
dETAIL	-9086
dGVFdm	-9087
deTAiL	-9088
dimage	-9089
direct	-9090
efault	-9091
errerp	-9092
evalAs	-9093
faultV	-9094
fiddle	-9095
follow	-9096
gJyguK	-9097
gation	-9098
getURL	-9099
)%7	-9100
,("	-9101
2%7	-9102
23\	-9103
3%7	-9104
33\	-9105
39\	-9106
7%7	-9107
828	-9108
ANT	-9109
Bff	-9110
Bkb	-9111
FNT	-9112
Fdm	-9113
LmN	-9114
MLH	-9115
NTI	-9116
Wxu	-9117
\\,	-9118
asy	-9119
dld	-9120
hkb	-9121
srp	-9122
wsh	-9123
▁=_	-9124
▁bg	-9125
'%25	-9126
(),'	-9127
)%25	-9128
,%25	-9129
0%25	-9130
0050	-9131
0054	-9132
0056	-9133
0057	-9134
0059	-9135
6%25	-9136
7;">	-9137
8%25	-9138
9;">	-9139
=";0	-9140
=";<	-9141
Esha	-9142
\005	-9143
addE	-9144
ageH	-9145
lbig	-9146
prev	-9147
ymbo	-9148
▁???	-9149
')%25	-9150
/*'/*	-9151
00%25	-9152
2&#00	-9153
24">1	-9154
3\005	-9155
3\007	-9156
4&#00	-9157
9&#00	-9158
;&#41	-9159
="108	-9160
angeA	-9161
below	-9162
hange	-9163
ialog	-9164
rpoli	-9165
tails	-9166
wiaHR	-9167
▁valu	-9168
▁xmlH	-9169
&#0000	-9170
(1)%25	-9171
115"><	-9172
39&#00	-9173
5)"></	-9174
83&#00	-9175
;"&#00	-9176
="&#00	-9177
eldset	-9178
hState	-9179
hbGVyd	-9180
icroso	-9181
indows	-9182
itwork	-9183
jAiIHd	-9184
jMnKTt	-9185
javapg	-9186
lPjxzY	-9187
lassid	-9188
lative	-9189
lcnJvc	-9190
leName	-9191
lickMe	-9192
llowor	-9193
lowing	-9194
mFsKGF	-9195
mevent	-9196
nError	-9197
nMouse	-9198
nVlKTt	-9199
'][	-9200
']]	-9201
']}	-9202
("*	-9203
*%3	-9204
*/$	-9205
*/;	-9206
*/\	-9207
*/]	-9208
439	-9209
51\	-9210
;;>	-9211
AME	-9212
Aex	-9213
BAS	-9214
Dex	-9215
ETA	-9216
Fex	-9217
HIA	-9218
MET	-9219
Mic	-9220
TAF	-9221
TAI	-9222
TML	-9223
['_	-9224
]("	-9225
_']	-9226
`]>	-9227
``]	-9228
ars	-9229
cio	-9230
exe	-9231
ply	-9232
vcj	-9233
▁HT	-9234
']);	-9235
']="	-9236
);%7	-9237
/+/[	-9238
1'))	-9239
3\00	-9240
7.14	-9241
LEME	-9242
NSRC	-9243
ader	-9244
aram	-9245
bkit	-9246
ceEr	-9247
icti	-9248
idjs	-9249
kers	-9250
onic	-9251
rerp	-9252
▁'">	-9253
▁--!	-9254
▁imp	-9255
%72%7	-9256
(83))	-9257
0&#11	-9258
1&#11	-9259
1-+-+	-9260
2&#11	-9261
2;&;#	-9262
4">1<	-9263
4&#11	-9264
5&#11	-9265
56"><	-9266
6&#11	-9267
7&#11	-9268
84"><	-9269
9&#11	-9270
__('0	-9271
examp	-9272
inval	-9273
order	-9274
srcdo	-9275
ssion	-9276
▁&#11	-9277
▁'%22	-9278
▁:-(>	-9279
";";>;	-9280
bWVudE	-9281
networ	-9282
ointer	-9283
onical	-9284
onjour	-9285
operat	-9286
outube	-9287
pOinTe	-9288
patter	-9289
playth	-9290
postdo	-9291
proche	-9292
protot	-9293
quests	-9294
quires	-9295
rateNe	-9296
readyS	-9297
ribute	-9298
riptex	-9299
'__	-9300
(2)	-9301
0%6	-9302
13\	-9303
2%6	-9304
2\1	-9305
3%6	-9306
62\	-9307
8%3	-9308
9%3	-9309
;%3	-9310
=&;	-9311
>=&	-9312
Chj	-9313
Dfu	-9314
JaV	-9315
ODY	-9316
[%3	-9317
fuz	-9318
llI	-9319
llT	-9320
llb	-9321
nxx	-9322
opP	-9323
opS	-9324
opo	-9325
▁fu	-9326
%22%	-9327
%22)	-9328
%27)	-9329
');$	-9330
');<	-9331
');{	-9332
(88)	-9333
)[%3	-9334
,%22	-9335
/%22	-9336
/');	-9337
0');	-9338
0045	-9339
0048	-9340
1")>	-9341
1)</	-9342
2%22	-9343
2\00	-9344
3005	-9345
6%22	-9346
7%22	-9347
8%22	-9348
8%80	-9349
8.10	-9350
appl	-9351
ende	-9352
loop	-9353
onxx	-9354
opst	-9355
opup	-9356
proc	-9357
upMe	-9358
vbnN	-9359
}');	-9360
▁tit	-9361
%22%6	-9362
%74%3	-9363
');[]	-9364
2.014	-9365
6&#10	-9366
=1%22	-9367
KHRvc	-9368
Ready	-9369
dPath	-9370
dmeta	-9371
oGgle	-9372
ortan	-9373
pageh	-9374
useMo	-9375
world	-9376
▁back	-9377
▁dyns	-9378
▁onxx	-9379
&#116,	-9380
40,49,	-9381
='';</	-9382
IGhlaW	-9383
dowlab	-9384
seText	-9385
securi	-9386
showMo	-9387
showge	-9388
showsh	-9389
siteyo	-9390
solver	-9391
someva	-9392
spatch	-9393
sponse	-9394
ssible	-9395
ssinfo	-9396
summar	-9397
tMouse	-9398
tateCh	-9399
!/*	-9400
')[	-9401
')}	-9402
)/*	-9403
*/*	-9404
/*-	-9405
0')	-9406
1')	-9407
1\1	-9408
1]+	-9409
22\	-9410
27-	-9411
3')	-9412
488	-9413
74)	-9414
88)	-9415
:/*	-9416
:['	-9417
Coo	-9418
XNl	-9419
_/*	-9420
`/*	-9421
chE	-9422
ech	-9423
hch	-9424
rRe	-9425
tCo	-9426
▁Co	-9427
"/*/	-9428
">/*	-9429
')";	-9430
')%2	-9431
/*--	-9432
0,82	-9433
0//[	-9434
00%0	-9435
1//[	-9436
110,	-9437
91">	-9438
;"/*	-9439
>//[	-9440
LStr	-9441
chor	-9442
mech	-9443
ndef	-9444
onch	-9445
yStr	-9446
▁ech	-9447
%22--	-9448
&;#00	-9449
))');	-9450
))//[	-9451
);//[	-9452
3);">	-9453
6,101	-9454
69-56	-9455
88"><	-9456
harCo	-9457
mlwdD	-9458
toStr	-9459
▁onch	-9460
";>;]]	-9461
%27%28	-9462
%29%20	-9463
//["'`	-9464
125"><	-9465
61&#34	-9466
canpla	-9467
fileIn	-9468
teuser	-9469
timeup	-9470
tionch	-9471
trough	-9472
uccess	-9473
unding	-9474
ursite	-9475
usemap	-9476
valuat	-9477
vcmcvM	-9478
vector	-9479
volume	-9480
watche	-9481
withCt	-9482
xecute	-9483
zEwMCc	-9484
{}."))	-9485
}']('\	-9486
}[['__	-9487
}\";>;	-9488
▁'`"><	-9489
▁11.52	-9490
▁11.60	-9491
▁6.000	-9492
▁<!'/*	-9493
▁</%73	-9494
▁<;!--	-9495
▁conso	-9496
▁const	-9497
▁dataT	-9498
▁dataf	-9499
'='	-9500
'[]	-9501
()+	-9502
(),	-9503
()]	-9504
([]	-9505
({}	-9506
)()	-9507
+()	-9508
16)	-9509
1;"	-9510
1='	-9511
62"	-9512
:[]	-9513
;#0	-9514
;#3	-9515
;#5	-9516
;#8	-9517
;#9	-9518
='+	-9519
='0	-9520
='>	-9521
=']	-9522
=[]	-9523
[]+	-9524
[][	-9525
[]]	-9526
_='	-9527
`()	-9528
bWF	-9529
dua	-9530
hil	-9531
oci	-9532
vil	-9533
{()	-9534
};"	-9535
▁='	-9536
"'`>	-9537
&#88	-9538
()%2	-9539
(83)	-9540
))()	-9541
0073	-9542
0076	-9543
0079	-9544
;#00	-9545
;#83	-9546
;%25	-9547
='%2	-9548
='';	-9549
Obje	-9550
["'`	-9551
\007	-9552
blab	-9553
harC	-9554
ible	-9555
obje	-9556
rder	-9557
tail	-9558
}]</	-9559
▁101	-9560
▁108	-9561
▁`"'	-9562
▁lan	-9563
%74(/	-9564
(1);/	-9565
00088	-9566
88,83	-9567
;&#88	-9568
="104	-9569
="133	-9570
>]]>]	-9571
KTtld	-9572
KTwvc	-9573
PathE	-9574
corka	-9575
ldyBY	-9576
subst	-9577
%29></	-9578
');}</	-9579
(1))//	-9580
(83)))	-9581
121"><	-9582
;\0029	-9583
>]]></	-9584
absolu	-9585
marque	-9586
ulnera	-9587
▁explo	-9588
▁forma	-9589
▁inner	-9590
▁obser	-9591
▁onSta	-9592
▁onemp	-9593
▁onfil	-9594
▁onfin	-9595
▁onhel	-9596
▁onoff	-9597
▁onpla	-9598
▁onpro	-9599
?"	-9600
PC	-9601
Xa	-9602
cv	-9603
tD	-9604
wm	-9605
";*	-9606
',+	-9607
(25	-9608
/";	-9609
12\	-9610
3;"	-9611
5%7	-9612
9";	-9613
Ele	-9614
["'	-9615
`"'	-9616
cle	-9617
era	-9618
fic	-9619
gte	-9620
his	-9621
isT	-9622
leH	-9623
lef	-9624
lei	-9625
len	-9626
lte	-9627
mht	-9628
onP	-9629
onR	-9630
ona	-9631
oni	-9632
onm	-9633
onr	-9634
onu	-9635
ony	-9636
rle	-9637
roo	-9638
sea	-9639
son	-9640
teM	-9641
ten	-9642
tet	-9643
tle	-9644
zil	-9645
}";	-9646
▁fi	-9647
";;&	-9648
--";	-9649
-0*3	-9650
//";	-9651
0055	-9652
;"&#	-9653
>#00	-9654
apfo	-9655
chro	-9656
endi	-9657
fiel	-9658
firm	-9659
htbG	-9660
inje	-9661
lete	-9662
okup	-9663
rede	-9664
reje	-9665
rror	-9666
setT	-9667
tifi	-9668
vide	-9669
▁200	-9670
";;&#	-9671
%0)</	-9672
147/&	-9673
21"><	-9674
40"><	-9675
9\007	-9676
;"/*/	-9677
;#108	-9678
>//\\	-9679
foreu	-9680
itwor	-9681
tacke	-9682
utput	-9683
▁onfi	-9684
123');	-9685
41));}	-9686
ection	-9687
foresc	-9688
hesite	-9689
lickja	-9690
traffi	-9691
▁onres	-9692
▁onsea	-9693
▁onsto	-9694
▁onsus	-9695
▁ontog	-9696
▁poste	-9697
▁reque	-9698
▁xmlHt	-9699
"6	-9700
"9	-9701
#2	-9702
#7	-9703
&/	-9704
*'	-9705
,(	-9706
,/	-9707
,0	-9708
,3	-9709
-.	-9710
/`	-9711
6#	-9712
71	-9713
9>	-9714
=%	-9715
=.	-9716
Ay	-9717
Bf	-9718
Cd	-9719
Dc	-9720
Df	-9721
Dp	-9722
Ll	-9723
Ns	-9724
Ou	-9725
Po	-9726
Uu	-9727
Wo	-9728
Ym	-9729
[*	-9730
bH	-9731
bX	-9732
dk	-9733
ek	-9734
hS	-9735
hj	-9736
hk	-9737
jq	-9738
kp	-9739
pH	-9740
rP	-9741
rk	-9742
rv	-9743
tI	-9744
tL	-9745
uI	-9746
uV	-9747
vG	-9748
xK	-9749
yM	-9750
zf	-9751
--%	-9752
../	-9753
.00	-9754
4%3	-9755
;--	-9756
FRe	-9757
VNo	-9758
dex	-9759
lbW	-9760
lea	-9761
ndo	-9762
oid	-9763
▁5-	-9764
▁LE	-9765
▁ty	-9766
%29/	-9767
..."	-9768
146.	-9769
8,83	-9770
97&<	-9771
="27	-9772
dCgn	-9773
loca	-9774
ortS	-9775
rver	-9776
teCR	-9777
tena	-9778
worl	-9779
}}</	-9780
0,41)	-9781
7&#00	-9782
otype	-9783
overf	-9784
stron	-9785
telog	-9786
%27%22	-9787
.0"?><	-9788
PLAYED	-9789
ackgro	-9790
!![]+[]	-9791
";;&#10	-9792
";;';>;	-9793
%03"></	-9794
%22,%22	-9795
%27)%22	-9796
%27,%20	-9797
%65(%74	-9798
&#00;</	-9799
'#	-9800
(-	-9801
*&	-9802
4)	-9803
79	-9804
8'	-9805
;*	-9806
;]	-9807
<]	-9808
Ag	-9809
BU	-9810
Bc	-9811
Bm	-9812
Dz	-9813
Ew	-9814
Gx	-9815
IA	-9816
Lj	-9817
Oy	-9818
Oz	-9819
Rp	-9820
So	-9821
VN	-9822
XI	-9823
XP	-9824
bn	-9825
cS	-9826
eA	-9827
eS	-9828
gA	-9829
gP	-9830
hE	-9831
ip	-9832
kd	-9833
lY	-9834
oA	-9835
oD	-9836
rD	-9837
vM	-9838
xL	-9839
yA	-9840
yL	-9841
yw	-9842
zF	-9843
zw	-9844
}/	-9845
▁w	-9846
2],	-9847
9\0	-9848
:''	-9849
KME	-9850
TAS	-9851
VAL	-9852
]);	-9853
ete	-9854
fie	-9855
lec	-9856
lon	-9857
lse	-9858
rtC	-9859
sof	-9860
wai	-9861
1`)>	-9862
3;&#	-9863
59%5	-9864
;&#3	-9865
="--	-9866
[{}]	-9867
ease	-9868
inch	-9869
rite	-9870
useO	-9871
▁&#3	-9872
▁att	-9873
1])</	-9874
4&#10	-9875
;&#93	-9876
="106	-9877
=//14	-9878
]);//	-9879
rname	-9880
texta	-9881
tocol	-9882
";)>;\	-9883
;;&#10	-9884
XJuIHR	-9885
screen	-9886
▁requi	-9887
&#102&#	-9888
&#116&#	-9889
&#32;&#	-9890
&#32;><	-9891
&#34&#6	-9892
&#34;&#	-9893
&#8&#11	-9894
')/***/	-9895
');'>=(	-9896
'/));</	-9897
';)";)}	-9898
';);";)	-9899
"$	-9900
"_	-9901
%1	-9902
'_	-9903
0<	-9904
2<	-9905
35	-9906
9(	-9907
:.	-9908
Al	-9909
Ao	-9910
Dr	-9911
Fu	-9912
Ge	-9913
Jn	-9914
Jo	-9915
Lc	-9916
MD	-9917
Nu	-9918
PL	-9919
`)	-9920
`[	-9921
`}	-9922
eI	-9923
ki	-9924
mY	-9925
nK	-9926
nN	-9927
oP	-9928
oX	-9929
oh	-9930
wO	-9931
wS	-9932
xO	-9933
{(	-9934
}=	-9935
}[	-9936
104	-9937
10\	-9938
131	-9939
4(/	-9940
55\	-9941
Are	-9942
Blu	-9943
HNl	-9944
KTs	-9945
cnt	-9946
ler	-9947
meb	-9948
onp	-9949
rig	-9950
scR	-9951
sgB	-9952
tec	-9953
tes	-9954
yDo	-9955
yns	-9956
&#14	-9957
)}),	-9958
4%65	-9959
ERWA	-9960
NtYX	-9961
OnMo	-9962
aWNr	-9963
erty	-9964
ickB	-9965
useU	-9966
▁onl	-9967
!#$%%	-9968
(";";	-9969
);%22	-9970
223/&	-9971
8058/	-9972
95"><	-9973
99&;#	-9974
ByTag	-9975
fromC	-9976
iddle	-9977
valua	-9978
xMiwg	-9979
▁Gare	-9980
&;#09;	-9981
);//<;	-9982
="91">	-9983
ACAAPA	-9984
dstyle	-9985
itionc	-9986
▁dashe	-9987
'}{}*{-	-9988
("1"))>	-9989
(%22%64	-9990
(''+''.	-9991
(1)))//	-9992
(1)-%27	-9993
(1)/**/	-9994
(1)////	-9995
(1)`()]	-9996
(133)//	-9997
)'%22)[	-9998
)'/)[1]	-9999
!'	-10000
"[	-10001
"`	-10002
$,	-10003
'0	-10004
+!	-10005
,6	-10006
,[	-10007
-\	-10008
.5	-10009
.6	-10010
/$	-10011
0?	-10012
4+	-10013
7,	-10014
7/	-10015
9'	-10016
:#	-10017
?=	-10018
Ce	-10019
Gn	-10020
Hi	-10021
Sl	-10022
Vw	-10023
[8	-10024
aT	-10025
bA	-10026
lV	-10027
nT	-10028
oG	-10029
pz	-10030
tU	-10031
"0;	-10032
))'	-10033
9%7	-10034
=78	-10035
IHg	-10036
IRE	-10037
acr	-10038
geh	-10039
igi	-10040
leN	-10041
lyp	-10042
oMT	-10043
ree	-10044
tif	-10045
(1);	-10046
//15	-10047
//\\	-10048
1');	-10049
dCgg	-10050
dmFy	-10051
dset	-10052
onto	-10053
quer	-10054
useL	-10055
vect	-10056
volu	-10057
▁STY	-10058
▁res	-10059
">'><	-10060
">//[	-10061
("*//	-10062
(.*)'	-10063
20));	-10064
;&#91	-10065
="111	-10066
``]"<	-10067
artic	-10068
keyge	-10069
%74%63	-10070
)//#">	-10071
0029'\	-10072
="><">	-10073
deacti	-10074
erhtml	-10075
loaded	-10076
mation	-10077
talize	-10078
}{}*{-	-10079
}}).$=	-10080
))');//	-10081
));";>;	-10082
)/)[1])	-10083
);//<</	-10084
)[+!![]	-10085
*//*");	-10086
+!![]]+	-10087
,101,11	-10088
,105,11	-10089
,111,99	-10090
,69"></	-10091
,99,107	-10092
,:;?@[/	-10093
-->;<;/	-10094
--><!--	-10095
."),(""	-10096
/%22></	-10097
/%29[1]	-10098
/+/"/+/	-10099
+[	-10100
.'	-10101
2}	-10102
4(	-10103
7>	-10104
Ba	-10105
Bv	-10106
Hd	-10107
Hs	-10108
IF	-10109
Il	-10110
Iv	-10111
Kj	-10112
Nz	-10113
Ra	-10114
Rv	-10115
St	-10116
Ux	-10117
Vs	-10118
Vz	-10119
WU	-10120
Wd	-10121
Ww	-10122
XL	-10123
YT	-10124
[!	-10125
bP	-10126
dA	-10127
gN	-10128
gY	-10129
hu	-10130
jo	-10131
kj	-10132
kq	-10133
lI	-10134
lK	-10135
pI	-10136
sB	-10137
sD	-10138
tR	-10139
xI	-10140
xJ	-10141
yT	-10142
}#	-10143
}'	-10144
#99	-10145
'':	-10146
)%2	-10147
))<	-10148
0">	-10149
4//	-10150
9',	-10151
:=_	-10152
JyB	-10153
Ski	-10154
\14	-10155
ann	-10156
das	-10157
led	-10158
mOb	-10159
rmc	-10160
vbX	-10161
">12	-10162
%241	-10163
(\61	-10164
);"/	-10165
*/</	-10166
1"))	-10167
;&#5	-10168
="89	-10169
>;&#	-10170
CONT	-10171
RiPt	-10172
]+[]	-10173
erhe	-10174
ount	-10175
solu	-10176
tchE	-10177
tico	-10178
▁<;<	-10179
▁nav	-10180
%69%7	-10181
(150,	-10182
55"><	-10183
7";>;	-10184
98"><	-10185
="129	-10186
arget	-10187
gling	-10188
▁<%73	-10189
▁ondu	-10190
2%2529	-10191
moused	-10192
mplate	-10193
0%80%80	-10194
00%2529	-10195
0000040	-10196
0000041	-10197
0000058	-10198
0000083	-10199
!+	-10200
"(	-10201
&1	-10202
+<	-10203
-%	-10204
.4	-10205
/<	-10206
5(	-10207
8[	-10208
90	-10209
96	-10210
9{	-10211
9}	-10212
;-	-10213
?)	-10214
Dj	-10215
Ds	-10216
FL	-10217
Fh	-10218
IR	-10219
MB	-10220
NX	-10221
UE	-10222
Us	-10223
XT	-10224
_/	-10225
`'	-10226
cp	-10227
dj	-10228
eT	-10229
eX	-10230
gr	-10231
hd	-10232
nX	-10233
nq	-10234
pS	-10235
sR	-10236
wl	-10237
(''	-10238
103	-10239
20)	-10240
337	-10241
Don	-10242
PGJ	-10243
Wxs	-10244
aDo	-10245
bro	-10246
dim	-10247
dro	-10248
ptA	-10249
pte	-10250
pts	-10251
ssa	-10252
teV	-10253
tey	-10254
tin	-10255
uPS	-10256
urc	-10257
'"><	-10258
(1)<	-10259
4">1	-10260
DEFE	-10261
mall	-10262
pasg	-10263
rade	-10264
%22)[	-10265
1]%29	-10266
2\007	-10267
32"><	-10268
://11	-10269
="1"/	-10270
FrAMe	-10271
adyst	-10272
ecuri	-10273
keyup	-10274
llowS	-10275
tionn	-10276
▁only	-10277
%29%29	-10278
123"><	-10279
50')/*	-10280
57647/	-10281
Transf	-10282
deless	-10283
yEvent	-10284
']('\13	-10285
()%2520	-10286
0000088	-10287
0000097	-10288
0000099	-10289
0000101	-10290
0000105	-10291
0000106	-10292
0000108	-10293
0000112	-10294
0000115	-10295
0000116	-10296
0000118	-10297
0029';\	-10298
0045)%3	-10299
!"	-10300
!/	-10301
!=	-10302
"\	-10303
&(	-10304
./	-10305
/]	-10306
3}	-10307
8/	-10308
9.	-10309
:%	-10310
?\	-10311
AL	-10312
Aj	-10313
Bs	-10314
Cj	-10315
Ef	-10316
Oa	-10317
Si	-10318
Wh	-10319
Xt	-10320
[2	-10321
eO	-10322
gd	-10323
hy	-10324
lg	-10325
nE	-10326
nW	-10327
pf	-10328
sN	-10329
sT	-10330
tN	-10331
tP	-10332
ux	-10333
vt	-10334
wU	-10335
ya	-10336
yi	-10337
}`	-10338
)(1	-10339
/%2	-10340
/*"	-10341
//1	-10342
5&<	-10343
6&#	-10344
9;"	-10345
>"'	-10346
PRE	-10347
ROU	-10348
abi	-10349
api	-10350
arc	-10351
ent	-10352
hah	-10353
hro	-10354
leg	-10355
owe	-10356
ple	-10357
taT	-10358
tem	-10359
tta	-10360
xti	-10361
";";	-10362
"><!	-10363
(![]	-10364
(11)	-10365
00%2	-10366
0078	-10367
WSRC	-10368
harA	-10369
orke	-10370
tera	-10371
ulti	-10372
vbXB	-10373
vean	-10374
▁onr	-10375
00)">	-10376
33)//	-10377
53005	-10378
9/3=>	-10379
99,11	-10380
="119	-10381
hadow	-10382
ticol	-10383
wgdHJ	-10384
yJywg	-10385
▁char	-10386
▁heig	-10387
123%22	-10388
mousee	-10389
0074\00	-10390
018058/	-10391
039;)}\	-10392
06)//">	-10393
0;1&#41	-10394
1;&;#11	-10395
2&#3&#4	-10396
2)//#">	-10397
2.7.147	-10398
20));</	-10399
"5	-10400
+>	-10401
-<	-10402
3+	-10403
7-	-10404
8"	-10405
98	-10406
<&	-10407
Bk	-10408
DD	-10409
Ed	-10410
El	-10411
Ex	-10412
Ga	-10413
Mi	-10414
Nj	-10415
SI	-10416
SP	-10417
Sn	-10418
Wi	-10419
YW	-10420
jw	-10421
kU	-10422
kg	-10423
mx	-10424
nh	-10425
nj	-10426
ph	-10427
tE	-10428
we	-10429
xd	-10430
xv	-10431
yI	-10432
zi	-10433
})	-10434
▁J	-10435
"</	-10436
"="	-10437
">+	-10438
&#0	-10439
135	-10440
460	-10441
764	-10442
885	-10443
9%6	-10444
97,	-10445
;')	-10446
=1%	-10447
=`<	-10448
HRy	-10449
LjA	-10450
dGx	-10451
ele	-10452
eri	-10453
inv	-10454
keD	-10455
mov	-10456
mpo	-10457
onk	-10458
tog	-10459
uKC	-10460
vec	-10461
▁Bo	-10462
▁cm	-10463
#").	-10464
#000	-10465
*/[]	-10466
0068	-10467
1%64	-10468
2%25	-10469
MzNy	-10470
gesh	-10471
jcml	-10472
meva	-10473
(88)'	-10474
-->]]	-10475
29"><	-10476
;">]]	-10477
oeGhy	-10478
stall	-10479
terpr	-10480
▁onaf	-10481
▁onmo	-10482
![<!--	-10483
20,61,	-10484
rotate	-10485
valueO	-10486
▁&#039	-10487
23/";>;	-10488
25)"></	-10489
27\0058	-10490
2867/">	-10491
2;&;#11	-10492
2\0069\	-10493
3%63%72	-10494
39)//">	-10495
3982867	-10496
39;&#41	-10497
39;&#88	-10498
3\0063\	-10499
%%	-10500
'(	-10501
)-	-10502
*`	-10503
,4	-10504
,9	-10505
-=	-10506
.2	-10507
8)	-10508
9)	-10509
9+	-10510
;0	-10511
<'	-10512
<>	-10513
AP	-10514
CE	-10515
Cc	-10516
Dn	-10517
Dt	-10518
EL	-10519
Et	-10520
Ft	-10521
Fx	-10522
GE	-10523
GU	-10524
Gg	-10525
Jq	-10526
MA	-10527
Na	-10528
Nv	-10529
Rw	-10530
\'	-10531
]}	-10532
cd	-10533
dP	-10534
db	-10535
ep	-10536
ov	-10537
oz	-10538
pP	-10539
tW	-10540
tf	-10541
yS	-10542
{'	-10543
▁R	-10544
▁T	-10545
&&<	-10546
(48	-10547
00;	-10548
Nlo	-10549
Rvc	-10550
Scx	-10551
Src	-10552
URC	-10553
eid	-10554
erH	-10555
hor	-10556
inn	-10557
onF	-10558
rcS	-10559
rra	-10560
ush	-10561
veX	-10562
wge	-10563
▁>>	-10564
▁SR	-10565
▁SY	-10566
▁xx	-10567
="19	-10568
Jump	-10569
Reso	-10570
foot	-10571
meco	-10572
ncau	-10573
▁';<	-10574
5&#00	-10575
83&;#	-10576
>"'><	-10577
eshow	-10578
gable	-10579
preve	-10580
sitey	-10581
tycom	-10582
xssmo	-10583
online	-10584
3\0072\	-10585
40)//">	-10586
404%22;	-10587
4;&;#10	-10588
4;&;#11	-10589
5"><!--	-10590
530053\	-10591
59)"></	-10592
5\0072\	-10593
6.00014	-10594
60&#115	-10595
63)"></	-10596
66.102.	-10597
67/";>;	-10598
6;&;#40	-10599
"1	-10600
"8	-10601
'`	-10602
/6	-10603
/[	-10604
0.	-10605
2>	-10606
31	-10607
95	-10608
?'	-10609
@"	-10610
AY	-10611
Ee	-10612
Fe	-10613
IT	-10614
KM	-10615
Ob	-10616
SJ	-10617
Um	-10618
Vi	-10619
\%	-10620
_,	-10621
`/	-10622
eM	-10623
es	-10624
gT	-10625
gv	-10626
kB	-10627
nF	-10628
nn	-10629
om	-10630
pR	-10631
rH	-10632
uK	-10633
▁N	-10634
▁Y	-10635
">&	-10636
(55	-10637
-&#	-10638
.*'	-10639
0;&	-10640
122	-10641
AMe	-10642
ckM	-10643
ntS	-10644
onn	-10645
ruc	-10646
sho	-10647
tac	-10648
tbo	-10649
wMo	-10650
}].	-10651
%22<	-10652
'};"	-10653
(&;#	-10654
130\	-10655
5764	-10656
7;&#	-10657
="70	-10658
acon	-10659
bigp	-10660
ciIH	-10661
hoci	-10662
ired	-10663
noem	-10664
prop	-10665
stin	-10666
xsse	-10667
▁10.	-10668
%29%2	-10669
-8859	-10670
]]></	-10671
menta	-10672
passw	-10673
sgBox	-10674
strea	-10675
termo	-10676
(1)>*/	-10677
-8))>#	-10678
/*/'/*	-10679
29%257	-10680
9)"></	-10681
criptA	-10682
mogPSB	-10683
uareon	-10684
wMDAvc	-10685
%65%72%	-10686
6;&;#58	-10687
6\0061\	-10688
7.00000	-10689
7485777	-10690
781339&	-10691
82,126"	-10692
8;&#101	-10693
97&#109	-10694
97&#116	-10695
97)"></	-10696
99&#114	-10697
;&#11;>	-10698
;&#83;'	-10699
"0	-10700
*?	-10701
,"	-10702
-&	-10703
0#	-10704
3-	-10705
8]	-10706
9<	-10707
?6	-10708
CL	-10709
Dw	-10710
Ma	-10711
NL	-10712
TF	-10713
Ts	-10714
ai	-10715
cr	-10716
dW	-10717
eP	-10718
fl	-10719
gc	-10720
jL	-10721
jM	-10722
ko	-10723
lw	-10724
mu	-10725
nl	-10726
sJ	-10727
sV	-10728
sa	-10729
sm	-10730
tV	-10731
uF	-10732
uf	-10733
uo	-10734
xc	-10735
yc	-10736
}{	-10737
';>	-10738
(72	-10739
)',	-10740
*";	-10741
-</	-10742
705	-10743
;#1	-10744
<><	-10745
Hid	-10746
TLE	-10747
aHR	-10748
odH	-10749
onE	-10750
onv	-10751
pst	-10752
pto	-10753
urs	-10754
ute	-10755
▁AN	-10756
',0,	-10757
--</	-10758
9%25	-10759
='/*	-10760
geon	-10761
ller	-10762
stri	-10763
subm	-10764
xmlH	-10765
▁%25	-10766
*//*&	-10767
+[]]]	-10768
,:;?@	-10769
;#118	-10770
=&{()	-10771
=1)?'	-10772
][0].	-10773
riptA	-10774
subdo	-10775
tiont	-10776
%70%74	-10777
116;&#	-10778
20%253	-10779
29))%7	-10780
itione	-10781
});$("	-10782
▁getSe	-10783
&#62&#8	-10784
3\0053\	-10785
;&#93;"	-10786
;&#97;&	-10787
;&&<&&/	-10788
;&;#105	-10789
;&;#108	-10790
;&;#112	-10791
;&;#115	-10792
;&;#116	-10793
;&;#118	-10794
;');}</	-10795
;/*';">	-10796
="0.075	-10797
="0.373	-10798
="1.0"?	-10799
"=	-10800
**	-10801
,2	-10802
,:	-10803
.&	-10804
.7	-10805
0)	-10806
2-	-10807
5%	-10808
9"	-10809
;%	-10810
<%	-10811
>=	-10812
AM	-10813
Ar	-10814
BL	-10815
EX	-10816
IP	-10817
Ip	-10818
LS	-10819
La	-10820
OB	-10821
Rj	-10822
SR	-10823
Sa	-10824
XO	-10825
Yo	-10826
aS	-10827
ag	-10828
eH	-10829
ee	-10830
mh	-10831
nu	-10832
nw	-10833
ny	-10834
og	-10835
pl	-10836
rq	-10837
tg	-10838
tl	-10839
ud	-10840
za	-10841
&(1	-10842
*')	-10843
3))	-10844
;#4	-10845
OAD	-10846
PUT	-10847
WVz	-10848
\")	-10849
cim	-10850
fac	-10851
han	-10852
onU	-10853
pti	-10854
rty	-10855
wgd	-10856
▁Al	-10857
▁ma	-10858
▁su	-10859
000"	-10860
;#58	-10861
="\6	-10862
VRle	-10863
cook	-10864
dCgx	-10865
fake	-10866
meve	-10867
roup	-10868
side	-10869
zdCg	-10870
▁oni	-10871
';}</	-10872
0\007	-10873
33349	-10874
62"><	-10875
66)%3	-10876
="4">	-10877
etter	-10878
▁''='	-10879
▁java	-10880
▁meth	-10881
▁onha	-10882
)//></	-10883
.*%253	-10884
0072}\	-10885
tifier	-10886
&#115&#	-10887
){_/**/	-10888
0028.10	-10889
="17"><	-10890
="62"><	-10891
="64"><	-10892
="66"><	-10893
="67"><	-10894
="78"><	-10895
="82"><	-10896
=%22404	-10897
=&;{()}	-10898
>//\\,<	-10899
"-	-10900
&{	-10901
'%	-10902
-]	-10903
2/	-10904
38	-10905
3]	-10906
=+	-10907
Ae	-10908
Fw	-10909
Nl	-10910
Nw	-10911
PR	-10912
SC	-10913
UN	-10914
Vx	-10915
aD	-10916
aH	-10917
bi	-10918
ei	-10919
gg	-10920
gp	-10921
hc	-10922
lA	-10923
lL	-10924
nr	-10925
oI	-10926
oc	-10927
oi	-10928
ts	-10929
yf	-10930
yu	-10931
{_	-10932
}%	-10933
▁P	-10934
(57	-10935
.*/	-10936
//6	-10937
1%6	-10938
61}	-10939
;]]	-10940
>((	-10941
><"	-10942
CTY	-10943
Cgp	-10944
DDC	-10945
InR	-10946
anp	-10947
heL	-10948
lep	-10949
mte	-10950
otc	-10951
pen	-10952
ptu	-10953
riP	-10954
rpa	-10955
tri	-10956
%65(	-10957
,<'>	-10958
1%25	-10959
99&#	-10960
="/*	-10961
Nter	-10962
Prop	-10963
ineG	-10964
nsRe	-10965
pply	-10966
romC	-10967
skey	-10968
xdWV	-10969
(&#39	-10970
0;0;1	-10971
15)</	-10972
2%252	-10973
40;&#	-10974
8&#00	-10975
9>;<;	-10976
;&#40	-10977
ATTLI	-10978
`1`)>	-10979
compo	-10980
lobal	-10981
zFdKS	-10982
126"><	-10983
131"><	-10984
;&;#40	-10985
><!--*	-10986
htmlfi	-10987
tcount	-10988
0000114	-10989
>;<;!--	-10990
><!--*{	-10991
><>>>><	-10992
AcgByAG	-10993
ActiveX	-10994
BYTUxId	-10995
Clickja	-10996
Contain	-10997
DATASRC	-10998
Default	-10999
,!	-11000
-`	-11001
0+	-11002
4,	-11003
68	-11004
8}	-11005
AN	-11006
Cl	-11007
Gh	-11008
Gw	-11009
Jv	-11010
NC	-11011
OD	-11012
Pr	-11013
UJ	-11014
Ud	-11015
Wz	-11016
[+	-11017
dK	-11018
eG	-11019
eb	-11020
ey	-11021
fc	-11022
hb	-11023
ir	-11024
nI	-11025
ob	-11026
sk	-11027
wr	-11028
yd	-11029
yn	-11030
zL	-11031
}"	-11032
▁V	-11033
',3	-11034
(%2	-11035
)')	-11036
);\	-11037
0;}	-11038
27)	-11039
7;&	-11040
804	-11041
;1)	-11042
ScR	-11043
aon	-11044
ecu	-11045
got	-11046
hap	-11047
mlf	-11048
onL	-11049
osc	-11050
rtS	-11051
toG	-11052
▁49	-11053
▁="	-11054
▁HR	-11055
▁el	-11056
▁na	-11057
▁te	-11058
/%27	-11059
3');	-11060
30))	-11061
65)"	-11062
DovL	-11063
Meth	-11064
WANT	-11065
acke	-11066
bmit	-11067
disc	-11068
ocus	-11069
scro	-11070
{}[$	-11071
}%29	-11072
!![]]	-11073
!--</	-11074
">123	-11075
00014	-11076
2\164	-11077
;&;<;	-11078
="124	-11079
DATAF	-11080
cessK	-11081
showe	-11082
&#106;	-11083
ctiveX	-11084
dropbo	-11085
modifi	-11086
ontime	-11087
wigger	-11088
Display	-11089
EwMCcga	-11090
HRoPSIx	-11091
HRwUmVx	-11092
Install	-11093
LCAxLCA	-11094
LCAyMjA	-11095
MouseMo	-11096
Propaga	-11097
SEenTer	-11098
ScriptA	-11099
"%	-11100
,{	-11101
-!	-11102
-)	-11103
1}	-11104
49	-11105
:3	-11106
AS	-11107
Ca	-11108
EN	-11109
FO	-11110
Jp	-11111
RO	-11112
SB	-11113
SO	-11114
Vp	-11115
[%	-11116
aw	-11117
bd	-11118
eN	-11119
eq	-11120
gn	-11121
jP	-11122
ms	-11123
sf	-11124
tY	-11125
tb	-11126
tc	-11127
vu	-11128
wu	-11129
xz	-11130
&11	-11131
(62	-11132
--]	-11133
--`	-11134
//*	-11135
1%7	-11136
Cex	-11137
abl	-11138
alo	-11139
ata	-11140
geH	-11141
inc	-11142
noe	-11143
onT	-11144
ono	-11145
ont	-11146
pOz	-11147
smo	-11148
{}@	-11149
▁da	-11150
▁va	-11151
!--]	-11152
.102	-11153
0047	-11154
;">]	-11155
;#88	-11156
anon	-11157
gest	-11158
onst	-11159
▁&;#	-11160
▁eva	-11161
";;';	-11162
%29;}	-11163
('\13	-11164
/2000	-11165
0"></	-11166
27)</	-11167
74,&#	-11168
Ghpcy	-11169
Param	-11170
VudCg	-11171
\";>;	-11172
compa	-11173
foreU	-11174
okies	-11175
rdown	-11176
refer	-11177
rotot	-11178
tersc	-11179
xtmen	-11180
▁onbo	-11181
//";>;	-11182
0\123\	-11183
="0,0,	-11184
ABlAHI	-11185
focuso	-11186
stalle	-11187
▁'(.*?	-11188
▁//**/	-11189
▁onsub	-11190
ScriptT	-11191
ScxMDAn	-11192
Sibling	-11193
Success	-11194
TagName	-11195
TheLazy	-11196
Trigger	-11197
Trusted	-11198
UmVxdWV	-11199
!-	-11200
#&	-11201
#5	-11202
%"	-11203
*[	-11204
.,	-11205
/@	-11206
:=	-11207
AR	-11208
EV	-11209
GO	-11210
Ho	-11211
KG	-11212
KV	-11213
OA	-11214
RW	-11215
Tt	-11216
Tw	-11217
WN	-11218
WS	-11219
],	-11220
]-	-11221
_'	-11222
_)	-11223
aU	-11224
ak	-11225
ao	-11226
bj	-11227
ej	-11228
fK	-11229
gs	-11230
hg	-11231
iv	-11232
kF	-11233
lT	-11234
mg	-11235
nm	-11236
oK	-11237
rr	-11238
ug	-11239
yC	-11240
yl	-11241
&;&	-11242
);[	-11243
/*'	-11244
/*)	-11245
/**	-11246
0)}	-11247
1.0	-11248
80%	-11249
9>;	-11250
Aon	-11251
Fsc	-11252
Iix	-11253
Ond	-11254
bWU	-11255
fol	-11256
gec	-11257
gon	-11258
isp	-11259
mVu	-11260
nst	-11261
odi	-11262
onf	-11263
tel	-11264
ump	-11265
ylo	-11266
▁@[	-11267
67/&	-11268
:'[]	-11269
://%	-11270
="31	-11271
UIRE	-11272
_.__	-11273
gaGV	-11274
imag	-11275
onfo	-11276
rset	-11277
"'`><	-11278
09;&#	-11279
20,61	-11280
92"><	-11281
="101	-11282
ciPjx	-11283
ronym	-11284
slide	-11285
000006	-11286
19,114	-11287
97&#00	-11288
;&#09;	-11289
CharCo	-11290
ttrans	-11291
▁oncon	-11292
99;&#11	-11293
XObject	-11294
\");}</	-11295
\0028'\	-11296
aScRiPt	-11297
aScript	-11298
accessK	-11299
#/	-11300
#4	-11301
#9	-11302
%<	-11303
&"	-11304
'1	-11305
(>	-11306
-[	-11307
.3	-11308
0>	-11309
3=	-11310
42	-11311
4]	-11312
5;	-11313
7=	-11314
92	-11315
:2	-11316
:{	-11317
AV	-11318
CO	-11319
Ej	-11320
GI	-11321
RI	-11322
SL	-11323
Sw	-11324
Vl	-11325
aX	-11326
av	-11327
ay	-11328
gl	-11329
pd	-11330
sS	-11331
tx	-11332
wf	-11333
wn	-11334
xu	-11335
yD	-11336
yp	-11337
zc	-11338
![<	-11339
0%7	-11340
11.	-11341
32\	-11342
DOM	-11343
ica	-11344
ita	-11345
lsc	-11346
mlH	-11347
ndC	-11348
oPS	-11349
onh	-11350
pas	-11351
rat	-11352
rei	-11353
yle	-11354
▁de	-11355
▁do	-11356
%65%	-11357
))">	-11358
...<	-11359
0075	-11360
13;<	-11361
3&#4	-11362
7)%3	-11363
8&;#	-11364
ACAA	-11365
EMBE	-11366
VudE	-11367
\02.	-11368
blin	-11369
butt	-11370
dbox	-11371
iste	-11372
onpa	-11373
prot	-11374
rtan	-11375
sten	-11376
//');	-11377
58)</	-11378
6&#00	-11379
>&#97	-11380
denti	-11381
efore	-11382
%20%27	-11383
;&#105	-11384
isplay	-11385
jdGlvb	-11386
oframe	-11387
▁ontra	-11388
="77"><	-11389
Chandle	-11390
anguage	-11391
atcount	-11392
bLcLick	-11393
backgro	-11394
balThis	-11395
blockqu	-11396
bscript	-11397
canplay	-11398
carouse	-11399
"4	-11400
#6	-11401
+.	-11402
+9	-11403
1"	-11404
3<	-11405
6"	-11406
Fn	-11407
Iu	-11408
Iw	-11409
RT	-11410
SY	-11411
Sm	-11412
Sy	-11413
Vh	-11414
XM	-11415
YS	-11416
ah	-11417
cn	-11418
eD	-11419
eE	-11420
lN	-11421
ln	-11422
lv	-11423
nG	-11424
nv	-11425
rS	-11426
rl	-11427
uz	-11428
vm	-11429
xh	-11430
xl	-11431
▁k	-11432
!']	-11433
";<	-11434
$=1	-11435
(36	-11436
35\	-11437
4('	-11438
420	-11439
6.0	-11440
8%6	-11441
Aja	-11442
Eve	-11443
Ide	-11444
IpT	-11445
]%2	-11446
dyB	-11447
gdH	-11448
gso	-11449
mpe	-11450
nit	-11451
non	-11452
oAD	-11453
onc	-11454
rej	-11455
rhe	-11456
rqu	-11457
sfo	-11458
teB	-11459
tou	-11460
vcm	-11461
(%27	-11462
))"/	-11463
0002	-11464
1,2]	-11465
4%69	-11466
LCBm	-11467
ScvK	-11468
dHMn	-11469
dowl	-11470
hape	-11471
mous	-11472
mozf	-11473
onon	-11474
plet	-11475
ruct	-11476
stat	-11477
stro	-11478
}+[]	-11479
▁---	-11480
%09((	-11481
41)</	-11482
50"><	-11483
="107	-11484
_/**/	-11485
harAt	-11486
▁make	-11487
(84)//	-11488
69"></	-11489
tacker	-11490
0\0074\	-11491
64']('\	-11492
IjAiIHd	-11493
Message	-11494
chstart	-11495
ciPjxzY	-11496
compone	-11497
compose	-11498
constru	-11499
"+	-11500
#3	-11501
%&	-11502
%;	-11503
''	-11504
)*	-11505
*-	-11506
-#	-11507
0(	-11508
0/	-11509
1%	-11510
46	-11511
4;	-11512
5"	-11513
9:	-11514
;(	-11515
EB	-11516
EE	-11517
JE	-11518
LH	-11519
NP	-11520
OM	-11521
PO	-11522
Ug	-11523
Xx	-11524
]+	-11525
]{	-11526
`1	-11527
dN	-11528
eu	-11529
mC	-11530
ni	-11531
nx	-11532
oL	-11533
si	-11534
tu	-11535
wT	-11536
wb	-11537
zE	-11538
%24	-11539
'';	-11540
(69	-11541
/[]	-11542
3</	-11543
7),	-11544
82,	-11545
<'>	-11546
=[2	-11547
Bex	-11548
For	-11549
_(1	-11550
aut	-11551
gst	-11552
mec	-11553
mta	-11554
ntL	-11555
ray	-11556
tan	-11557
tmd	-11558
usS	-11559
▁ja	-11560
9></	-11561
;#14	-11562
="59	-11563
indo	-11564
llin	-11565
onti	-11566
shed	-11567
tran	-11568
uite	-11569
▁cla	-11570
▁fal	-11571
000"/	-11572
4;&;#	-11573
;&;#4	-11574
=&#00	-11575
`1`))	-11576
basef	-11577
onlin	-11578
rompt	-11579
sourc	-11580
tateC	-11581
▁&#09	-11582
▁drag	-11583
/**/$(	-11584
andled	-11585
keData	-11586
%28/%27	-11587
&#11;&#	-11588
)};//">	-11589
598"></	-11590
basefon	-11591
createB	-11592
createN	-11593
createV	-11594
ctionch	-11595
dXJuIHR	-11596
dataTra	-11597
datasrc	-11598
deddata	-11599
""	-11600
#(	-11601
'?	-11602
)%	-11603
26	-11604
3&	-11605
5,	-11606
7:	-11607
9-	-11608
;2	-11609
==	-11610
@[	-11611
AT	-11612
Bj	-11613
EA	-11614
Es	-11615
MC	-11616
OW	-11617
PX	-11618
`-	-11619
aC	-11620
eC	-11621
eV	-11622
eh	-11623
fd	-11624
gM	-11625
iF	-11626
kC	-11627
lH	-11628
sy	-11629
tC	-11630
wo	-11631
xm	-11632
▁W	-11633
"",	-11634
"&#	-11635
#(0	-11636
';=	-11637
105	-11638
8))	-11639
92"	-11640
;&&	-11641
;)`	-11642
><\	-11643
Exx	-11644
TAi	-11645
TUy	-11646
`>;	-11647
ado	-11648
aul	-11649
hat	-11650
inp	-11651
lee	-11652
mew	-11653
ndb	-11654
onB	-11655
onj	-11656
own	-11657
pac	-11658
rPS	-11659
rin	-11660
rve	-11661
tco	-11662
usc	-11663
ygu	-11664
zaW	-11665
▁""	-11666
";&#	-11667
&#49	-11668
&#60	-11669
'+''	-11670
)<;/	-11671
-%27	-11672
1,11	-11673
="15	-11674
]"><	-11675
blan	-11676
dGlv	-11677
derB	-11678
gene	-11679
lena	-11680
sgBo	-11681
'+''.	-11682
00039	-11683
1\007	-11684
3"><?	-11685
="420	-11686
PageS	-11687
(1)"&#	-11688
.0.4+,	-11689
3.6.28	-11690
7\0029	-11691
;&#11;	-11692
;&;#58	-11693
defineG	-11694
defineP	-11695
defineS	-11696
echange	-11697
ecurity	-11698
focusin	-11699
"7	-11700
(!	-11701
)<	-11702
*"	-11703
0=	-11704
<-	-11705
BV	-11706
EC	-11707
Ev	-11708
FE	-11709
Gl	-11710
Ii	-11711
Nr	-11712
[$	-11713
]<	-11714
cD	-11715
cs	-11716
dX	-11717
eL	-11718
hC	-11719
jp	-11720
mH	-11721
mt	-11722
nP	-11723
ps	-11724
rT	-11725
rf	-11726
rn	-11727
▁*	-11728
▁u	-11729
">]	-11730
%00	-11731
(23	-11732
/>?	-11733
120	-11734
3">	-11735
8;1	-11736
;()	-11737
Cja	-11738
ESS	-11739
Fra	-11740
HTT	-11741
[]/	-11742
]";	-11743
][\	-11744
coL	-11745
deT	-11746
nts	-11747
oty	-11748
rot	-11749
teC	-11750
tip	-11751
}),	-11752
(1)?	-11753
-->;	-11754
0003	-11755
09((	-11756
="]]	-11757
=`<`	-11758
APAB	-11759
cols	-11760
gsou	-11761
imgu	-11762
lize	-11763
nNum	-11764
rans	-11765
rope	-11766
telo	-11767
xtme	-11768
zwvc	-11769
}\">	-11770
▁<--	-11771
";);}	-11772
)}<;/	-11773
0&#00	-11774
97;&#	-11775
="400	-11776
>+-+-	-11777
MouSE	-11778
Njcml	-11779
dress	-11780
idein	-11781
rentW	-11782
wapfo	-11783
;!--&#	-11784
HttpRe	-11785
activa	-11786
nFoxJu	-11787
pageon	-11788
tuslin	-11789
uPSIxL	-11790
LString	-11791
framese	-11792
glecode	-11793
handled	-11794
ibility	-11795
ickBrow	-11796
iderich	-11797
iggerRe	-11798
imation	-11799
'=	-11800
-+	-11801
/3	-11802
3'	-11803
5}	-11804
7'	-11805
AC	-11806
AI	-11807
DI	-11808
He	-11809
Lz	-11810
MG	-11811
Mj	-11812
Sp	-11813
YN	-11814
YP	-11815
\,	-11816
_(	-11817
aV	-11818
cx	-11819
eB	-11820
gB	-11821
hm	-11822
iP	-11823
lP	-11824
oa	-11825
tA	-11826
tS	-11827
xs	-11828
yz	-11829
zN	-11830
zy	-11831
▁9	-11832
▁M	-11833
▁j	-11834
100	-11835
4%6	-11836
5)}	-11837
=''	-11838
><>	-11839
?='	-11840
@"/	-11841
Cim	-11842
Dne	-11843
bml	-11844
car	-11845
hre	-11846
htm	-11847
jAw	-11848
lob	-11849
loc	-11850
mbe	-11851
onb	-11852
pon	-11853
rpo	-11854
seT	-11855
xMi	-11856
▁at	-11857
▁se	-11858
">&<	-11859
(111	-11860
);[]	-11861
0049	-11862
2)</	-11863
2;><	-11864
3)//	-11865
LICK	-11866
bign	-11867
ckbo	-11868
endC	-11869
fied	-11870
ldmF	-11871
mmar	-11872
mple	-11873
pOyA	-11874
para	-11875
rein	-11876
▁<;!	-11877
▁mar	-11878
▁sty	-11879
%22)}	-11880
)'/)[	-11881
nding	-11882
rigin	-11883
tente	-11884
▁onen	-11885
WxsKTs	-11886
contex	-11887
importS	-11888
indefin	-11889
inopera	-11890
invalid	-11891
istener	-11892
itEvent	-11893
itMouse	-11894
itionst	-11895
iveansw	-11896
kecolor	-11897
keytime	-11898
lection	-11899
"}	-11900
#8	-11901
'[	-11902
/'	-11903
2!	-11904
2,	-11905
3"	-11906
3%	-11907
3;	-11908
4>	-11909
56	-11910
8(	-11911
Av	-11912
Ax	-11913
ED	-11914
Ea	-11915
FN	-11916
TP	-11917
YL	-11918
\1	-11919
]%	-11920
`(	-11921
bb	-11922
bs	-11923
cC	-11924
ef	-11925
fn	-11926
kM	-11927
ku	-11928
lp	-11929
pu	-11930
qK	-11931
rB	-11932
tT	-11933
vA	-11934
vn	-11935
ws	-11936
yt	-11937
zM	-11938
{0	-11939
▁h	-11940
);>	-11941
)>;	-11942
//3	-11943
1//	-11944
PLA	-11945
Xar	-11946
_('	-11947
det	-11948
hei	-11949
igc	-11950
kew	-11951
nta	-11952
omp	-11953
pta	-11954
';)}	-11955
9,41	-11956
://"	-11957
="14	-11958
="61	-11959
Fsty	-11960
IMGS	-11961
enta	-11962
idth	-11963
rese	-11964
reve	-11965
rien	-11966
ssin	-11967
";>;<	-11968
';!--	-11969
(1)"/	-11970
10"><	-11971
="120	-11972
['\14	-11973
inope	-11974
keyti	-11975
ressi	-11976
%68%65	-11977
(2)//'	-11978
;&#039	-11979
HNzbWU	-11980
discar	-11981
figcap	-11982
foreac	-11983
latest	-11984
opover	-11985
80439..	-11986
;&;#101	-11987
licious	-11988
lineNum	-11989
makePop	-11990
mecomma	-11991
mlframe	-11992
mozfull	-11993
nNumber	-11994
nObject	-11995
navigat	-11996
nchange	-11997
ncoding	-11998
ndefine	-11999
"&	-12000
*)	-12001
/0	-12002
0{	-12003
44	-12004
GC	-12005
PG	-12006
Ro	-12007
UR	-12008
YE	-12009
[>	-12010
\>	-12011
hM	-12012
hl	-12013
sO	-12014
tO	-12015
vK	-12016
yk	-12017
zO	-12018
%%3	-12019
'="	-12020
/</	-12021
126	-12022
1="	-12023
6%2	-12024
7%6	-12025
</%	-12026
</>	-12027
="%	-12028
=")	-12029
=">	-12030
="?	-12031
=+4	-12032
DIS	-12033
Ymo	-12034
\29	-12035
]</	-12036
`</	-12037
aXB	-12038
hec	-12039
htb	-12040
ier	-12041
lid	-12042
mak	-12043
nsr	-12044
ntD	-12045
peO	-12046
rms	-12047
rti	-12048
rts	-12049
teE	-12050
teu	-12051
tte	-12052
utt	-12053
vio	-12054
▁<-	-12055
!");	-12056
';&#	-12057
(12)	-12058
2></	-12059
8859	-12060
99;&	-12061
;)";	-12062
]></	-12063
dows	-12064
erro	-12065
igat	-12066
mpon	-12067
mpti	-12068
rcdo	-12069
rity	-12070
tart	-12071
xecu	-12072
{}).	-12073
▁sec	-12074
()%25	-12075
)//'>	-12076
40&;#	-12077
85777	-12078
97&;#	-12079
;#115	-12080
ideri	-12081
nexti	-12082
▁onra	-12083
(1)//]	-12084
+"")</	-12085
99&#00	-12086
erhere	-12087
peatCo	-12088
(%74%72	-12089
nerHTML	-12090
nerhtml	-12091
network	-12092
nhandle	-12093
nterval	-12094
oMTMzNy	-12095
objectB	-12096
ocation	-12097
oeGhyLn	-12098
oneNode	-12099
"3	-12100
"]	-12101
Ai	-12102
Cr	-12103
EJ	-12104
gK	-12105
iz	-12106
nf	-12107
ox	-12108
rA	-12109
zp	-12110
")-	-12111
"/*	-12112
(11	-12113
(13	-12114
(16	-12115
(17	-12116
(38	-12117
)).	-12118
49,	-12119
87%	-12120
;(1	-12121
=`>	-12122
Cgv	-12123
Een	-12124
MES	-12125
NTE	-12126
Oin	-12127
UJy	-12128
](1	-12129
][0	-12130
dNo	-12131
dan	-12132
dst	-12133
est	-12134
foc	-12135
hst	-12136
idd	-12137
iew	-12138
ist	-12139
mVh	-12140
ntB	-12141
rst	-12142
rva	-12143
stC	-12144
stM	-12145
std	-12146
sti	-12147
sts	-12148
toX	-12149
upg	-12150
usp	-12151
yJy	-12152
yst	-12153
▁sa	-12154
&(1)	-12155
(1)%	-12156
(1)/	-12157
+[]+	-12158
;(1)	-12159
=%27	-12160
NAME	-12161
UgaH	-12162
_(1)	-12163
mess	-12164
modi	-12165
resc	-12166
rous	-12167
trun	-12168
▁onL	-12169
▁onR	-12170
▁onc	-12171
▁ond	-12172
▁onf	-12173
▁onk	-12174
▁onx	-12175
0;%26	-12176
6)"><	-12177
8)></	-12178
Cjava	-12179
atest	-12180
dataT	-12181
sskey	-12182
taTra	-12183
taURL	-12184
5&#116	-12185
;&;#41	-12186
oalert	-12187
yframe	-12188
0028';\	-12189
mousemo	-12190
ontentU	-12191
opState	-12192
opstate	-12193
oscript	-12194
ouscode	-12195
pWzFdKS	-12196
parentN	-12197
parentW	-12198
passwor	-12199
Sr	-12200
dB	-12201
nM	-12202
{!	-12203
--*	-12204
-00	-12205
0,8	-12206
3\1	-12207
5.0	-12208
805	-12209
=25	-12210
ByT	-12211
NTJ	-12212
]('	-12213
abb	-12214
abe	-12215
abo	-12216
ara	-12217
ati	-12218
bra	-12219
cti	-12220
dra	-12221
ein	-12222
gab	-12223
iab	-12224
jsf	-12225
los	-12226
mFt	-12227
ora	-12228
oti	-12229
pan	-12230
rab	-12231
rac	-12232
rad	-12233
ran	-12234
rid	-12235
sef	-12236
tiv	-12237
yti	-12238
▁ti	-12239
))>;	-12240
0046	-12241
4%28	-12242
4)+{	-12243
4,10	-12244
7%28	-12245
;&#1	-12246
="33	-12247
abin	-12248
bigi	-12249
fter	-12250
getP	-12251
ngth	-12252
rati	-12253
usew	-12254
verT	-12255
▁onB	-12256
▁onF	-12257
▁onM	-12258
▁onS	-12259
▁onU	-12260
▁ona	-12261
▁onm	-12262
▁onq	-12263
▁ont	-12264
▁onv	-12265
▁slo	-12266
▁str	-12267
(1)")	-12268
(1)"]	-12269
)[+[]	-12270
00114	-12271
29%25	-12272
6\006	-12273
87"><	-12274
://%7	-12275
="114	-12276
ckbox	-12277
cture	-12278
▁onab	-12279
▁onsu	-12280
▁onti	-12281
102"><	-12282
7"&&>&	-12283
MouseU	-12284
jected	-12285
outlin	-12286
sendBe	-12287
▁ontou	-12288
dWVzdCg	-12289
playing	-12290
pressio	-12291
propert	-12292
reinput	-12293
rgument	-12294
rminput	-12295
rolling	-12296
rowsers	-12297
rtarget	-12298
sendBea	-12299
"#	-12300
7]	-12301
En	-12302
SV	-12303
VG	-12304
')\	-12305
(19	-12306
.0,	-12307
11;	-12308
128	-12309
2")	-12310
59-	-12311
62;	-12312
83,	-12313
89"	-12314
Fst	-12315
TIv	-12316
Win	-12317
ceE	-12318
dia	-12319
dig	-12320
din	-12321
dis	-12322
dit	-12323
dme	-12324
eNo	-12325
edi	-12326
eon	-12327
erc	-12328
idi	-12329
ina	-12330
inf	-12331
inj	-12332
ink	-12333
ino	-12334
kin	-12335
met	-12336
meu	-12337
min	-12338
ndi	-12339
nds	-12340
nti	-12341
ole	-12342
per	-12343
qua	-12344
rht	-12345
rok	-12346
ske	-12347
sme	-12348
udi	-12349
ume	-12350
vig	-12351
win	-12352
wup	-12353
yin	-12354
▁[<	-12355
▁di	-12356
'">{	-12357
'>">	-12358
(0)}	-12359
39;)	-12360
cont	-12361
inst	-12362
inte	-12363
lege	-12364
lein	-12365
leme	-12366
netw	-12367
onre	-12368
radi	-12369
rame	-12370
rcse	-12371
sNXN	-12372
tedi	-12373
▁onP	-12374
▁onb	-12375
▁onh	-12376
")));	-12377
00"><	-12378
00116	-12379
60"><	-12380
JnLzI	-12381
stest	-12382
tionc	-12383
tione	-12384
tionr	-12385
▁Safa	-12386
&#2&#3	-12387
ibling	-12388
ofocus	-12389
tionst	-12390
toGGle	-12391
mousele	-12392
mponent	-12393
setTime	-12394
stChild	-12395
stalled	-12396
stanceo	-12397
swigger	-12398
sxvccpa	-12399
)]	-12400
Aw	-12401
KS	-12402
RM	-12403
Uo	-12404
VT	-12405
cj	-12406
#><	-12407
(20	-12408
*%2	-12409
/#0	-12410
/*`	-12411
1;&	-12412
7><	-12413
9><	-12414
=1/	-12415
><<	-12416
?><	-12417
Vyd	-12418
Whe	-12419
]="	-12420
are	-12421
chM	-12422
ckB	-12423
cre	-12424
cri	-12425
des	-12426
ida	-12427
idj	-12428
idt	-12429
idv	-12430
inT	-12431
ire	-12432
jLm	-12433
kme	-12434
kup	-12435
meC	-12436
mem	-12437
meo	-12438
mer	-12439
mev	-12440
mme	-12441
nsi	-12442
onS	-12443
ore	-12444
raf	-12445
rel	-12446
ren	-12447
req	-12448
rer	-12449
reu	-12450
rre	-12451
rro	-12452
toD	-12453
tua	-12454
vid	-12455
▁3.	-12456
%72%	-12457
,117	-12458
,83,	-12459
67)"	-12460
</><	-12461
="99	-12462
Inte	-12463
dire	-12464
grou	-12465
itey	-12466
mali	-12467
stop	-12468
tech	-12469
ways	-12470
▁114	-12471
)"?><	-12472
29)</	-12473
="0.7	-12474
ditab	-12475
igcap	-12476
ivean	-12477
sound	-12478
tabin	-12479
▁onme	-12480
▁repe	-12481
')"></	-12482
000000	-12483
137"><	-12484
6%2520	-12485
chmove	-12486
▁onRes	-12487
&#47&#4	-12488
;(1)></	-12489
="90"><	-12490
WFNTJyk	-12491
idaudio	-12492
idstyle	-12493
mpsOver	-12494
taTrans	-12495
targetE	-12496
teEvent	-12497
termove	-12498
tetrans	-12499
Ci	-12500
GS	-12501
ew	-12502
nO	-12503
ye	-12504
}+	-12505
()'	-12506
//%	-12507
='/	-12508
>;<	-12509
Asc	-12510
Chu	-12511
Cre	-12512
Cri	-12513
EFE	-12514
Ima	-12515
KCd	-12516
New	-12517
Rig	-12518
VUI	-12519
afo	-12520
ari	-12521
aus	-12522
cma	-12523
cou	-12524
dbo	-12525
efo	-12526
flo	-12527
irc	-12528
isi	-12529
itE	-12530
lac	-12531
mag	-12532
mal	-12533
man	-12534
mma	-12535
ofo	-12536
oma	-12537
ptg	-12538
rdo	-12539
rib	-12540
ric	-12541
rie	-12542
rik	-12543
rit	-12544
rma	-12545
rus	-12546
tst	-12547
usl	-12548
uso	-12549
utp	-12550
utu	-12551
yco	-12552
ypt	-12553
{}*	-12554
▁\'	-12555
▁us	-12556
(101	-12557
0041	-12558
5%72	-12559
53%6	-12560
=200	-12561
RpdG	-12562
dima	-12563
dsty	-12564
gbox	-12565
getS	-12566
nsfo	-12567
ptle	-12568
refo	-12569
riab	-12570
stre	-12571
teus	-12572
ting	-12573
uste	-12574
{007	-12575
▁fra	-12576
(!![]	-12577
-0*3+	-12578
0028&	-12579
10;&#	-12580
;&#58	-12581
simpa	-12582
usema	-12583
▁onde	-12584
▁onfo	-12585
'>">">	-12586
88&#00	-12587
8;&#10	-12588
forelo	-12589
riptle	-12590
';)";);	-12591
lements	-12592
timsite	-12593
uVGhpcy	-12594
unction	-12595
uration	-12596
userAge	-12597
valuate	-12598
vbigpIH	-12599
9=	-12600
Br	-12601
HM	-12602
Hg	-12603
LG	-12604
WB	-12605
YO	-12606
])	-12607
bm	-12608
gx	-12609
ks	-12610
np	-12611
sK	-12612
zb	-12613
#&#	-12614
10.	-12615
1=$	-12616
4%7	-12617
='#	-12618
AsI	-12619
Fja	-12620
TYL	-12621
[])	-12622
]](	-12623
abs	-12624
blo	-12625
csc	-12626
cte	-12627
deb	-12628
esc	-12629
ime	-12630
isc	-12631
jsc	-12632
lde	-12633
nde	-12634
onw	-12635
orC	-12636
rde	-12637
rsc	-12638
sch	-12639
sco	-12640
taU	-12641
toS	-12642
tpR	-12643
wsc	-12644
▁Da	-12645
&#13	-12646
'%22	-12647
="1"	-12648
@&#3	-12649
Lncz	-12650
conf	-12651
cons	-12652
ente	-12653
idde	-12654
rage	-12655
rute	-12656
used	-12657
vies	-12658
ying	-12659
▁116	-12660
(1)/*	-12661
(1111	-12662
({}[$	-12663
*')">	-12664
19,11	-12665
8"></	-12666
=4%26	-12667
Incep	-12668
drage	-12669
drago	-12670
idden	-12671
jKXty	-12672
javap	-12673
ragle	-12674
ragst	-12675
ripta	-12676
ripts	-12677
withC	-12678
▁</%7	-12679
▁onke	-12680
%74%65	-12681
&#11&#	-12682
/+/[*/	-12683
0;1&#4	-12684
dragle	-12685
dragst	-12686
uscode	-12687
Ascript	-12688
angling	-12689
escript	-12690
mtarget	-12691
scripta	-12692
scripto	-12693
vbmVudH	-12694
vcmcvMT	-12695
veHNzbW	-12696
vectors	-12697
version	-12698
waiting	-12699
#"	-12700
+;	-12701
TM	-12702
km	-12703
}*	-12704
#00	-12705
';!	-12706
(14	-12707
--"	-12708
00&	-12709
00'	-12710
00)	-12711
001	-12712
008	-12713
1.4	-12714
12-	-12715
2')	-12716
300	-12717
480	-12718
500	-12719
7))	-12720
800	-12721
Ava	-12722
Eva	-12723
ISP	-12724
Ran	-12725
\00	-12726
anc	-12727
ani	-12728
any	-12729
ava	-12730
bac	-12731
ean	-12732
gbo	-12733
lan	-12734
les	-12735
nva	-12736
san	-12737
vaS	-12738
vaf	-12739
}%2	-12740
▁ge	-12741
%></	-12742
'\00	-12743
*%25	-12744
-></	-12745
><//	-12746
><<<	-12747
BACK	-12748
HNjc	-12749
JAVA	-12750
anva	-12751
bGVy	-12752
gent	-12753
inva	-12754
ject	-12755
masc	-12756
outu	-12757
pref	-12758
reco	-12759
ropa	-12760
tiva	-12761
useu	-12762
wMDA	-12763
wing	-12764
)";>;	-12765
00105	-12766
="110	-12767
="></	-12768
lickM	-12769
ointe	-12770
ostMe	-12771
otion	-12772
reque	-12773
terra	-12774
where	-12775
}";>;	-12776
▁onco	-12777
%64%69	-12778
="4">0	-12779
angeAt	-12780
conten	-12781
hstart	-12782
javafu	-12783
lickme	-12784
nterva	-12785
&#49;')	-12786
5&#6&#7	-12787
=50');}	-12788
ditable	-12789
vulnera	-12790
wupdate	-12791
xMiwgMz	-12792
xecuted	-12793
yIHhoci	-12794
yString	-12795
ychange	-12796
zdmciIH	-12797
{000000	-12798
{}+[])[	-12799
$$	-12800
,8	-12801
/=	-12802
Fy	-12803
KX	-12804
eo	-12805
iA	-12806
kK	-12807
pM	-12808
sr	-12809
}<	-12810
)";	-12811
2\2	-12812
7';	-12813
9">	-12814
Bro	-12815
Dro	-12816
KSc	-12817
STY	-12818
Ter	-12819
aro	-12820
cdo	-12821
cga	-12822
cod	-12823
cro	-12824
cto	-12825
emo	-12826
fro	-12827
naH	-12828
oca	-12829
oco	-12830
olu	-12831
ong	-12832
pea	-12833
roc	-12834
rog	-12835
rol	-12836
ros	-12837
rou	-12838
rov	-12839
rue	-12840
slo	-12841
tYX	-12842
tad	-12843
taf	-12844
tag	-12845
tal	-12846
tar	-12847
xta	-12848
{00	-12849
}})	-12850
▁co	-12851
0043	-12852
7&;#	-12853
="97	-12854
adst	-12855
cuso	-12856
foru	-12857
lain	-12858
leco	-12859
less	-12860
mata	-12861
onta	-12862
oter	-12863
rota	-12864
rout	-12865
stru	-12866
tain	-12867
tare	-12868
teru	-12869
usco	-12870
▁XML	-12871
▁ima	-12872
(1);}	-12873
+;}</	-12874
11"><	-12875
OverT	-12876
ertie	-12877
getOw	-12878
lowor	-12879
rgetE	-12880
▁onlo	-12881
39;&#4	-12882
tanima	-12883
tionru	-12884
(.*%253	-12885
0000039	-12886
146.000	-12887
workson	-12888
▁'';!--	-12889
▁''=']]	-12890
▁5-0*3+	-12891
▁<!'/*"	-12892
▁Cookie	-12893
▁DATAFO	-12894
▁Gareth	-12895
▁Window	-12896
▁access	-12897
▁allowf	-12898
▁conten	-12899
#>	-12900
(.	-12901
;!	-12902
ES	-12903
eR	-12904
oS	-12905
xX	-12906
"),	-12907
';<	-12908
)}/	-12909
,97	-12910
0//	-12911
102	-12912
10;	-12913
1=1	-12914
83)	-12915
;},	-12916
=1)	-12917
=1,	-12918
Blo	-12919
CRi	-12920
EAD	-12921
Elo	-12922
Hht	-12923
IjA	-12924
Nte	-12925
Pre	-12926
_=1	-12927
ake	-12928
clo	-12929
cml	-12930
ctu	-12931
eke	-12932
elo	-12933
geS	-12934
llo	-12935
lns	-12936
loi	-12937
loo	-12938
moc	-12939
mog	-12940
nlo	-12941
nsR	-12942
nsf	-12943
orl	-12944
quo	-12945
rke	-12946
rmo	-12947
yge	-12948
yth	-12949
▁6-	-12950
▁Ho	-12951
▁en	-12952
▁ht	-12953
▁ke	-12954
&#83	-12955
);};	-12956
0&;#	-12957
0042	-12958
4.4.	-12959
88&#	-12960
=";&	-12961
HRwO	-12962
TeRe	-12963
asef	-12964
ckja	-12965
colo	-12966
keDa	-12967
keco	-12968
mode	-12969
relo	-12970
stan	-12971
trac	-12972
traf	-12973
ttra	-12974
useW	-12975
valA	-12976
▁tru	-12977
28">1	-12978
2\006	-12979
83;&#	-12980
BUTTO	-12981
loade	-12982
sinde	-12983
▁onEr	-12984
#00000	-12985
2)"></	-12986
6&#115	-12987
MouseO	-12988
sindex	-12989
▁Conte	-12990
▁navig	-12991
gonpage	-12992
tabinde	-12993
▁contex	-12994
▁contro	-12995
▁datafo	-12996
▁handle	-12997
▁isTrus	-12998
▁maskUn	-12999
$)	-13000
36	-13001
Jl	-13002
ea	-13003
nb	-13004
rJ	-13005
)><	-13006
+</	-13007
9&#	-13008
>%2	-13009
Dja	-13010
Dty	-13011
Eja	-13012
Rja	-13013
bmF	-13014
dou	-13015
geA	-13016
ges	-13017
gge	-13018
jaC	-13019
jac	-13020
keP	-13021
nch	-13022
pfo	-13023
ssD	-13024
tic	-13025
▁'.	-13026
%203	-13027
'}</	-13028
27)'	-13029
6.10	-13030
64,%	-13031
8577	-13032
Lick	-13033
RAME	-13034
arti	-13035
ause	-13036
fars	-13037
keyd	-13038
keyp	-13039
keyu	-13040
lver	-13041
ofra	-13042
orde	-13043
ouse	-13044
read	-13045
scre	-13046
useD	-13047
useE	-13048
useM	-13049
usee	-13050
useo	-13051
yfra	-13052
%22%2	-13053
%74%6	-13054
23"><	-13055
72"><	-13056
=";>;	-13057
='%27	-13058
Ajava	-13059
Bjava	-13060
Djava	-13061
Ejava	-13062
Fjava	-13063
Mozil	-13064
begin	-13065
crypt	-13066
dropb	-13067
gerRe	-13068
indef	-13069
javaS	-13070
javaf	-13071
marke	-13072
ments	-13073
rough	-13074
rouse	-13075
teuse	-13076
usele	-13077
usemo	-13078
(1)");	-13079
+(!![]	-13080
;&#112	-13081
bjectB	-13082
jaCgvY	-13083
lframe	-13084
mouseo	-13085
mouseu	-13086
mousew	-13087
transi	-13088
/**/$($	-13089
terdown	-13090
transfo	-13091
▁onacti	-13092
▁onboun	-13093
▁onfull	-13094
▁onlypo	-13095
▁onpaon	-13096
▁onprog	-13097
▁onscro	-13098
▁onseek	-13099
(+	-13100
8;	-13101
HO	-13102
KD	-13103
Ry	-13104
TL	-13105
wv	-13106
yJ	-13107
"/+	-13108
&#9	-13109
(%7	-13110
)")	-13111
))(	-13112
,2]	-13113
-><	-13114
.07	-13115
//>	-13116
1&#	-13117
63;	-13118
7&#	-13119
7\2	-13120
:%2	-13121
>;\	-13122
>`>	-13123
Igb	-13124
Ove	-13125
Use	-13126
ass	-13127
beg	-13128
bse	-13129
ckb	-13130
coo	-13131
cse	-13132
cve	-13133
hmo	-13134
lve	-13135
mpl	-13136
oss	-13137
rse	-13138
rso	-13139
sed	-13140
sel	-13141
sem	-13142
sen	-13143
ssK	-13144
sse	-13145
ssf	-13146
ssw	-13147
vAs	-13148
veH	-13149
ven	-13150
wse	-13151
ych	-13152
--&#	-13153
00&#	-13154
4]><	-13155
befo	-13156
belo	-13157
ineP	-13158
mand	-13159
mate	-13160
onlo	-13161
rove	-13162
scri	-13163
ssme	-13164
ssmo	-13165
terc	-13166
vert	-13167
!--><	-13168
11;&#	-13169
;//--	-13170
OURCE	-13171
PSIxL	-13172
TMzNy	-13173
UJywg	-13174
bling	-13175
cking	-13176
Events	-13177
foreco	-13178
riable	-13179
sition	-13180
sstest	-13181
&#114&#	-13182
7"><!--	-13183
uchmove	-13184
▁ontouc	-13185
▁onwebk	-13186
▁patter	-13187
▁popove	-13188
▁string	-13189
![]+[])[	-13190
"'`-->]]	-13191
"/*--></	-13192
";";>;<;	-13193
";);//<;	-13194
";)>;\";	-13195
";;&#10;	-13196
";;&;#10	-13197
%2520%25	-13198
%28%29;}	-13199
4'	-13200
>[	-13201
Ki	-13202
OC	-13203
iY	-13204
jd	-13205
lb	-13206
▁L	-13207
#11	-13208
&#2	-13209
(%6	-13210
/))	-13211
4&#	-13212
4']	-13213
400	-13214
5&#	-13215
7";	-13216
8&#	-13217
End	-13218
Fww	-13219
Reg	-13220
Wdo	-13221
\&#	-13222
acc	-13223
act	-13224
dea	-13225
dod	-13226
mes	-13227
ndB	-13228
ntE	-13229
ntN	-13230
ntU	-13231
ntW	-13232
onM	-13233
wer	-13234
▁(_	-13235
)();	-13236
0%74	-13237
0067	-13238
10;&	-13239
11&#	-13240
3)">	-13241
4%72	-13242
;&#6	-13243
="83	-13244
deac	-13245
faul	-13246
iIGh	-13247
lend	-13248
ndin	-13249
nesc	-13250
nput	-13251
reac	-13252
ropH	-13253
secu	-13254
stdo	-13255
tent	-13256
▁ast	-13257
▁aut	-13258
▁onu	-13259
▁ref	-13260
/***/	-13261
97,10	-13262
;&#39	-13263
;1)</	-13264
SEenT	-13265
\"></	-13266
bGlua	-13267
keydo	-13268
sette	-13269
▁getS	-13270
▁onac	-13271
▁prom	-13272
();%22	-13273
,83,83	-13274
00%29{	-13275
1&#116	-13276
74)"><	-13277
jAiIHg	-13278
leport	-13279
margue	-13280
values	-13281
}');//	-13282
idvideo	-13283
itionru	-13284
oframes	-13285
prevent	-13286
}.")));	-13287
%31%29%3	-13288
%57%78%6	-13289
%61%64%2	-13290
%65%72%4	-13291
%74%63%6	-13292
%74%65%4	-13293
%76%22);	-13294
&#000004	-13295
&#000005	-13296
&#106;&#	-13297
&#10\000	-13298
&#111&#4	-13299
+)	-13300
0*	-13301
Op	-13302
[1	-13303
mb	-13304
//&	-13305
//'	-13306
//-	-13307
//0	-13308
//;	-13309
//<	-13310
//\	-13311
//]	-13312
00,	-13313
5\1	-13314
>;]	-13315
Bvb	-13316
Cli	-13317
Exp	-13318
MEN	-13319
SRe	-13320
TTO	-13321
TYP	-13322
bod	-13323
bsc	-13324
cty	-13325
dHR	-13326
dse	-13327
fee	-13328
hee	-13329
her	-13330
hes	-13331
ili	-13332
lis	-13333
lit	-13334
liz	-13335
mic	-13336
pli	-13337
wia	-13338
▁sl	-13339
▁xd	-13340
▁xh	-13341
▁xl	-13342
▁xm	-13343
▁xp	-13344
▁xs	-13345
%224	-13346
('&#	-13347
////	-13348
//</	-13349
0053	-13350
28'\	-13351
3%22	-13352
6)//	-13353
<///	-13354
Chil	-13355
brow	-13356
hema	-13357
lter	-13358
rcle	-13359
rcnt	-13360
ssig	-13361
vali	-13362
//></	-13363
1&#10	-13364
1'))>	-13365
66"><	-13366
EBVTT	-13367
YWxlc	-13368
datas	-13369
forec	-13370
forei	-13371
forep	-13372
foret	-13373
mecom	-13374
msite	-13375
ostdo	-13376
watch	-13377
▁onan	-13378
(1)');	-13379
forede	-13380
minput	-13381
▁onbeg	-13382
▁onori	-13383
Fhandle	-13384
ceError	-13385
framebo	-13386
▁6;&#97	-13387
▁follow	-13388
▁onbefo	-13389
%2528%25	-13390
&#115&#3	-13391
&#116&#3	-13392
&#116&#4	-13393
&#34&#10	-13394
&#46&#10	-13395
&#46&#11	-13396
&#47&#10	-13397
&#62&#60	-13398
&#99&#61	-13399
#<	-13400
,*	-13401
-(	-13402
-_	-13403
<6	-13404
@&	-13405
Fc	-13406
cH	-13407
cz	-13408
eW	-13409
uS	-13410
"">	-13411
">"	-13412
">'	-13413
">/	-13414
">[	-13415
">{	-13416
$%%	-13417
'//	-13418
-)>	-13419
15.	-13420
4">	-13421
5">	-13422
8">	-13423
:18	-13424
:="	-13425
<">	-13426
Ead	-13427
Fht	-13428
IMA	-13429
Oad	-13430
Onc	-13431
SER	-13432
SSI	-13433
apo	-13434
apt	-13435
ckq	-13436
ead	-13437
fre	-13438
hed	-13439
hpc	-13440
lla	-13441
nar	-13442
oad	-13443
oht	-13444
pup	-13445
rge	-13446
rna	-13447
sus	-13448
upM	-13449
upd	-13450
xht	-13451
">//	-13452
'));	-13453
)/)[	-13454
,83)	-13455
//">	-13456
//--	-13457
2&#8	-13458
="53	-13459
="94	-13460
><">	-13461
ENTE	-13462
PLAY	-13463
docu	-13464
dyns	-13465
getE	-13466
getO	-13467
getR	-13468
getU	-13469
lVGV	-13470
meup	-13471
nake	-13472
ssid	-13473
ulne	-13474
utop	-13475
xlin	-13476
1\006	-13477
;1&#4	-13478
Reque	-13479
ation	-13480
dataf	-13481
formc	-13482
riptT	-13483
usted	-13484
▁onhe	-13485
);"></	-13486
7/";>;	-13487
lclick	-13488
tionna	-13489
▁autop	-13490
▁srcdo	-13491
(%22%63	-13492
ildNode	-13493
')%22></	-13494
(1)')()}	-13495
(1)//');	-13496
(1);">]]	-13497
(120,61,	-13498
(150,41)	-13499
9[	-13500
Bp	-13501
Su	-13502
iL	-13503
kP	-13504
lO	-13505
mm	-13506
nJ	-13507
tM	-13508
tw	-13509
zd	-13510
";&	-13511
%59	-13512
(18	-13513
(70	-13514
);%	-13515
);'	-13516
);+	-13517
);<	-13518
);{	-13519
);}	-13520
//"	-13521
0</	-13522
2);	-13523
2;&	-13524
3);	-13525
3;&	-13526
9;&	-13527
;&;	-13528
Csc	-13529
Kin	-13530
`);	-13531
ail	-13532
ict	-13533
ond	-13534
onq	-13535
plo	-13536
sca	-13537
tha	-13538
ust	-13539
whe	-13540
yel	-13541
▁1)	-13542
▁12	-13543
▁1=	-13544
▁si	-13545
▁so	-13546
▁sv	-13547
0044	-13548
0066	-13549
2000	-13550
4%22	-13551
4//[	-13552
</%7	-13553
Ente	-13554
IHsg	-13555
OULD	-13556
UNvb	-13557
ckin	-13558
ckup	-13559
doma	-13560
eChj	-13561
eque	-13562
heck	-13563
lect	-13564
rock	-13565
▁'"`	-13566
▁1="	-13567
▁san	-13568
"%%20	-13569
(1));	-13570
(1337	-13571
0,0,'	-13572
canva	-13573
cusin	-13574
inite	-13575
{}+[]	-13576
▁acti	-13577
▁oner	-13578
10"></	-13579
105"><	-13580
135"><	-13581
4;&#10	-13582
:1,0:'	-13583
datafo	-13584
▁maskU	-13585
▁works	-13586
&#112&#	-13587
&#41;&#	-13588
){}}])+	-13589
=1)?'':	-13590
cumentE	-13591
wscript	-13592
(21)')()	-13593
)";>;<;/	-13594
)'}{}*{-	-13595
));'))">	-13596
);//";>;	-13597
*//*";);	-13598
+[])[+[]	-13599
%>	-13600
:(	-13601
Ty	-13602
cR	-13603
jx	-13604
tm	-13605
}@	-13606
%%2	-13607
')/	-13608
-%2	-13609
114	-13610
2><	-13611
>(1	-13612
CRI	-13613
Fco	-13614
Hsg	-13615
PSJ	-13616
Spa	-13617
TEM	-13618
_.,	-13619
arS	-13620
emp	-13621
eso	-13622
fri	-13623
geG	-13624
iel	-13625
irm	-13626
leI	-13627
lpa	-13628
mil	-13629
mlw	-13630
mpa	-13631
nel	-13632
obr	-13633
ocu	-13634
ors	-13635
sor	-13636
stN	-13637
tai	-13638
teN	-13639
▁11	-13640
▁pa	-13641
";--	-13642
%29[	-13643
);{}	-13644
0005	-13645
6)><	-13646
;&#0	-13647
Fxss	-13648
IHRy	-13649
abel	-13650
audi	-13651
ckqu	-13652
ello	-13653
hite	-13654
kKHR	-13655
kgro	-13656
lowS	-13657
mlns	-13658
outl	-13659
paon	-13660
pare	-13661
pati	-13662
requ	-13663
ropb	-13664
roso	-13665
')%22	-13666
)')</	-13667
='+/`	-13668
balTh	-13669
conso	-13670
gress	-13671
inter	-13672
itera	-13673
mentE	-13674
meout	-13675
mment	-13676
names	-13677
pause	-13678
riend	-13679
uslin	-13680
)">]><	-13681
-1"?><	-13682
7)"?><	-13683
PSBmdW	-13684
colgro	-13685
formch	-13686
nerate	-13687
nsform	-13688
pointe	-13689
tename	-13690
97;&#11	-13691
▁onkeyp	-13692
+[]+!![]	-13693
,101,114	-13694
,108,105	-13695
,109,101	-13696
,114,105	-13697
,116,101	-13698
,117,109	-13699
#1	-13700
3,	-13701
5-	-13702
<"	-13703
>%	-13704
HA	-13705
Ov	-13706
SH	-13707
#")	-13708
#10	-13709
,%2	-13710
0%2	-13711
1%2	-13712
101	-13713
110	-13714
2%2	-13715
3%2	-13716
4%2	-13717
5%2	-13718
8%2	-13719
;%2	-13720
Avc	-13721
Csv	-13722
Glu	-13723
PSc	-13724
\%2	-13725
ctB	-13726
eco	-13727
ect	-13728
ema	-13729
ext	-13730
gdm	-13731
hav	-13732
hla	-13733
igp	-13734
ior	-13735
lua	-13736
lue	-13737
lum	-13738
ode	-13739
oot	-13740
ord	-13741
ptT	-13742
rec	-13743
tme	-13744
xOT	-13745
▁SH	-13746
▁ST	-13747
▁ne	-13748
%64(	-13749
(%25	-13750
))";	-13751
);%2	-13752
0063	-13753
1053	-13754
123\	-13755
="48	-13756
="64	-13757
=1%2	-13758
>123	-13759
CgpO	-13760
DOMF	-13761
artC	-13762
doct	-13763
ecma	-13764
hase	-13765
mete	-13766
ptex	-13767
rdow	-13768
scap	-13769
▁dow	-13770
▁met	-13771
&#10;	-13772
('\14	-13773
));%7	-13774
00074	-13775
9)';-	-13776
Cress	-13777
XPath	-13778
ddata	-13779
dropH	-13780
igure	-13781
imate	-13782
mpone	-13783
reate	-13784
{0058	-13785
▁onau	-13786
0028';	-13787
aption	-13788
▁{{{}[	-13789
dedmeta	-13790
dirname	-13791
rationc	-13792
totypeO	-13793
/)[1])</	-13794
/*/'/*/"	-13795
0&#00000	-13796
0,41));}	-13797
00%02%03	-13798
000"/></	-13799
,+	-13800
2'	-13801
`"	-13802
rR	-13803
xa	-13804
('0	-13805
)('	-13806
611	-13807
80)	-13808
>[{	-13809
Cha	-13810
Fsv	-13811
Jyw	-13812
RCE	-13813
Xty	-13814
asc	-13815
ast	-13816
bou	-13817
dda	-13818
erD	-13819
fda	-13820
ful	-13821
gBy	-13822
gic	-13823
gno	-13824
igu	-13825
kja	-13826
mbo	-13827
not	-13828
ntT	-13829
nul	-13830
rev	-13831
saW	-13832
sul	-13833
tps	-13834
ttp	-13835
uSE	-13836
uln	-13837
vap	-13838
wig	-13839
▁('	-13840
▁FO	-13841
▁bo	-13842
▁im	-13843
');'	-13844
24">	-13845
61;"	-13846
;&#4	-13847
="46	-13848
acer	-13849
adow	-13850
canc	-13851
canp	-13852
ctst	-13853
erht	-13854
hcan	-13855
heig	-13856
igge	-13857
impa	-13858
inis	-13859
olid	-13860
oner	-13861
ragg	-13862
safa	-13863
tter	-13864
verf	-13865
vers	-13866
']="_	-13867
*%253	-13868
00%29	-13869
23/">	-13870
3"></	-13871
[0])}	-13872
bWxuc	-13873
dzMub	-13874
hemas	-13875
pover	-13876
rolle	-13877
rover	-13878
sOver	-13879
saWNr	-13880
tioni	-13881
yload	-13882
116"><	-13883
foreig	-13884
xclick	-13885
▁srcse	-13886
0000066	-13887
geclick	-13888
sIDAsIG	-13889
%68%69%6	-13890
00000072	-13891
0029";>;	-13892
0053\002	-13893
0058.105	-13894
0061&#11	-13895
0061\006	-13896
0061\007	-13897
0069\007	-13898
0072\007	-13899
"2	-13900
)`	-13901
Ep	-13902
FR	-13903
GG	-13904
LC	-13905
iI	-13906
nB	-13907
nU	-13908
pJ	-13909
t	-13910
e	-13911
a	-13912
▁	-13913
r	-13914
o	-13915
n	-13916
i	-13917
s	-13918
l	-13919
>	-13920
<	-13921
"	-13922
d	-13923
=	-13924
c	-13925
/	-13926
u	-13927
1	-13928
m	-13929
b	-13930
(	-13931
)	-13932
p	-13933
x	-13934
g	-13935
y	-13936
f	-13937
;	-13938
v	-13939
:	-13940
0	-13941
h	-13942
&	-13943
k	-13944
-	-13945
S	-13946
.	-13947
'	-13948
}	-13949
{	-13950
\	-13951
2	-13952
j	-13953
w	-13954
T	-13955
C	-13956
#	-13957
8	-13958
3	-13959
6	-13960
]	-13961
R	-13962
%	-13963
E	-13964
I	-13965
4	-13966
X	-13967
A	-13968
7	-13969
[	-13970
5	-13971
@	-13972
q	-13973
9	-13974
M	-13975
,	-13976
L	-13977
D	-13978
P	-13979
+	-13980
B	-13981
`	-13982
G	-13983
N	-13984
F	-13985
*	-13986
!	-13987
Y	-13988
O	-13989
H	-13990
z	-13991
_	-13992
?	-13993
U	-13994
V	-13995
W	-13996
$	-13997
J	-13998
K	-13999
