[PAD]	0
[UNK]	0
[BOS]	0
[EOS]	0
[SEP]	0
[CLS]	0
[MASK]	0
le	-0
on	-1
te	-2
</	-3
rt	-4
▁<	-5
="	-6
st	-7
lert	-8
alert	-9
(1	-10
(1)	-11
▁on	-12
ra	-13
ab	-14
ti	-15
(1)"	-16
in	-17
test	-18
di	-19
sty	-20
style	-21
tion	-22
me	-23
><	-24
tab	-25
id	-26
(1)">	-27
or	-28
ma	-29
ou	-30
ri	-31
pt	-32
de	-33
sc	-34
con	-35
se	-36
ript	-37
nte	-38
script	-39
rag	-40
drag	-41
00	-42
▁id	-43
></	-44
va	-45
conte	-46
an	-47
re	-48
table	-49
ut	-50
▁conte	-51
ntedi	-52
nteditable	-53
▁contenteditable	-54
ima	-55
co	-56
oc	-57
ru	-58
anima	-59
animation	-60
ta	-61
(1)></	-62
ocu	-63
ke	-64
=1	-65
ge	-66
for	-67
ns	-68
tra	-69
tru	-70
inde	-71
index	-72
true	-73
ro	-74
▁style	-75
trans	-76
ouse	-77
fra	-78
frame	-79
div	-80
▁tab	-81
▁tabindex	-82
key	-83
▁{	-84
ocus	-85
ja	-86
focus	-87
mouse	-88
▁onmouse	-89
}</	-90
java	-91
ition	-92
ss	-93
be	-94
able	-95
dragg	-96
▁dragg	-97
javascript	-98
▁draggable	-99
ve	-100
nt	-101
▁a	-102
col	-103
&#	-104
▁ondrag	-105
transition	-106
put	-107
ac	-108
nd	-109
▁1	-110
//	-111
na	-112
ad	-113
▁x	-114
input	-115
▁onbe	-116
fore	-117
li	-118
▁onbefore	-119
he	-120
rc	-121
ht	-122
lo	-123
frames	-124
get	-125
);	-126
(1)"></	-127
uto	-128
▁auto	-129
name	-130
▁s	-131
">	-132
▁autofocus	-133
mp	-134
color	-135
rget	-136
target	-137
>@	-138
pa	-139
keyframes	-140
▁onanimation	-141
acti	-142
vate	-143
activate	-144
;&	-145
▁'	-146
ide	-147
out	-148
qu	-149
▁S	-150
SS	-151
bl	-152
ct	-153
%2	-154
ove	-155
XSS	-156
br	-157
ment	-158
--	-159
ck	-160
el	-161
ite	-162
do	-163
rop	-164
form	-165
ml	-166
▁onfocus	-167
end	-168
▁onkey	-169
drop	-170
sv	-171
;}</	-172
ration	-173
▁ontransition	-174
>:	-175
xt	-176
xss	-177
svg	-178
ap	-179
ress	-180
up	-181
('	-182
art	-183
er	-184
▁or	-185
ot	-186
tp	-187
▁src	-188
ul	-189
lick	-190
la	-191
Tab	-192
can	-193
nter	-194
no	-195
▁e	-196
RC	-197
click	-198
enter	-199
over	-200
ha	-201
im	-202
http	-203
fi	-204
ase	-205
dow	-206
://	-207
006	-208
img	-209
rom	-210
10	-211
od	-212
▁SRC	-213
da	-214
ur	-215
ste	-216
mar	-217
men	-218
000	-219
ne	-220
load	-221
rou	-222
menu	-223
grou	-224
LE	-225
bod	-226
red	-227
body	-228
start	-229
▁he	-230
data	-231
ft	-232
IM	-233
ing	-234
▁me	-235
transform	-236
;}	-237
down	-238
ave	-239
ref	-240
{}</	-241
py	-242
cut	-243
copy	-244
left	-245
from	-246
lide	-247
▁here	-248
leave	-249
paste	-250
lidein	-251
iteration	-252
cel	-253
cancel	-254
em	-255
deactivate	-256
pe	-257
>]	-258
fo	-259
os	-260
ocument	-261
sou	-262
quot	-263
document	-264
html	-265
to	-266
CR	-267
ink	-268
sp	-269
▁"	-270
SCR	-271
PT	-272
83	-273
ol	-274
='	-275
th	-276
group	-277
lt	-278
IPT	-279
href	-280
iframe	-281
set	-282
text	-283
ror	-284
ww	-285
gt	-286
;&#	-287
11	-288
press	-289
su	-290
ee	-291
SCRIPT	-292
))	-293
error	-294
80	-295
IMG	-296
(1)>	-297
tr	-298
,83	-299
rea	-300
▁onload	-301
>;	-302
base	-303
com	-304
ty	-305
"><	-306
▁0	-307
har	-308
▁href	-309
bed	-310
embed	-311
val	-312
ute	-313
ter	-314
au	-315
fon	-316
font	-317
ction	-318
TY	-319
amp	-320
dio	-321
foo	-322
"></	-323
audio	-324
lement	-325
▁onmouseover	-326
abs	-327
ure	-328
/*	-329
:1	-330
FR	-331
rce	-332
source	-333
head	-334
list	-335
sele	-336
type	-337
select	-338
image	-339
:0	-340
ig	-341
ect	-342
fig	-343
link	-344
;"	-345
cap	-346
ideo	-347
video	-348
CT	-349
is	-350
rs	-351
ron	-352
caption	-353
tate	-354
▁onerror	-355
007	-356
org	-357
▁2	-358
vul	-359
bj	-360
bject	-361
()	-362
;#	-363
px	-364
ble	-365
"'	-366
[]	-367
ch	-368
il	-369
nera	-370
pos	-371
position	-372
')	-373
absol	-374
element	-375
nerable	-376
absolute	-377
vulnerable	-378
2"	-379
ount	-380
sh	-381
);}</	-382
▁onclick	-383
";	-384
__	-385
context	-386
ll	-387
▁10	-388
blur	-389
move	-390
▁onblur	-391
ion	-392
RE	-393
▁=	-394
sub	-395
▁onkeyup	-396
▁onmousemove	-397
count	-398
▁&	-399
▁onfocusin	-400
▁onkeydown	-401
du	-402
TYLE	-403
hr	-404
:10	-405
var	-406
▁ro	-407
▁oncut	-408
duration	-409
dbl	-410
deg	-411
(180	-412
object	-413
▁ondbl	-414
▁oncopy	-415
▁rotate	-416
▁onpaste	-417
▁oncontext	-418
▁onmouseup	-419
▁ondblclick	-420
▁ondragover	-421
▁onkeypress	-422
▁onmouseout	-423
▁ondragstart	-424
▁onmousedown	-425
▁oncontextmenu	-426
:2"	-427
run	-428
▁{}</	-429
slidein	-430
▁ondrop	-431
▁slidein	-432
▁ondragend	-433
▁onfocusout	-434
▁ondragenter	-435
▁ondragleave	-436
▁onanimationend	-437
▁ontransitionend	-438
▁ontransitionrun	-439
(8	-440
>]]	-441
ELE	-442
ode	-443
▁red	-444
▁onactivate	-445
▁onbeforecut	-446
▁onbeforecopy	-447
▁ondeactivate	-448
▁onmouseenter	-449
▁onmouseleave	-450
}:	-451
:0;}	-452
;}}:	-453
▁1000	-454
▁ease	-455
▁onbeforepaste	-456
"'`	-457
//[	-458
>]</	-459
"'`--	-460
▁type	-461
>]]>]</	-462
//["'`--	-463
//["'`-->]]>]</	-464
;/	-465
aa	-466
▁(	-467
ELECT	-468
Str	-469
pla	-470
String	-471
fu	-472
▁--	-473
xx	-474
%6	-475
let	-476
quee	-477
marquee	-478
=&	-479
OM	-480
004	-481
';	-482
url	-483
op	-484
');	-485
ock	-486
tit	-487
www	-488
title	-489
2\	-490
tt	-491
%22	-492
app	-493
apos	-494
*/	-495
pro	-496
▁FR	-497
block	-498
▁FROM	-499
>//["'`-->]]>]</	-500
meta	-501
but	-502
tex	-503
ton	-504
button	-505
%3	-506
(88	-507
Char	-508
Code	-509
tarea	-510
CharCode	-511
textarea	-512
fromCharCode	-513
code	-514
time	-515
ow	-516
1\	-517
ME	-518
NT	-519
js	-520
mark	-521
▁SELECT	-522
ex	-523
▁name	-524
(88,83	-525
(88,83,83	-526
by	-527
main	-528
(88,83,83))	-529
ic	-530
▁A	-531
der	-532
temp	-533
00000	-534
frameset	-535
▁H	-536
TA	-537
▁<;	-538
spac	-539
log	-540
▁1=1	-541
%7	-542
src	-543
']	-544
..	-545
ue	-546
("	-547
ram	-548
df	-549
pi	-550
cke	-551
loy	-552
pict	-553
▁emp	-554
loyee	-555
param	-556
picture	-557
▁employee	-558
late	-559
span	-560
(1)</	-561
template	-562
['	-563
pre	-564
applet	-565
▁employees	-566
bg	-567
noscript	-568
bd	-569
'='	-570
005	-571
lab	-572
xmp	-573
comma	-574
label	-575
content	-576
dl	-577
map	-578
nav	-579
bgsou	-580
plain	-581
value	-582
bgsound	-583
add	-584
ine	-585
STYLE	-586
option	-587
ils	-588
▁</	-589
deta	-590
ckers	-591
details	-592
AD	-593
▁*	-594
▁c	-595
;">	-596
big	-597
dia	-598
&#11	-599
isindex	-600
noembed	-601
plaintext	-602
rp	-603
item	-604
prog	-605
command	-606
noframes	-607
pression	-608
progress	-609
ML	-610
as	-611
td	-612
ym	-613
▁@	-614
=";	-615
dir	-616
adow	-617
blink	-618
dialog	-619
shadow	-620
%20	-621
gen	-622
lot	-623
tfo	-624
tbody	-625
tfoot	-626
thead	-627
keygen	-628
output	-629
dd	-630
dt	-631
rb	-632
%25	-633
bdi	-634
bdo	-635
del	-636
dfn	-637
eld	-638
hea	-639
ins	-640
kbd	-641
mul	-642
nex	-643
opt	-644
ote	-645
rtc	-646
sma	-647
sum	-648
sup	-649
tid	-650
vas	-651
wbr	-652
abbr	-653
cite	-654
gend	-655
icle	-656
mary	-657
nobr	-658
rike	-659
rong	-660
ruby	-661
samp	-662
slot	-663
acron	-664
aside	-665
field	-666
meter	-667
multi	-668
quote	-669
small	-670
track	-671
canvas	-672
center	-673
figure	-674
footer	-675
header	-676
hgroup	-677
legend	-678
nextid	-679
spacer	-680
strike	-681
strong	-682
acronym	-683
address	-684
article	-685
listing	-686
section	-687
summary	-688
basefont	-689
colgroup	-690
datalist	-691
fieldset	-692
menuitem	-693
multicol	-694
optgroup	-695
blockquote	-696
figcaption	-697
3\	-698
ange	-699
area	-700
9\	-701
xml	-702
0000	-703
99	-704
vent	-705
="1	-706
const	-707
4\	-708
HE	-709
▁';	-710
ctor	-711
wa	-712
!--	-713
ructor	-714
constructor	-715
(88,83,83))">	-716
5\	-717
ec	-718
1">	-719
zz	-720
fuzz	-721
▁xml	-722
fuzzelement	-723
▁C	-724
',	-725
ie	-726
▁de	-727
ok	-728
ort	-729
▁value	-730
(&	-731
20	-732
97	-733
▁W	-734
)</	-735
";>;	-736
003	-737
▁/	-738
she	-739
0061	-740
1>	-741
it	-742
AME	-743
par	-744
▁ex	-745
onerror	-746
et	-747
▁u	-748
;</	-749
IV	-750
LL	-751
![]	-752
+[]	-753
HERE	-754
FRAME	-755
nction	-756
▁WHERE	-757
(1)><	-758
al	-759
▁D	-760
▁N	-761
▁xmlns	-762
expression	-763
▁I	-764
<;/	-765
ack	-766
back	-767
indow	-768
3.	-769
▁\	-770
▁ma	-771
okie	-772
function	-773
74	-774
xE	-775
prom	-776
ground	-777
prompt	-778
background	-779
)[	-780
12	-781
Ne	-782
wL	-783
="\	-784
wid	-785
!![]	-786
width	-787
change	-788
▁STYLE	-789
'>	-790
sec	-791
▁to	-792
NewL	-793
NewLine	-794
30	-795
▁O	-796
REF	-797
▁HREF	-798
window	-799
61	-800
7\	-801
;)	-802
ND	-803
min	-804
xxx	-805
Mouse	-806
TT	-807
](	-808
IME	-809
lay	-810
TIME	-811
39	-812
64	-813
;1	-814
ation	-815
")	-816
ar	-817
xhr	-818
aaaa	-819
valid	-820
{}	-821
&#10	-822
eval	-823
cookie	-824
onload	-825
▁select	-826
28	-827
BC	-828
Re	-829
XX	-830
at	-831
fa	-832
&;#	-833
ATA	-834
TTP	-835
ady	-836
colon	-837
▁exec	-838
ET	-839
QU	-840
▁B	-841
gle	-842
lee	-843
wav	-844
);//	-845
=0	-846
=`	-847
>\	-848
BO	-849
DY	-850
oo	-851
}\	-852
ULL	-853
age	-854
BODY	-855
14	-856
29	-857
ry	-858
'><	-859
80\	-860
XML	-861
ope	-862
leep	-863
▁alert	-864
&#00000	-865
ocation	-866
HT	-867
}}	-868
ENT	-869
ner	-870
▁ad	-871
▁re	-872
ight	-873
sheet	-874
▁char	-875
▁admin	-876
stylesheet	-877
09	-878
ER	-879
ls	-880
ng	-881
%26	-882
['\	-883
/**/	-884
HTML	-885
play	-886
this	-887
▁"><	-888
+!![]	-889
+[])[	-890
event	-891
&#0000	-892
6\	-893
PE	-894
af	-895
if	-896
▁[	-897
▁p	-898
(';	-899
();	-900
EQU	-901
ser	-902
TYPE	-903
EQUIV	-904
▁HTTP	-905
IFRAME	-906
2)	-907
27	-908
(__	-909
__)	-910
imp	-911
net	-912
wor	-913
(1))	-914
cript	-915
▁NULL	-916
▁data	-917
location	-918
0\	-919
40	-920
=\	-921
OU	-922
▁+	-923
ala	-924
goo	-925
alary	-926
"/	-927
65	-928
LI	-929
and	-930
▁foo	-931
4-	-932
<;	-933
Ch	-934
md	-935
▁U	-936
="0	-937
afe	-938
ert	-939
fir	-940
▁"`	-941
="//	-942
comp	-943
open	-944
port	-945
');">	-946
google	-947
▁"`'><	-948
.0	-949
%29	-950
...	-951
200	-952
ate	-953
▁in	-954
'='1	-955
▁url	-956
(1)//	-957
1'='1	-958
;&#10	-959
ready	-960
splay	-961
xssme	-962
pr	-963
sw	-964
61\	-965
ame	-966
css	-967
rib	-968
▁att	-969
+!![]]	-970
confir	-971
ribute	-972
display	-973
▁attribute	-974
(/	-975
:\	-976
▁}	-977
%28	-978
'--	-979
ONT	-980
ger	-981
▁be	-982
META	-983
Name	-984
part	-985
ONTENT	-986
▁xlink	-987
confirm	-988
partment	-989
+(	-990
By	-991
CK	-992
EF	-993
Ht	-994
vi	-995
▁d	-996
Http	-997
lpar	-998
vers	-999
forma	-1000
version	-1001
▁onMouse	-1002
8\	-1003
123	-1004
new	-1005
▁{{	-1006
%253	-1007
2000	-1008
file	-1009
rpar	-1010
▁con	-1011
(0	-1012
/.	-1013
/1	-1014
1"	-1015
58	-1016
▁>	-1017
'))	-1018
ass	-1019
uri	-1020
0065	-1021
resh	-1022
(1)')	-1023
;&#11	-1024
state	-1025
urity	-1026
Element	-1027
refresh	-1028
scriptlet	-1029
%(	-1030
+'	-1031
;>	-1032
ev	-1033
so	-1034
▁#	-1035
;1&	-1036
SRC	-1037
jav	-1038
▁/>	-1039
pass	-1040
inner	-1041
compass	-1042
security	-1043
securitycompass	-1044
41	-1045
00%	-1046
DEF	-1047
ECT	-1048
bar	-1049
bin	-1050
mit	-1051
▁('	-1052
labs	-1053
rent	-1054
▁age	-1055
72	-1056
:'	-1057
>#	-1058
ce	-1059
ox	-1060
65\	-1061
;);	-1062
ADw	-1063
cla	-1064
tro	-1065
ull	-1066
OUND	-1067
ster	-1068
▁...	-1069
▁0=0	-1070
trols	-1071
▁from	-1072
import	-1073
+!![]]+(	-1074
▁autoplay	-1075
▁controls	-1076
readystate	-1077
▁attributeName	-1078
readystatechange	-1079
![	-1080
1]	-1081
47	-1082
73	-1083
BJ	-1084
%72	-1085
OBJ	-1086
tch	-1087
ver	-1088
▁-->	-1089
▁ABC	-1090
igger	-1091
OBJECT	-1092
▁'1'='1	-1093
▁CONTENT	-1094
%0	-1095
)>	-1096
/)	-1097
88	-1098
AG	-1099
est	-1100
top	-1101
ult	-1102
▁&#	-1103
▁RE	-1104
evil	-1105
varc	-1106
&#116	-1107
');//	-1108
Event	-1109
javas	-1110
nload	-1111
▁TYPE	-1112
portsw	-1113
ropert	-1114
submit	-1115
▁1=1--	-1116
varchar	-1117
▁master	-1118
validaudio	-1119
portswigger	-1120
1.	-1121
GR	-1122
RL	-1123
].	-1124
xp	-1125
('\	-1126
ACK	-1127
▁@@	-1128
;&;#	-1129
0061\	-1130
xlink	-1131
▁BACK	-1132
SELECT	-1133
▁width	-1134
(1)')()	-1135
roperty	-1136
&#000011	-1137
innerHTML	-1138
ff	-1139
wd	-1140
▁`	-1141
'+'	-1142
'/*	-1143
>">	-1144
XXX	-1145
cho	-1146
doc	-1147
str	-1148
▁'%	-1149
▁by	-1150
▁un	-1151
(%22	-1152
=%22	-1153
0049\	-1154
0067\	-1155
0069\	-1156
1"="1	-1157
:100%	-1158
clare	-1159
fault	-1160
quest	-1161
sleep	-1162
▁<!--	-1163
▁mana	-1164
▁true	-1165
(1);</	-1166
Change	-1167
parent	-1168
▁forma	-1169
▁salary	-1170
▁declare	-1171
46	-1172
50	-1173
63	-1174
76	-1175
MD	-1176
ST	-1177
UT	-1178
mo	-1179
%65	-1180
;)&	-1181
int	-1182
one	-1183
png	-1184
urn	-1185
0074	-1186
200)	-1187
mage	-1188
null	-1189
send	-1190
▁AND	-1191
0041\	-1192
0072\	-1193
print	-1194
▁DATA	-1195
▁http	-1196
GROUND	-1197
domain	-1198
Property	-1199
getElement	-1200
▁BACKGROUND	-1201
▁formaction	-1202
=#	-1203
BR	-1204
Id	-1205
LA	-1206
ON	-1207
jc	-1208
▁)	-1209
)//	-1210
64,	-1211
DIV	-1212
cmd	-1213
nch	-1214
ype	-1215
▁//	-1216
▁li	-1217
(100	-1218
);">	-1219
▁and	-1220
State	-1221
https	-1222
shell	-1223
▁union	-1224
animate	-1225
ascript	-1226
cmdshell	-1227
▁function	-1228
▁department	-1229
)'	-1230
9/	-1231
NI	-1232
Sc	-1233
Te	-1234
vb	-1235
▁;	-1236
▁h	-1237
%74	-1238
&#1	-1239
Njc	-1240
low	-1241
▁<?	-1242
')">	-1243
(1)&	-1244
(1)`	-1245
61&#	-1246
="0;	-1247
>;<;	-1248
NION	-1249
beha	-1250
mlwd	-1251
vior	-1252
word	-1253
{005	-1254
▁var	-1255
/2000	-1256
0043\	-1257
match	-1258
▁body	-1259
▁user	-1260
']);//	-1261
/2000/	-1262
Njcmlwd	-1263
password	-1264
(#	-1265
).	-1266
69	-1267
;'	-1268
>'	-1269
IN	-1270
OT	-1271
en	-1272
▁?	-1273
▁L	-1274
%27	-1275
="#	-1276
=">	-1277
all	-1278
oin	-1279
sel	-1280
wri	-1281
▁pg	-1282
';);	-1283
;);&	-1284
ById	-1285
DATA	-1286
Text	-1287
gers	-1288
lass	-1289
lidi	-1290
onse	-1291
resp	-1292
▁REL	-1293
(1))#	-1294
__)--	-1295
write	-1296
▁like	-1297
00000,	-1298
5(1))#	-1299
validi	-1300
▁bench	-1301
▁class	-1302
▁sleep	-1303
onmouse	-1304
▁height	-1305
NjcmlwdD	-1306
onseText	-1307
▁managers	-1308
(10000000,	-1309
validimage	-1310
▁benchmark	-1311
onmouseover	-1312
responseText	-1313
getElementById	-1314
25	-1315
32	-1316
34	-1317
53	-1318
FF	-1319
Lo	-1320
\0	-1321
pg	-1322
sl	-1323
ys	-1324
GET	-1325
▁")	-1326
▁')	-1327
"'><	-1328
/199	-1329
Safe	-1330
0076\	-1331
(1)`()	-1332
/1999/	-1333
height	-1334
▁UNION	-1335
default	-1336
behavior	-1337
+-	-1338
Me	-1339
[/	-1340
]]	-1341
ed	-1342
ly	-1343
ze	-1344
▁3	-1345
%63	-1346
/><	-1347
="&	-1348
BLE	-1349
row	-1350
tot	-1351
Load	-1352
Node	-1353
char	-1354
exec	-1355
hema	-1356
onte	-1357
peat	-1358
▁NOT	-1359
&#115	-1360
0063\	-1361
TABLE	-1362
reate	-1363
space	-1364
▁onRe	-1365
1"="1"	-1366
Object	-1367
ontent	-1368
totype	-1369
▁`"'><	-1370
▁aaaaa	-1371
▁document	-1372
validvideo	-1373
'.	-1374
+/	-1375
,'	-1376
70	-1377
77	-1378
==	-1379
PH	-1380
Ri	-1381
Wx	-1382
["	-1383
vc	-1384
▁5	-1385
▁t	-1386
.10	-1387
WBR	-1388
[].	-1389
box	-1390
def	-1391
ize	-1392
jpg	-1393
qui	-1394
▁""	-1395
▁'0	-1396
▁/*	-1397
▁IE	-1398
&#97	-1399
);</	-1400
hash	-1401
math	-1402
%2520	-1403
order	-1404
000011	-1405
HttpRe	-1406
define	-1407
schema	-1408
unload	-1409
▁title	-1410
";>;<;/	-1411
▁onLoad	-1412
&#000010	-1413
▁charset	-1414
▁content	-1415
XMLHttpRe	-1416
▁departments	-1417
XMLHttpRequest	-1418
&<	-1419
-/	-1420
33	-1421
4"	-1422
EX	-1423
PA	-1424
[0	-1425
hp	-1426
ld	-1427
▁%	-1428
▁m	-1429
"))	-1430
"/>	-1431
+{}	-1432
="/	-1433
SET	-1434
gin	-1435
▁ON	-1436
▁OR	-1437
▁};	-1438
'))>	-1439
ding	-1440
safe	-1441
show	-1442
wait	-1443
0065\	-1444
CDATA	-1445
Click	-1446
▁'0:0	-1447
create	-1448
▁delay	-1449
0065006	-1450
waitfor	-1451
▁varchar	-1452
prototype	-1453
▁javascript	-1454
(88,83,83))//	-1455
'\	-1456
,1	-1457
.*	-1458
13	-1459
Cg	-1460
\/	-1461
bG	-1462
gu	-1463
um	-1464
xA	-1465
%23	-1466
(";	-1467
(2)	-1468
)">	-1469
,11	-1470
URL	-1471
bla	-1472
fam	-1473
ild	-1474
ily	-1475
loa	-1476
php	-1477
rip	-1478
xsl	-1479
▁ID	-1480
")</	-1481
%252	-1482
')</	-1483
';</	-1484
6;&#	-1485
Page	-1486
cess	-1487
echo	-1488
page	-1489
roll	-1490
▁ALL	-1491
▁dur	-1492
&#114	-1493
)"></	-1494
ssage	-1495
family	-1496
salary	-1497
▁target	-1498
';);";>;	-1499
toString	-1500
(1)')()}}	-1501
MouseEvent	-1502
.$	-1503
15	-1504
23	-1505
;;	-1506
=$	-1507
??	-1508
WF	-1509
\\	-1510
ci	-1511
lc	-1512
mi	-1513
oe	-1514
▁n	-1515
')>	-1516
';)	-1517
'](	-1518
(.*	-1519
);}	-1520
*/'	-1521
/)[	-1522
/*/	-1523
09;	-1524
2',	-1525
500	-1526
64\	-1527
72\	-1528
='1	-1529
=//	-1530
?><	-1531
["\	-1532
[/*	-1533
cls	-1534
ler	-1535
scr	-1536
vml	-1537
▁*/	-1538
▁30	-1539
▁AS	-1540
!+[]	-1541
(+{}	-1542
2"><	-1543
;1&#	-1544
=">"	-1545
icro	-1546
root	-1547
self	-1548
soft	-1549
']('\	-1550
/)[1]	-1551
0074\	-1552
apply	-1553
clsid	-1554
{0053	-1555
▁code	-1556
▁this	-1557
%26%23	-1558
:100%;	-1559
FRAMESET	-1560
icrosoft	-1561
▁Content	-1562
!![]+[])[	-1563
(+{}+[])[	-1564
+[])[!+[]	-1565
xpression	-1566
(\	-1567
)"	-1568
+{	-1569
>&	-1570
EM	-1571
OR	-1572
Th	-1573
ks	-1574
sg	-1575
us	-1576
▁-	-1577
▁F	-1578
▁f	-1579
▁g	-1580
▁o	-1581
&#6	-1582
,10	-1583
.0"	-1584
;'>	-1585
LAY	-1586
]><	-1587
]['	-1588
bal	-1589
ded	-1590
glo	-1591
moz	-1592
▁%2	-1593
▁("	-1594
▁hi	-1595
0072	-1596
="10	-1597
="</	-1598
This	-1599
alse	-1600
blah	-1601
equi	-1602
pera	-1603
sers	-1604
stat	-1605
user	-1606
▁rel	-1607
0050\	-1608
4"></	-1609
><!--	-1610
ample	-1611
equiv	-1612
proto	-1613
throw	-1614
;&#101	-1615
Script	-1616
global	-1617
substr	-1618
▁onloa	-1619
example	-1620
message	-1621
microsoft	-1622
subdomain	-1623
globalThis	-1624
(3	-1625
-8	-1626
/&	-1627
59	-1628
66	-1629
89	-1630
;\	-1631
=/	-1632
=2	-1633
=3	-1634
BE	-1635
CA	-1636
Er	-1637
HR	-1638
IT	-1639
In	-1640
Jy	-1641
TE	-1642
{-	-1643
%69	-1644
002	-1645
039	-1646
1=1	-1647
1><	-1648
:0;	-1649
:__	-1650
;//	-1651
="4	-1652
=\"	-1653
AGE	-1654
dCg	-1655
den	-1656
ost	-1657
pdf	-1658
pop	-1659
svn	-1660
uFF	-1661
&#47	-1662
&#99	-1663
=500	-1664
HEAD	-1665
ScRi	-1666
[0].	-1667
llow	-1668
some	-1669
thod	-1670
turn	-1671
▁%20	-1672
▁3=3	-1673
▁Doe	-1674
▁cmd	-1675
&#105	-1676
&#112	-1677
0062\	-1678
0064\	-1679
0073\	-1680
;&#83	-1681
Error	-1682
LAYER	-1683
__'--	-1684
▁''='	-1685
▁form	-1686
▁onre	-1687
andler	-1688
▁(200)	-1689
;#00000	-1690
▁action	-1691
▁repeat	-1692
&;#00000	-1693
6&#00000	-1694
adyState	-1695
▁"1"="1"	-1696
▁'0:0:__	-1697
▁classid	-1698
▁version	-1699
department	-1700
▁onProperty	-1701
▁onReadyState	-1702
([	-1703
),	-1704
-7	-1705
93	-1706
=(	-1707
=<	-1708
Bl	-1709
Co	-1710
KE	-1711
KT	-1712
Pt	-1713
]>	-1714
_.	-1715
jA	-1716
nc	-1717
▁y	-1718
";)	-1719
().	-1720
(){	-1721
/">	-1722
/*<	-1723
130	-1724
YWx	-1725
erl	-1726
lcn	-1727
▁LI	-1728
"><?	-1729
(1)\	-1730
1></	-1731
5;&#	-1732
72&#	-1733
="><	-1734
><![	-1735
WFNT	-1736
call	-1737
join	-1738
site	-1739
size	-1740
▁out	-1741
;&#97	-1742
works	-1743
▁'(.*	-1744
▁LIKE	-1745
▁html	-1746
▁onse	-1747
▁perl	-1748
28;1&#	-1749
="1.0"	-1750
string	-1751
▁table	-1752
;%26%23	-1753
schemas	-1754
PHNjcmlwdD	-1755
!#	-1756
"<	-1757
$(	-1758
((	-1759
(@	-1760
,0	-1761
0;	-1762
1/	-1763
16	-1764
2.	-1765
91	-1766
:;	-1767
:[	-1768
;$	-1769
;<	-1770
ID	-1771
LO	-1772
NK	-1773
oh	-1774
ql	-1775
"--	-1776
%64	-1777
%70	-1778
%80	-1779
','	-1780
(10	-1781
-*/	-1782
.__	-1783
656	-1784
="3	-1785
?)'	-1786
IST	-1787
SER	-1788
Tru	-1789
hid	-1790
sol	-1791
use	-1792
utf	-1793
whe	-1794
▁<!	-1795
▁IS	-1796
▁ng	-1797
039;	-1798
1"><	-1799
4000	-1800
;!--	-1801
="11	-1802
LINK	-1803
LOAD	-1804
Over	-1805
__)#	-1806
lcnQ	-1807
line	-1808
look	-1809
sted	-1810
▁/><	-1811
▁alt	-1812
▁new	-1813
▁top	-1814
▁{{_	-1815
")}</	-1816
%22).	-1817
'))">	-1818
(1)'>	-1819
--></	-1820
/*-*/	-1821
0044\	-1822
0078\	-1823
30;&#	-1824
;"></	-1825
IMAGE	-1826
imple	-1827
isTru	-1828
onxxx	-1829
▁temp	-1830
%201=1	-1831
hidden	-1832
lookup	-1833
status	-1834
▁DATAF	-1835
');"></	-1836
Cscript	-1837
YWxlcnQ	-1838
binding	-1839
▁ONLOAD	-1840
▁onpage	-1841
(1)>"></	-1842
123%22).	-1843
?)'/)[1]	-1844
vascript	-1845
▁xmlHttp	-1846
isTrusted	-1847
▁nvarchar	-1848
▁onunload	-1849
▁background	-1850
▁'(.*?)'/)[1]	-1851
$%	-1852
)&	-1853
,<	-1854
24	-1855
7.	-1856
?@	-1857
AL	-1858
Ac	-1859
At	-1860
EN	-1861
Ja	-1862
OW	-1863
Pg	-1864
TD	-1865
Vu	-1866
Vy	-1867
WE	-1868
YN	-1869
\]	-1870
`=	-1871
`>	-1872
dH	-1873
ub	-1874
wg	-1875
wh	-1876
xC	-1877
▁v	-1878
"="	-1879
%77	-1880
()*	-1881
**/	-1882
*//	-1883
,%3	-1884
,:;	-1885
41)	-1886
="<	-1887
INP	-1888
UTF	-1889
ale	-1890
ber	-1891
dle	-1892
dom	-1893
fid	-1894
hav	-1895
hbG	-1896
hel	-1897
htc	-1898
ipt	-1899
▁''	-1900
▁1;	-1901
▁BY	-1902
▁IN	-1903
▁if	-1904
!#$%	-1905
(8)>	-1906
*//*	-1907
+-_.	-1908
5"><	-1909
6"><	-1910
8"><	-1911
<!--	-1912
=[].	-1913
?@[/	-1914
LASS	-1915
date	-1916
fied	-1917
poin	-1918
rect	-1919
vari	-1920
▁DYN	-1921
▁LOW	-1922
▁hav	-1923
▁the	-1924
&#101	-1925
/";>;	-1926
0039\	-1927
0057\	-1928
0068\	-1929
0070\	-1930
>;<;/	-1931
Child	-1932
INPUT	-1933
hbGVy	-1934
jsfid	-1935
scrip	-1936
▁"/><	-1937
▁echo	-1938
▁onsc	-1939
%63%72	-1940
(1);">	-1941
0061&#	-1942
Method	-1943
Unload	-1944
border	-1945
tation	-1946
▁CLASS	-1947
+-_.,:;	-1948
▁DYNSRC	-1949
▁LOWSRC	-1950
▁having	-1951
▁srcset	-1952
▁values	-1953
jsfiddle	-1954
variable	-1955
vbscript	-1956
▁('1'='1	-1957
&#115&#99	-1958
;&#101%72	-1959
▁password	-1960
&#105&#112	-1961
▁namespace	-1962
+-_.,:;?@[/	-1963
▁expression	-1964
&#115&#99&#114	-1965
&#105&#112&#116	-1966
▁XMLHttpRequest	-1967
(*	-1968
)}	-1969
-0	-1970
/>	-1971
6-	-1972
DO	-1973
HI	-1974
IH	-1975
On	-1976
Pa	-1977
][	-1978
ae	-1979
dc	-1980
gl	-1981
pT	-1982
sk	-1983
un	-1984
▁J	-1985
▁M	-1986
%61	-1987
%73	-1988
'">	-1989
')"	-1990
'</	-1991
('<	-1992
(*)	-1993
10;	-1994
303	-1995
32;	-1996
65)	-1997
="9	-1998
=20	-1999
CLI	-2000
DOC	-2001
Joh	-2002
PAN	-2003
Set	-2004
[['	-2005
`><	-2006
fin	-2007
gre	-2008
lic	-2009
▁'+	-2010
▁<<	-2011
▁is	-2012
▁sp	-2013
▁xp	-2014
%20'	-2015
%22,	-2016
0080	-2017
27&#	-2018
53&#	-2019
63&#	-2020
7"><	-2021
74&#	-2022
://;	-2023
CKME	-2024
ETWE	-2025
ISTS	-2026
John	-2027
Link	-2028
SPAN	-2029
__']	-2030
alwa	-2031
mail	-2032
ping	-2033
sert	-2034
sing	-2035
vuln	-2036
▁INT	-2037
▁URL	-2038
▁exp	-2039
!#$%&	-2040
"/></	-2041
&#111	-2042
');</	-2043
)//">	-2044
0030\	-2045
0079\	-2046
39;&#	-2047
[['__	-2048
admin	-2049
hello	-2050
xhtml	-2051
▁Page	-2052
%22></	-2053
%65%72	-2054
%69%70	-2055
(1)"><	-2056
000010	-2057
:100%"	-2058
ETWEEN	-2059
EXISTS	-2060
ScRiPt	-2061
access	-2062
always	-2063
charAt	-2064
gument	-2065
qlvuln	-2066
single	-2067
stNode	-2068
▁begin	-2069
▁event	-2070
▁imple	-2071
▁onsee	-2072
▁onxxx	-2073
CLICKME	-2074
DOCTYPE	-2075
orderBy	-2076
worksin	-2077
▁insert	-2078
▁return	-2079
▁srcdoc	-2080
▁userid	-2081
(1)`()]>	-2082
;&#39;&#	-2083
YWxlcnQo	-2084
hbGVydCg	-2085
▁BETWEEN	-2086
▁onbegin	-2087
%69%70%74	-2088
%73%63%72	-2089
39&#00000	-2090
mentation	-2091
▁onloaded	-2092
▁onscroll	-2093
▁'1'='1'--	-2094
Ajavascript	-2095
Fjavascript	-2096
▁onloadstart	-2097
▁implementation	-2098
&#0000116&#00000	-2099
%4	-2100
%5	-2101
'#	-2102
'}	-2103
(4	-2104
+=	-2105
/?	-2106
55	-2107
6.	-2108
81	-2109
:-	-2110
;,	-2111
;=	-2112
?>	-2113
As	-2114
Do	-2115
ES	-2116
IS	-2117
NY	-2118
Ny	-2119
SE	-2120
UL	-2121
VG	-2122
Va	-2123
XB	-2124
[<	-2125
];	-2126
dG	-2127
dm	-2128
vY	-2129
xB	-2130
yB	-2131
▁!	-2132
▁4	-2133
▁V	-2134
▁b	-2135
");	-2136
")>	-2137
">1	-2138
"](	-2139
())	-2140
(\"	-2141
)';	-2142
+=+	-2143
164	-2144
2"]	-2145
50,	-2146
63\	-2147
69\	-2148
74\	-2149
75\	-2150
76\	-2151
8}\	-2152
;;&	-2153
<![	-2154
=""	-2155
=%(	-2156
=&{	-2157
=``	-2158
ATE	-2159
BED	-2160
DER	-2161
Get	-2162
Tra	-2163
[1]	-2164
[[]	-2165
\">	-2166
\12	-2167
](/	-2168
]](	-2169
ain	-2170
car	-2171
ess	-2172
fff	-2173
ker	-2174
rch	-2175
sed	-2176
swf	-2177
tou	-2178
vie	-2179
wvc	-2180
▁))	-2181
▁0,	-2182
▁?>	-2183
▁SI	-2184
▁st	-2185
%29;	-2186
']('	-2187
']['	-2188
*/](	-2189
,101	-2190
/200	-2191
141\	-2192
145\	-2193
154\	-2194
162\	-2195
281\	-2196
4"><	-2197
62"]	-2198
69&#	-2199
74']	-2200
76&#	-2201
;#11	-2202
;></	-2203
="%(	-2204
="&#	-2205
="0"	-2206
=''.	-2207
HTTP	-2208
IMIT	-2209
JaVa	-2210
Path	-2211
[[]]	-2212
__('	-2213
atta	-2214
expr	-2215
fill	-2216
lete	-2217
modi	-2218
peri	-2219
tive	-2220
vasc	-2221
{006	-2222
▁"))	-2223
▁ANY	-2224
▁\";	-2225
▁xss	-2226
%22);	-2227
%63%6	-2228
*/]['	-2229
0034\	-2230
0047\	-2231
0053\	-2232
0059\	-2233
0074}	-2234
123</	-2235
200){	-2236
3\123	-2237
74"](	-2238
74'](	-2239
Count	-2240
EMBED	-2241
Trans	-2242
about	-2243
false	-2244
navig	-2245
ument	-2246
white	-2247
world	-2248
{0061	-2249
{0065	-2250
{0072	-2251
▁/></	-2252
+[]]](	-2253
/2001/	-2254
130\12	-2255
62"]("	-2256
;&#114	-2257
;&;#11	-2258
Getter	-2259
[][[]]	-2260
append	-2261
ession	-2262
events	-2263
period	-2264
update	-2265
{0053}	-2266
{0074}	-2267
▁50000	-2268
▁LIMIT	-2269
▁ORDER	-2270
▁Opera	-2271
▁allow	-2272
▁oncan	-2273
▁ontou	-2274
162\164	-2275
74']['\	-2276
==200){	-2277
CONTENT	-2278
['\141\	-2279
attacke	-2280
dropbox	-2281
handler	-2282
jscript	-2283
pointer	-2284
{0053}\	-2285
{0058}\	-2286
{0061}\	-2287
{0065}\	-2288
{0072}\	-2289
▁100000	-2290
▁onplay	-2291
"))');//	-2292
154\145\	-2293
;#000011	-2294
BCscript	-2295
▁oninput	-2296
%65%72%74	-2297
&#0000083	-2298
&#0000097	-2299
&#0000114	-2300
&;#000011	-2301
;&#116;&#	-2302
YWxlcnQoM	-2303
+!![]]);//	-2304
3\123');//	-2305
[(+{}+[])[	-2306
▁oncanplay	-2307
']('\130\12	-2308
+!![]]+(![]	-2309
Bjavascript	-2310
appendChild	-2311
{0053}');//	-2312
{0074}']('\	-2313
defineGetter	-2314
▁repeatCount	-2315
(88,83,83))</	-2316
+!![]+!![]]+(	-2317
+!![]]+([][[]]	-2318
defineProperty	-2319
▁attributename	-2320
!![]+[])[+[]]](	-2321
154\145\162\164	-2322
&#0000039&#00000	-2323
""	-2324
#0	-2325
({	-2326
,\	-2327
-4	-2328
/!	-2329
/4	-2330
04	-2331
06	-2332
1`	-2333
2,	-2334
4%	-2335
6)	-2336
:,	-2337
;{	-2338
=_	-2339
>{	-2340
BA	-2341
Be	-2342
IE	-2343
LD	-2344
Sk	-2345
WQ	-2346
XJ	-2347
[_	-2348
bc	-2349
cl	-2350
dr	-2351
ds	-2352
ia	-2353
io	-2354
ka	-2355
nk	-2356
uc	-2357
vg	-2358
we	-2359
▁,	-2360
▁X	-2361
").	-2362
%67	-2363
()}	-2364
(8)	-2365
(91	-2366
));	-2367
-03	-2368
-1"	-2369
-88	-2370
.1.	-2371
/);	-2372
1-8	-2373
147	-2374
14;	-2375
180	-2376
2.0	-2377
389	-2378
404	-2379
58/	-2380
616	-2381
744	-2382
76-	-2383
80/	-2384
846	-2385
;";	-2386
;'<	-2387
<\/	-2388
="5	-2389
="8	-2390
>/*	-2391
><?	-2392
ACA	-2393
ALU	-2394
APA	-2395
Box	-2396
EXP	-2397
ISO	-2398
Jyk	-2399
KTt	-2400
Num	-2401
Nya	-2402
OIN	-2403
PHN	-2404
YST	-2405
`1`	-2406
aaa	-2407
ata	-2408
cor	-2409
dae	-2410
dan	-2411
ere	-2412
fil	-2413
mpt	-2414
nco	-2415
pay	-2416
tog	-2417
you	-2418
});	-2419
▁";	-2420
▁1'	-2421
▁1)	-2422
▁<%	-2423
▁lo	-2424
%257	-2425
%27;	-2426
&#40	-2427
&#46	-2428
&#60	-2429
&#62	-2430
';">	-2431
('//	-2432
()+{	-2433
(1)+	-2434
(123	-2435
)"/>	-2436
,1,1	-2437
...<	-2438
/130	-2439
0028	-2440
0029	-2441
0069	-2442
6-11	-2443
73&#	-2444
://0	-2445
;"><	-2446
="13	-2447
BASE	-2448
GEXP	-2449
Move	-2450
OUNT	-2451
SCRI	-2452
USER	-2453
anda	-2454
ator	-2455
circ	-2456
fdae	-2457
kami	-2458
live	-2459
misc	-2460
nxss	-2461
osed	-2462
path	-2463
rome	-2464
tipt	-2465
viou	-2466
▁1))	-2467
▁1=(	-2468
▁onF	-2469
▁svg	-2470
▁xhr	-2471
");</	-2472
">]><	-2473
%2528	-2474
%2529	-2475
%67%6	-2476
&#102	-2477
&#110	-2478
');}}	-2479
(1))>	-2480
(150,	-2481
(8000	-2482
-8859	-2483
/480/	-2484
0042\	-2485
0046\	-2486
0051\	-2487
6.000	-2488
61697	-2489
7.147	-2490
73656	-2491
>...<	-2492
Enter	-2493
NyaXB	-2494
Opera	-2495
YSTEM	-2496
__)='	-2497
child	-2498
dangl	-2499
login	-2500
noxss	-2501
onent	-2502
thing	-2503
trunk	-2504
▁"></	-2505
▁'%20	-2506
▁/**/	-2507
▁1=1#	-2508
▁30);	-2509
▁JOIN	-2510
▁VALU	-2511
▁enco	-2512
▁fill	-2513
▁into	-2514
▁loop	-2515
▁onSc	-2516
%77%77	-2517
%80%80	-2518
(91)</	-2519
-1"?><	-2520
.10.1.	-2521
002000	-2522
003000	-2523
0061')	-2524
18058/	-2525
404%22	-2526
770061	-2527
Cookie	-2528
Number	-2529
USERID	-2530
\0061\	-2531
circle	-2532
markup	-2533
server	-2534
toggle	-2535
xssmoz	-2536
▁&#32;	-2537
▁1=1/*	-2538
▁<!--[	-2539
▁COUNT	-2540
▁false	-2541
▁frame	-2542
▁users	-2543
09;&#10	-2544
76-0080	-2545
7761697	-2546
88;&#83	-2547
__']]['	-2548
corkami	-2549
guments	-2550
maction	-2551
onclick	-2552
payload	-2553
xmlHttp	-2554
▁REGEXP	-2555
▁SYSTEM	-2556
▁onPage	-2557
▁prompt	-2558
(150,41)	-2559
00650063	-2560
Document	-2561
aaaaaaaa	-2562
composed	-2563
dangling	-2564
scrscrip	-2565
▁100000)	-2566
▁ascript	-2567
▁onError	-2568
▁onFocus	-2569
▁onstart	-2570
730065006	-2571
avascript	-2572
▁("1"="1"	-2573
▁encoding	-2574
▁onResize	-2575
▁onScroll	-2576
▁onUnload	-2577
▁onchange	-2578
▁username	-2579
&#110&#101	-2580
/13018058/	-2581
JaVaScRiPt	-2582
attackerip	-2583
googlecode	-2584
helloworld	-2585
livescript	-2586
readyState	-2587
▁aaaaaaaaa	-2588
%69%70%74%3	-2589
-8859-1"?><	-2590
Ejavascript	-2591
09;&#10;&#11	-2592
composedPath	-2593
lookupMethod	-2594
scrscriptipt	-2595
▁frameborder	-2596
▁onMouseMove	-2597
▁onMouseOver	-2598
▁onMouseEnter	-2599
▁onbeforeload	-2600
(88,83,83))//\	-2601
▁'(.*?)'/)[1])	-2602
▁onbeforeunload	-2603
+1	-2604
-'	-2605
5,	-2606
6,	-2607
60	-2608
79	-2609
85	-2610
;:	-2611
<!	-2612
={	-2613
>+	-2614
>.	-2615
>/	-2616
BG	-2617
CB	-2618
De	-2619
HQ	-2620
IG	-2621
LT	-2622
Lm	-2623
Mo	-2624
Of	-2625
PS	-2626
YX	-2627
\2	-2628
\3	-2629
]{	-2630
`<	-2631
``	-2632
aW	-2633
bW	-2634
bx	-2635
hi	-2636
pO	-2637
pp	-2638
rI	-2639
}&	-2640
};	-2641
%';	-2642
%><	-2643
(&#	-2644
()>	-2645
*%7	-2646
/&#	-2647
/),	-2648
20"	-2649
29>	-2650
41>	-2651
72)	-2652
74)	-2653
:1,	-2654
;)>	-2655
<</	-2656
=';	-2657
='\	-2658
>><	-2659
BGS	-2660
ITY	-2661
ORM	-2662
Pop	-2663
ank	-2664
any	-2665
asp	-2666
ays	-2667
bru	-2668
che	-2669
cur	-2670
eed	-2671
fer	-2672
fix	-2673
ght	-2674
gif	-2675
moc	-2676
msg	-2677
ome	-2678
rds	-2679
vbm	-2680
via	-2681
xxs	-2682
{};	-2683
}">	-2684
▁"'	-2685
▁&&	-2686
▁'<	-2687
▁ev	-2688
▁ns	-2689
▁sy	-2690
▁ta	-2691
&#12	-2692
&#32	-2693
&#58	-2694
(%26	-2695
()">	-2696
()//	-2697
-7">	-2698
/1='	-2699
123.	-2700
;#10	-2701
;%29	-2702
="&{	-2703
='><	-2704
ATAS	-2705
Comp	-2706
Csvg	-2707
Data	-2708
Inst	-2709
REQU	-2710
arch	-2711
dend	-2712
hide	-2713
imap	-2714
leng	-2715
mask	-2716
roke	-2717
scRi	-2718
view	-2719
▁<![	-2720
▁<;/	-2721
▁AVG	-2722
▁any	-2723
▁app	-2724
▁doc	-2725
▁gte	-2726
▁pre	-2727
▁via	-2728
▁{{$	-2729
%65%6	-2730
&#106	-2731
());}	-2732
(2)//	-2733
0032\	-2734
0033\	-2735
0058\	-2736
0075\	-2737
0077\	-2738
25;&#	-2739
75;&#	-2740
:,*%7	-2741
=%27;	-2742
blank	-2743
brute	-2744
ctive	-2745
mocha	-2746
opera	-2747
ousel	-2748
owner	-2749
wheel	-2750
where	-2751
xmlns	-2752
▁eval	-2753
▁mode	-2754
▁onpa	-2755
▁says	-2756
▁text	-2757
%29%29	-2758
');\">	-2759
(1))">	-2760
(1)>">	-2761
);}<\/	-2762
>123</	-2763
ENTITY	-2764
applic	-2765
chrome	-2766
delete	-2767
length	-2768
msgbox	-2769
onents	-2770
tables	-2771
▁click	-2772
▁group	-2773
▁onend	-2774
(123)</	-2775
;%29></	-2776
BGSOUND	-2777
ORMATAS	-2778
XObject	-2779
andards	-2780
astNode	-2781
cscript	-2782
current	-2783
express	-2784
request	-2785
{}[['__	-2786
▁iframe	-2787
▁prefix	-2788
▁window	-2789
(1)//></	-2790
;#000010	-2791
Transfer	-2792
carousel	-2793
modified	-2794
▁--><!--	-2795
▁DATAFLD	-2796
▁DATASRC	-2797
▁informa	-2798
▁ontouch	-2799
expressio	-2800
namespace	-2801
navigator	-2802
▁onrepeat	-2803
▁onselect	-2804
Components	-2805
▁onloadend	-2806
▁onpointer	-2807
Cjavascript	-2808
application	-2809
▁formtarget	-2810
▁onpagehide	-2811
▁onpageshow	-2812
88;&#83;&#83	-2813
▁information	-2814
createElement	-2815
ownerDocument	-2816
▁DATAFORMATAS	-2817
(150,41));}<\/	-2818
!>	-2819
",	-2820
&&	-2821
':	-2822
(5	-2823
){	-2824
*{	-2825
+,	-2826
-"	-2827
/0	-2828
0&	-2829
1)	-2830
22	-2831
2]	-2832
3+	-2833
3;	-2834
52	-2835
6&	-2836
62	-2837
67	-2838
7)	-2839
75	-2840
8%	-2841
84	-2842
86	-2843
87	-2844
94	-2845
:&	-2846
;+	-2847
=*	-2848
=>	-2849
=@	-2850
=[	-2851
>"	-2852
>?	-2853
>`	-2854
?<	-2855
Cs	-2856
FT	-2857
Ke	-2858
My	-2859
Ow	-2860
PR	-2861
RA	-2862
RS	-2863
Si	-2864
Ta	-2865
Vg	-2866
WV	-2867
[[	-2868
bk	-2869
gh	-2870
go	-2871
iB	-2872
kb	-2873
mF	-2874
mV	-2875
mc	-2876
pc	-2877
pu	-2878
sq	-2879
sr	-2880
ud	-2881
vL	-2882
wi	-2883
xe	-2884
▁.	-2885
▁E	-2886
▁G	-2887
▁r	-2888
▁w	-2889
";;	-2890
#0#	-2891
%40	-2892
&#8	-2893
'([	-2894
("<	-2895
)'>	-2896
))&	-2897
))>	-2898
)+{	-2899
)--	-2900
*{-	-2901
,&#	-2902
.$$	-2903
/0)	-2904
/\/	-2905
055	-2906
0][	-2907
111	-2908
13;	-2909
14.	-2910
15"	-2911
1</	-2912
2)`	-2913
255	-2914
64&	-2915
64)	-2916
659	-2917
7">	-2918
7-4	-2919
70)	-2920
:-(	-2921
;/*	-2922
="2	-2923
=&#	-2924
>'"	-2925
>({	-2926
>//	-2927
><!	-2928
AGn	-2929
AHI	-2930
Acg	-2931
CrI	-2932
EST	-2933
INT	-2934
Jan	-2935
Key	-2936
LCA	-2937
Msg	-2938
Own	-2939
Swg	-2940
Top	-2941
UTL	-2942
[{}	-2943
ace	-2944
afa	-2945
are	-2946
bWx	-2947
bdb	-2948
cDo	-2949
cat	-2950
chr	-2951
dHJ	-2952
dbd	-2953
dis	-2954
ear	-2955
etc	-2956
fld	-2957
hac	-2958
ick	-2959
ish	-2960
iti	-2961
ked	-2962
lat	-2963
nce	-2964
olu	-2965
pha	-2966
ret	-2967
sSi	-2968
sys	-2969
tas	-2970
ucz	-2971
uff	-2972
unu	-2973
wha	-2974
xBC	-2975
xEF	-2976
xKT	-2977
xee	-2978
xvY	-2979
ync	-2980
yns	-2981
▁">	-2982
▁#"	-2983
▁%3	-2984
▁'"	-2985
▁'-	-2986
▁'[	-2987
▁'`	-2988
▁*(	-2989
▁+/	-2990
▁/&	-2991
▁<>	-2992
▁CO	-2993
▁Co	-2994
▁Fu	-2995
▁Me	-2996
▁PR	-2997
▁as	-2998
▁my	-2999
▁of	-3000
▁us	-3001
")'>	-3002
"-->	-3003
";</	-3004
">1<	-3005
"><\	-3006
%28&	-3007
&#1;	-3008
&#61	-3009
'"--	-3010
';";	-3011
';))	-3012
']%2	-3013
(133	-3014
,%20	-3015
,0,'	-3016
--`<	-3017
."))	-3018
/#0#	-3019
/));	-3020
0036	-3021
0066	-3022
0][\	-3023
2027	-3024
2064	-3025
3130	-3026
4666	-3027
58&#	-3028
6179	-3029
62;<	-3030
65&#	-3031
70&#	-3032
7659	-3033
8313	-3034
9"><	-3035
9999	-3036
;'&#	-3037
;()*	-3038
;)">	-3039
;))&	-3040
="0.	-3041
='1'	-3042
=*))	-3043
=20>	-3044
=`>`	-3045
>%26	-3046
>');	-3047
>=&{	-3048
????	-3049
Jane	-3050
MENT	-3051
NULL	-3052
RSna	-3053
SERT	-3054
Type	-3055
ance	-3056
bind	-3057
bkit	-3058
ciou	-3059
dige	-3060
enti	-3061
erre	-3062
king	-3063
mali	-3064
ners	-3065
post	-3066
push	-3067
rant	-3068
rate	-3069
reen	-3070
sole	-3071
sual	-3072
tele	-3073
vcmc	-3074
volu	-3075
with	-3076
}});	-3077
▁""=	-3078
▁%22	-3079
▁'';	-3080
▁'="	-3081
▁--'	-3082
▁172	-3083
▁1</	-3084
▁1=0	-3085
▁:-(	-3086
▁@[_	-3087
▁ALT	-3088
▁XSS	-3089
▁[<!	-3090
▁for	-3091
▁key	-3092
▁pop	-3093
▁www	-3094
▁xdr	-3095
▁xxe	-3096
!--"<	-3097
%20('	-3098
%2050	-3099
%2522	-3100
%28%7	-3101
%29%3	-3102
%61%6	-3103
&#11;	-3104
&#13;	-3105
(&#1;	-3106
();</	-3107
(/'([	-3108
(1)';	-3109
(1)>'	-3110
(1/0)	-3111
(2)">	-3112
(200)	-3113
/**/1	-3114
0035\	-3115
0038\	-3116
0048\	-3117
0056\	-3118
20036	-3119
29;'>	-3120
33;&#	-3121
34;&#	-3122
389><	-3123
63;&#	-3124
:1000	-3125
;%28&	-3126
;&#47	-3127
;);">	-3128
;//">	-3129
="`><	-3130
=&#10	-3131
='100	-3132
='>'"	-3133
=1000	-3134
>/**/	-3135
Block	-3136
Input	-3137
Nodes	-3138
]);">	-3139
__)="	-3140
afari	-3141
after	-3142
bling	-3143
cDovL	-3144
class	-3145
clone	-3146
ended	-3147
gread	-3148
latte	-3149
nWFNT	-3150
okies	-3151
phase	-3152
rough	-3153
tever	-3154
timer	-3155
xvYWQ	-3156
ynsrc	-3157
{}*{-	-3158
▁*/</	-3159
▁--!>	-3160
▁Host	-3161
▁INTO	-3162
▁\/\/	-3163
▁blah	-3164
▁drop	-3165
▁onin	-3166
▁onwe	-3167
▁open	-3168
▁size	-3169
▁some	-3170
▁{{{}	-3171
"><!--	-3172
("*//*	-3173
(1)'">	-3174
(8000)	-3175
)/)[1]	-3176
.")));	-3177
/**/</	-3178
00%00%	-3179
007200	-3180
200064	-3181
255'--	-3182
313027	-3183
400076	-3184
5;&#11	-3185
5;&#99	-3186
6;&#97	-3187
722064	-3188
8;&#97	-3189
:10'--	-3190
;&#108	-3191
;&#10;	-3192
="1000	-3193
="315"	-3194
="420"	-3195
>'"-->	-3196
><!--#	-3197
Access	-3198
MsgBox	-3199
RSnake	-3200
ScRipT	-3201
Window	-3202
bWxucz	-3203
digest	-3204
ealert	-3205
filter	-3206
finish	-3207
getOwn	-3208
hacker	-3209
return	-3210
secret	-3211
volume	-3212
xKTwvc	-3213
▁"""><	-3214
▁&#14;	-3215
▁/***/	-3216
▁3=3--	-3217
▁<!--#	-3218
▁<--`<	-3219
▁Allow	-3220
▁CDATA	-3221
▁PRINT	-3222
▁TABLE	-3223
▁grant	-3224
▁where	-3225
%20''='	-3226
')")}</	-3227
(1)')</	-3228
(1)//">	-3229
(1)`()>	-3230
/*--></	-3231
0030003	-3232
0066006	-3233
2027303	-3234
58;&#97	-3235
5;&#112	-3236
;&#039;	-3237
>#00000	-3238
>=&{()}	-3239
Content	-3240
ELEMENT	-3241
REQUEST	-3242
comment	-3243
earners	-3244
orClick	-3245
previou	-3246
referre	-3247
regread	-3248
sqlatte	-3249
sqlvuln	-3250
unusual	-3251
▁"1"="1	-3252
▁&#039;	-3253
▁'`"><\	-3254
▁Active	-3255
▁EXISTS	-3256
▁INSERT	-3257
▁VALUES	-3258
▁applet	-3259
▁dynsrc	-3260
▁identi	-3261
▁isNULL	-3262
▁myfile	-3263
▁onform	-3264
▁onhash	-3265
▁ontime	-3266
▁script	-3267
▁stroke	-3268
!#$%&()*	-3269
';))";>;	-3270
00690074	-3271
;)%22></	-3272
;//--></	-3273
Descript	-3274
formatas	-3275
maliciou	-3276
metadata	-3277
nWFNTJyk	-3278
nslookup	-3279
sSibling	-3280
teleport	-3281
vbmxvYWQ	-3282
vmlframe	-3283
whatever	-3284
▁&#34;&#	-3285
▁Cookies	-3286
▁datafld	-3287
▁datasrc	-3288
▁default	-3289
▁handler	-3290
▁manager	-3291
▁onafter	-3292
▁onended	-3293
▁onpause	-3294
▁sqlvuln	-3295
▁waitfor	-3296
%2529%253	-3297
&#0000101	-3298
&#0000105	-3299
&#0000108	-3300
&#0000115	-3301
("*//*");	-3302
722064656	-3303
=&#000010	-3304
accessKey	-3305
arguments	-3306
fileInput	-3307
innerhtml	-3308
▁"1"="1"#	-3309
▁'';!--"<	-3310
▁'1'='1'#	-3311
▁Function	-3312
▁Location	-3313
▁onfinish	-3314
▁onresize	-3315
▁onseeked	-3316
▁onsubmit	-3317
▁ontoggle	-3318
▁onvolume	-3319
▁onwebkit	-3320
'"--><!--#	-3321
0020004000	-3322
4000760065	-3323
40;&#39;&#	-3324
6&#0000097	-3325
8&#0000097	-3326
=%22404%22	-3327
Descriptor	-3328
childNodes	-3329
javaSCRIPT	-3330
sqlattempt	-3331
▁"1"="1"--	-3332
▁"1"="1"/*	-3333
▁'1'='1'/*	-3334
▁172.10.1.	-3335
▁oninvalid	-3336
▁onseeking	-3337
61792027303	-3338
6;&#97;&#11	-3339
77616974666	-3340
88&#0000083	-3341
99&#0000114	-3342
;&#114;&#10	-3343
Djavascript	-3344
objectclass	-3345
▁'0:0:10'--	-3346
▁identified	-3347
▁tablespace	-3348
(88,83,83))>	-3349
-8859-1"?><!	-3350
006500630074	-3351
007200200064	-3352
;&#108;&#101	-3353
ScriptAccess	-3354
scriptaccess	-3355
▁&#34;&#62;<	-3356
09;&#10;&#11;	-3357
▁dataformatas	-3358
▁onhashchange	-3359
▁onloadeddata	-3360
▁ontimeupdate	-3361
77006100690074	-3362
getOwnProperty	-3363
hbGVydCgxKTwvc	-3364
▁ActiveXObject	-3365
previousSibling	-3366
▁onvolumechange	-3367
hbGVydCgnWFNTJyk	-3368
▁'(.*?)'/)[1])</	-3369
▁172.10.1.255'--	-3370
!!	-3371
'"	-3372
(%	-3373
(2	-3374
*"	-3375
+"	-3376
,_	-3377
-9	-3378
.<	-3379
/"	-3380
/+	-3381
/;	-3382
02	-3383
0:	-3384
1&	-3385
1,	-3386
1-	-3387
21	-3388
37	-3389
4.	-3390
4/	-3391
48	-3392
49	-3393
78	-3394
82	-3395
8_	-3396
;.	-3397
<<	-3398
=?	-3399
AX	-3400
BF	-3401
DD	-3402
DE	-3403
Fj	-3404
HN	-3405
Ig	-3406
KC	-3407
Le	-3408
Ly	-3409
MC	-3410
Nh	-3411
Nt	-3412
PD	-3413
Pj	-3414
Sh	-3415
TU	-3416
Up	-3417
VF	-3418
XN	-3419
XS	-3420
[3	-3421
[{	-3422
\"	-3423
]&	-3424
]:	-3425
_)	-3426
az	-3427
cc	-3428
dC	-3429
dE	-3430
dy	-3431
gE	-3432
iM	-3433
ik	-3434
je	-3435
lu	-3436
nL	-3437
ob	-3438
om	-3439
pl	-3440
po	-3441
sb	-3442
sx	-3443
uk	-3444
vo	-3445
xy	-3446
zI	-3447
zY	-3448
▁$	-3449
▁:	-3450
▁l	-3451
","	-3452
";'	-3453
"?>	-3454
"}}	-3455
$("	-3456
%31	-3457
%75	-3458
%78	-3459
'%(	-3460
'%3	-3461
',{	-3462
';;	-3463
';\	-3464
'>"	-3465
'].	-3466
']=	-3467
(""	-3468
(%(	-3469
('1	-3470
(37	-3471
(47	-3472
(49	-3473
(83	-3474
)%3	-3475
)))	-3476
);$	-3477
+-+	-3478
,!!	-3479
--&	-3480
-->	-3481
/',	-3482
/+/	-3483
0&#	-3484
074	-3485
145	-3486
146	-3487
1],	-3488
203	-3489
20;	-3490
223	-3491
27\	-3492
29'	-3493
39&	-3494
398	-3495
41;	-3496
61&	-3497
63/	-3498
64_	-3499
6;&	-3500
7.0	-3501
74;	-3502
97&	-3503
:">	-3504
:{}	-3505
;&<	-3506
;0;	-3507
;};	-3508
="$	-3509
="6	-3510
=%2	-3511
='&	-3512
='_	-3513
=0;	-3514
=="	-3515
==4	-3516
=`&	-3517
>%(	-3518
>&#	-3519
>')	-3520
>'>	-3521
>+-	-3522
?\/	-3523
Bea	-3524
DEp	-3525
Dow	-3526
ESC	-3527
HRw	-3528
Jpc	-3529
MDA	-3530
NER	-3531
OME	-3532
Out	-3533
Pro	-3534
Sta	-3535
TIT	-3536
Tag	-3537
Tri	-3538
Unc	-3539
Whe	-3540
XLE	-3541
[0]	-3542
[2]	-3543
\0\	-3544
]">	-3545
_="	-3546
als	-3547
ape	-3548
aux	-3549
bus	-3550
cal	-3551
dGl	-3552
dWV	-3553
dif	-3554
equ	-3555
iIH	-3556
ign	-3557
ile	-3558
jAv	-3559
jAw	-3560
led	-3561
lem	-3562
mdW	-3563
mem	-3564
nPg	-3565
off	-3566
sBy	-3567
sVg	-3568
sli	-3569
ssi	-3570
ssl	-3571
the	-3572
tim	-3573
try	-3574
ube	-3575
umn	-3576
usl	-3577
ust	-3578
vbs	-3579
vic	-3580
xBF	-3581
xyz	-3582
zdm	-3583
}};	-3584
▁'1	-3585
▁);	-3586
▁*\	-3587
▁*{	-3588
▁1,	-3589
▁1<	-3590
▁28	-3591
▁3.	-3592
▁40	-3593
▁==	-3594
▁>;	-3595
▁FF	-3596
▁OM	-3597
▁On	-3598
▁Re	-3599
▁St	-3600
▁Up	-3601
▁\&	-3602
▁`<	-3603
▁aa	-3604
▁da	-3605
▁fo	-3606
▁it	-3607
"?><	-3608
%20=	-3609
&#34	-3610
'%><	-3611
'(.*	-3612
')()	-3613
');>	-3614
'></	-3615
(1)'	-3616
(1)-	-3617
(2)>	-3618
)%22	-3619
)'">	-3620
)></	-3621
+-1-	-3622
+></	-3623
0058	-3624
0077	-3625
1;&#	-3626
28&#	-3627
2867	-3628
41;>	-3629
42.0	-3630
4></	-3631
66.0	-3632
7)</	-3633
97;&	-3634
:-)>	-3635
:///	-3636
;&&<	-3637
;)}&	-3638
;};>	-3639
="';	-3640
="/"	-3641
="12	-3642
="50	-3643
=&#1	-3644
=<><	-3645
==2)	-3646
>#11	-3647
>/*<	-3648
>//&	-3649
Bfff	-3650
Blur	-3651
Bxhr	-3652
Cxsl	-3653
Down	-3654
EFER	-3655
Hide	-3656
Jywg	-3657
KDEp	-3658
RegE	-3659
Show	-3660
Trig	-3661
VENT	-3662
VFdm	-3663
[3].	-3664
](1)	-3665
]-->	-3666
]]</	-3667
abla	-3668
allb	-3669
angu	-3670
auto	-3671
bWVu	-3672
feed	-3673
find	-3674
full	-3675
iaHR	-3676
info	-3677
init	-3678
jdGl	-3679
lypo	-3680
none	-3681
void	-3682
yout	-3683
▁");	-3684
▁%27	-3685
▁%64	-3686
▁--\	-3687
▁11.	-3688
▁1=2	-3689
▁302	-3690
▁30;	-3691
▁MAX	-3692
▁MIN	-3693
▁SET	-3694
▁UPD	-3695
▁aaa	-3696
▁all	-3697
▁end	-3698
▁get	-3699
▁sub	-3700
▁tag	-3701
▁try	-3702
▁uid	-3703
▁use	-3704
▁utf	-3705
▁xpe	-3706
▁{{'	-3707
▁});	-3708
▁}</	-3709
";)>;	-3710
%22%3	-3711
%65%2	-3712
%77%2	-3713
&#104	-3714
&#108	-3715
&#109	-3716
&#121	-3717
&#97:	-3718
')></	-3719
';)>;	-3720
(%22<	-3721
(){};	-3722
([1],	-3723
);//<	-3724
,&#60	-3725
,116,	-3726
.102.	-3727
/');>	-3728
/)></	-3729
00007	-3730
0027\	-3731
0061'	-3732
0073.	-3733
0074(	-3734
102.0	-3735
146.0	-3736
203">	-3737
29'</	-3738
36;&#	-3739
61&;#	-3740
64_,<	-3741
6;&;#	-3742
72;&#	-3743
74;&#	-3744
83"><	-3745
:'[].	-3746
://66	-3747
;!--&	-3748
;#10;	-3749
;);//	-3750
=";0;	-3751
>"></	-3752
AsCrI	-3753
ELETE	-3754
Image	-3755
JpcHQ	-3756
LLATE	-3757
Leave	-3758
Resol	-3759
Start	-3760
TITLE	-3761
Uncau	-3762
Wheel	-3763
\0028	-3764
]]<![	-3765
areon	-3766
blein	-3767
catch	-3768
ecute	-3769
endif	-3770
files	-3771
green	-3772
hover	-3773
iness	-3774
jAiIH	-3775
logic	-3776
place	-3777
scode	-3778
slice	-3779
vcmcv	-3780
▁""="	-3781
▁--><	-3782
▁/=%2	-3783
▁4]><	-3784
▁=">"	-3785
▁=_="	-3786
▁DESC	-3787
▁Here	-3788
▁Over	-3789
▁Redi	-3790
▁SOME	-3791
▁aaaa	-3792
▁link	-3793
▁mask	-3794
▁null	-3795
▁onBe	-3796
")';</	-3797
";)<;/	-3798
%26%26	-3799
%28%22	-3800
%28%29	-3801
%28%31	-3802
&#61&#	-3803
'));">	-3804
(1)"/>	-3805
(1)<;/	-3806
)//"><	-3807
,101,1	-3808
.1027\	-3809
00&#97	-3810
00074;	-3811
0061%6	-3812
074,&#	-3813
111398	-3814
:{}});	-3815
;#97;&	-3816
;&;#10	-3817
;1&#41	-3818
=">'>"	-3819
='100'	-3820
=//14.	-3821
>;";>;	-3822
Beacon	-3823
Ealert	-3824
IMGSRC	-3825
Motion	-3826
RegExp	-3827
VFdmVu	-3828
\0065\	-3829
blabla	-3830
column	-3831
config	-3832
equals	-3833
fullsc	-3834
member	-3835
onpage	-3836
passwd	-3837
quired	-3838
sByTag	-3839
scRipt	-3840
usline	-3841
victim	-3842
▁"'`><	-3843
▁'"></	-3844
▁DEFER	-3845
▁INNER	-3846
▁Mouse	-3847
▁color	-3848
▁count	-3849
▁langu	-3850
▁match	-3851
▁onPop	-3852
▁onaux	-3853
▁onpop	-3854
▁uname	-3855
%20=%20	-3856
&#62&#8	-3857
');//">	-3858
(1);></	-3859
(1);}</	-3860
*//*/*/	-3861
+-1-+-+	-3862
0058.10	-3863
0061;&#	-3864
0065;&#	-3865
0072;&#	-3866
0074('\	-3867
102.014	-3868
34&#104	-3869
6.0007.	-3870
:\0075\	-3871
;&;#10;	-3872
="1000"	-3873
AsCrIpT	-3874
ClickMe	-3875
Fscript	-3876
Install	-3877
Trigger	-3878
XMLHTTP	-3879
allbrow	-3880
itworks	-3881
jection	-3882
lypossi	-3883
siteyou	-3884
through	-3885
valueOf	-3886
xsstest	-3887
youtube	-3888
▁<%<!--	-3889
▁DELETE	-3890
▁Safari	-3891
▁UPDATE	-3892
▁aaaaaa	-3893
▁method	-3894
▁onBlur	-3895
▁onshow	-3896
▁usemap	-3897
&#34&#62	-3898
&#47&#47	-3899
&#60&#47	-3900
')");}</	-3901
(1)//"}}	-3902
(1)`()'>	-3903
(1)`()}}	-3904
(1337)</	-3905
00000223	-3906
000070&#	-3907
0061')</	-3908
0072\006	-3909
0074\003	-3910
>#000011	-3911
Resolver	-3912
Uncaught	-3913
business	-3914
fileName	-3915
filename	-3916
onchrome	-3917
referrer	-3918
▁COLLATE	-3919
▁aaaaaaa	-3920
▁astNode	-3921
▁execute	-3922
▁onStart	-3923
▁onreset	-3924
▁onwheel	-3925
▁worksin	-3926
%2520%253	-3927
&#0000112	-3928
&#102&#97	-3929
&#111&#46	-3930
&#112&#58	-3931
&#114&#99	-3932
&#116&#47	-3933
&#121&#46	-3934
&#32&#115	-3935
&;#000010	-3936
0000066.0	-3937
0027\0029	-3938
0074\0028	-3939
6&;#00000	-3940
://%77%77	-3941
://111398	-3942
==4%26%26	-3943
\0061\006	-3944
cloneNode	-3945
variables	-3946
▁Redirect	-3947
▁aaaaaaaa	-3948
▁frameset	-3949
▁language	-3950
▁onBefore	-3951
▁onsearch	-3952
▁required	-3953
&#101&#114	-3954
&#102&#111	-3955
&#105&#108	-3956
&#106&#115	-3957
&#115&#116	-3958
&#116&#116	-3959
&#116&#97:	-3960
&#40;1&#41	-3961
';)";>;<;/	-3962
(1)//');}}	-3963
.102.7.147	-3964
0061')"></	-3965
0061\0073\	-3966
0063\0072\	-3967
0069\0070\	-3968
6.000146.0	-3969
;#0000097&	-3970
=&#100&#97	-3971
>+-+-1-+-+	-3972
ScriptType	-3973
bleinopera	-3974
brutelogic	-3975
deleteuser	-3976
fullscreen	-3977
jAvAsCrIpT	-3978
lineNumber	-3979
sByTagName	-3980
sendBeacon	-3981
statusline	-3982
thesiteyou	-3983
victimsite	-3984
▁Standards	-3985
▁itworksin	-3986
▁onMouseUp	-3987
▁onlypossi	-3988
▁onmessage	-3989
▁onplaying	-3990
▁worksinIE	-3991
%28%31%29%3	-3992
%65%72%74(/	-3993
00000072;&#	-3994
58&#0000097	-3995
8;&#97;&#11	-3996
://0102.014	-3997
Aexpression	-3998
YWxlcnQoMSk	-3999
YWxlcnQoMik	-4000
\0061\0076\	-4001
\0065\0072\	-4002
allbrowsers	-4003
createEvent	-4004
somecommand	-4005
▁<%<!--'%><	-4006
▁aaaaaaaaaa	-4007
▁actiontype	-4008
▁onMouseOut	-4009
▁onPageHide	-4010
▁onPageShow	-4011
▁onPopState	-4012
▁onauxclick	-4013
▁onpopstate	-4014
▁{{{}.")));	-4015
&#62&#8203">	-4016
(88,83,83))&	-4017
00074;(1)></	-4018
;&#39;&#41;>	-4019
businessinfo	-4020
columnNumber	-4021
▁constructor	-4022
▁onMouseDown	-4023
&#61&#34&#104	-4024
.1027\0058.10	-4025
://1113982867	-4026
animateMotion	-4027
maliciouscode	-4028
somevariables	-4029
▁onMouseLeave	-4030
▁onMouseWheel	-4031
▁onafterprint	-4032
&#102&#97&#109	-4033
0053\0027\0029	-4034
://%77%77%77%2	-4035
InstallTrigger	-4036
▁onbeforeprint	-4037
(88,83,83))//";	-4038
6.0007.00000223	-4039
://66.102.7.147	-4040
:\0075\0072\006	-4041
;&#114;&#116;&#	-4042
itworksonchrome	-4043
thesiteyouareon	-4044
▁onBeforeUnload	-4045
&#0000115&#00000	-4046
&#34&#62&#60&#47	-4047
5;&#112;&#116;&#	-4048
=&#106;&#97;&#11	-4049
animatetransform	-4050
".	-4051
"@	-4052
&"	-4053
&'	-4054
'&	-4055
'+	-4056
'6	-4057
'<	-4058
($	-4059
(6	-4060
(<	-4061
(`	-4062
)+	-4063
)\	-4064
*'	-4065
++	-4066
+<	-4067
,$	-4068
,&	-4069
-5	-4070
/#	-4071
/\	-4072
0%	-4073
03	-4074
05	-4075
07	-4076
08	-4077
19	-4078
1;	-4079
2=	-4080
2}	-4081
3/	-4082
4&	-4083
43	-4084
45	-4085
57	-4086
7"	-4087
7&	-4088
7}	-4089
8&	-4090
8,	-4091
8.	-4092
9&	-4093
9,	-4094
:/	-4095
:<	-4096
;@	-4097
;[	-4098
;`	-4099
$=	-4100
,%	-4101
>*	-4102
>0	-4103
>>	-4104
AB	-4105
AE	-4106
AK	-4107
AQ	-4108
AV	-4109
Ab	-4110
Ao	-4111
Bi	-4112
CD	-4113
CI	-4114
Fi	-4115
Fk	-4116
Fs	-4117
GJ	-4118
GV	-4119
HM	-4120
Hk	-4121
IC	-4122
Ii	-4123
Ix	-4124
Ju	-4125
Ms	-4126
Mu	-4127
Mz	-4128
OP	-4129
TS	-4130
TW	-4131
Ti	-4132
UA	-4133
UM	-4134
UP	-4135
Un	-4136
VU	-4137
Vt	-4138
XY	-4139
\&	-4140
\6	-4141
]"	-4142
]$	-4143
]/	-4144
bi	-4145
cG	-4146
dA	-4147
db	-4148
fe	-4149
fr	-4150
fy	-4151
ga	-4152
gb	-4153
gi	-4154
ip	-4155
mL	-4156
mU	-4157
nF	-4158
nS	-4159
oJ	-4160
oN	-4161
of	-4162
qt	-4163
sC	-4164
tw	-4165
tz	-4166
xM	-4167
yA	-4168
zM	-4169
}]	-4170
▁6	-4171
▁_	-4172
"")	-4173
"'%	-4174
"/*	-4175
">0	-4176
#">	-4177
#0=	-4178
%03	-4179
%68	-4180
&&>	-4181
'")	-4182
'%2	-4183
').	-4184
':'	-4185
'];	-4186
(&+	-4187
('/	-4188
(("	-4189
(1,	-4190
(15	-4191
(30	-4192
(45	-4193
(97	-4194
(\&	-4195
(_.	-4196
))"	-4197
);&	-4198
)='	-4199
0'	-4200
%09	-4201
&1>	-4202
){_	-4203
)};	-4204
*/<	-4205
*/>	-4206
*3+	-4207
+='	-4208
+==	-4209
,1;	-4210
-11	-4211
-3+	-4212
-56	-4213
.%2	-4214
/%3	-4215
/*&	-4216
0',	-4217
00/	-4218
00;	-4219
00=	-4220
00>	-4221
09-	-4222
09=	-4223
1);	-4224
10,	-4225
11/	-4226
11\	-4227
169	-4228
2">	-4229
234	-4230
273	-4231
28&	-4232
333	-4233
39%	-4234
3=>	-4235
4+,	-4236
400	-4237
41\	-4238
45\	-4239
49;	-4240
4;&	-4241
5-8	-4242
52\	-4243
53&	-4244
53\	-4245
54\	-4246
598	-4247
5;&	-4248
6-9	-4249
61)	-4250
61;	-4251
7%2	-4252
74&	-4253
80-	-4254
81\	-4255
83&	-4256
8;&	-4257
96\	-4258
99,	-4259
:";	-4260
:*/	-4261
:[_	-4262
;)`	-4263
;.&	-4264
;1.	-4265
;1/	-4266
;><	-4267
;["	-4268
;[\	-4269
;\&	-4270
="'	-4271
="-	-4272
="7	-4273
="[	-4274
="]	-4275
="_	-4276
=1;	-4277
=1>	-4278
=1}	-4279
=\'	-4280
>#<	-4281
>*{	-4282
>/<	-4283
>;@	-4284
>\<	-4285
>{-	-4286
ABC	-4287
ADz	-4288
AEf	-4289
AGO	-4290
AHM	-4291
AKQ	-4292
AQu	-4293
ATT	-4294
AVA	-4295
AbA	-4296
Abg	-4297
AdA	-4298
Bob	-4299
+4	-4300
eg	-4301
hs	-4302
(89	-4303
){}	-4304
+'/	-4305
04-	-4306
1].	-4307
2)%	-4308
27&	-4309
58&	-4310
657	-4311
927	-4312
:'(	-4313
;![	-4314
;>&	-4315
AGU	-4316
Bou	-4317
DDC	-4318
ERS	-4319
FkP	-4320
GJv	-4321
Hel	-4322
Hit	-4323
IHR	-4324
ITH	-4325
JnL	-4326
KCl	-4327
Laz	-4328
Moz	-4329
Nvb	-4330
OUP	-4331
PSB	-4332
Pjx	-4333
RAM	-4334
Ref	-4335
Rle	-4336
RvY	-4337
Sym	-4338
TUx	-4339
The	-4340
UmV	-4341
Una	-4342
XSL	-4343
Xxx	-4344
[*/	-4345
[[[	-4346
\";	-4347
\28	-4348
\><	-4349
]';	-4350
],'	-4351
]=[	-4352
]]<	-4353
_('	-4354
``>	-4355
aHI	-4356
alh	-4357
ans	-4358
ati	-4359
ato	-4360
aut	-4361
beh	-4362
bol	-4363
bou	-4364
cpa	-4365
cud	-4366
dat	-4367
een	-4368
elt	-4369
eri	-4370
ery	-4371
exp	-4372
fet	-4373
gra	-4374
has	-4375
hex	-4376
hoc	-4377
ibi	-4378
igh	-4379
ill	-4380
inj	-4381
iou	-4382
its	-4383
ive	-4384
jqu	-4385
ldk	-4386
les	-4387
loc	-4388
mac	-4389
mbe	-4390
mps	-4391
noS	-4392
nth	-4393
ora	-4394
ord	-4395
pIH	-4396
pag	-4397
pam	-4398
res	-4399
{[	-4400
)'/	-4401
);"	-4402
+17	-4403
29;	-4404
460	-4405
>"`	-4406
???	-4407
]]&	-4408
num	-4409
roc	-4410
rpr	-4411
rsi	-4412
rta	-4413
ryE	-4414
sCR	-4415
sid	-4416
srC	-4417
srv	-4418
ted	-4419
tor	-4420
uch	-4421
ulk	-4422
ups	-4423
vau	-4424
vel	-4425
vis	-4426
wap	-4427
wml	-4428
xBB	-4429
yDo	-4430
zIw	-4431
}+"	-4432
}]{	-4433
▁"-	-4434
▁%7	-4435
▁&<	-4436
▁&{	-4437
▁'>	-4438
▁()	-4439
▁,@	-4440
▁/"	-4441
▁/,	-4442
▁21	-4443
▁23	-4444
▁26	-4445
▁29	-4446
▁??	-4447
▁DR	-4448
▁GC	-4449
▁GR	-4450
▁LE	-4451
▁OS	-4452
▁RA	-4453
▁RC	-4454
▁[\	-4455
▁ac	-4456
▁ar	-4457
▁cl	-4458
▁di	-4459
▁fa	-4460
▁im	-4461
▁le	-4462
▁ne	-4463
▁ob	-4464
▁po	-4465
▁qu	-4466
▁tz	-4467
▁{}	-4468
▁})	-4469
▁}+	-4470
!--#	-4471
!--[	-4472
"/+/	-4473
";);	-4474
";)}	-4475
"=""	-4476
"="&	-4477
"><!	-4478
">><	-4479
$){_	-4480
%20*	-4481
%20{	-4482
%22/	-4483
%22;	-4484
%255	-4485
%80%	-4486
&#09	-4487
&#39	-4488
')%3	-4489
')/*	-4490
');+	-4491
';>;	-4492
'>//	-4493
'}].	-4494
(%64	-4495
(''.	-4496
());	-4497
()</	-4498
(){}	-4499
&;	-4500
01	-4501
AR	-4502
Mn	-4503
es	-4504
,0,	-4505
-7"	-4506
23-	-4507
39;	-4508
6">	-4509
72&	-4510
:02	-4511
ADE	-4512
ALT	-4513
WFs	-4514
\\<	-4515
dHA	-4516
une	-4517
unh	-4518
xdr	-4519
'1=1	-4520
('&#	-4521
(-3+	-4522
(0%0	-4523
(0)"	-4524
(22)	-4525
(41)	-4526
(\";	-4527
)'%3	-4528
))%7	-4529
))))	-4530
))</	-4531
)+{}	-4532
).$=	-4533
);}}	-4534
)='7	-4535
)\20	-4536
)}</	-4537
)}};	-4538
,0:'	-4539
,114	-4540
,1</	-4541
,[{}	-4542
--%3	-4543
--><	-4544
..."	-4545
._('	-4546
/)</	-4547
//'>	-4548
/></	-4549
0073	-4550
0079	-4551
10.0	-4552
110;	-4553
12-4	-4554
123'	-4555
13;<	-4556
1450	-4557
17-4	-4558
2").	-4559
2',+	-4560
2'--	-4561
2040	-4562
29;"	-4563
2}';	-4564
3"><	-4565
3488	-4566
39;&	-4567
4076	-4568
41%2	-4569
41);	-4570
509-	-4571
6374	-4572
72),	-4573
83;&	-4574
93;"	-4575
:%20	-4576
://6	-4577
:333	-4578
:[].	-4579
;#1;	-4580
;%20	-4581
;%26	-4582
;&;{	-4583
;)&#	-4584
;)}\	-4585
;--&	-4586
;:&#	-4587
;;//	-4588
;=&#	-4589
;[1]	-4590
="#"	-4591
="%2	-4592
="/.	-4593
="/\	-4594
="1>	-4595
="20	-4596
="40	-4597
=";/	-4598
="\\	-4599
0-	-4600
5&	-4601
696	-4602
=%5	-4603
Que	-4604
SHI	-4605
iai	-4606
sct	-4607
yBY	-4608
,108	-4609
0031	-4610
1").	-4611
2,97	-4612
7">&	-4613
7055	-4614
="``	-4615
=#><	-4616
=$,_	-4617
='+/	-4618
='0'	-4619
=1--	-4620
=100	-4621
==">	-4622
=></	-4623
=@"/	-4624
=``&	-4625
={};	-4626
>%22	-4627
>'%2	-4628
>''<	-4629
>/</	-4630
>1</	-4631
>;</	-4632
>]]>	-4633
AcgA	-4634
Anch	-4635
Ared	-4636
Brow	-4637
ByAG	-4638
CTRL	-4639
Fsvg	-4640
Hkgb	-4641
INCT	-4642
Iden	-4643
Java	-4644
LIST	-4645
Lick	-4646
NDOM	-4647
PGJv	-4648
PSIx	-4649
Sale	-4650
Test	-4651
Time	-4652
UmVx	-4653
YXIg	-4654
[1]+	-4655
[2]+	-4656
[<]]	-4657
[]/+	-4658
[{}@	-4659
\');	-4660
\27\	-4661
\></	-4662
]$';	-4663
answ	-4664
arke	-4665
atie	-4666
atob	-4667
auth	-4668
bGlu	-4669
card	-4670
cert	-4671
ckup	-4672
dWVz	-4673
dome	-4674
else	-4675
erhe	-4676
fier	-4677
flow	-4678
gPSB	-4679
glow	-4680
hoci	-4681
ifra	-4682
illa	-4683
inct	-4684
inst	-4685
jack	-4686
javA	-4687
lder	-4688
licy	-4689
lity	-4690
loaD	-4691
logo	-4692
loit	-4693
lose	-4694
mpeg	-4695
nFox	-4696
nect	-4697
oche	-4698
ogle	-4699
olum	-4700
pgno	-4701
rage	-4702
ream	-4703
riPt	-4704
role	-4705
sans	-4706
semi	-4707
sgTE	-4708
simp	-4709
sort	-4710
srpr	-4711
sxvc	-4712
ting	-4713
tpub	-4714
uate	-4715
updb	-4716
vbig	-4717
yDog	-4718
ysql	-4719
zMub	-4720
};</	-4721
▁"81	-4722
▁">/	-4723
▁#[_	-4724
▁%21	-4725
▁%26	-4726
▁%28	-4727
▁%29	-4728
▁'"=	-4729
▁');	-4730
▁'81	-4731
▁'='	-4732
▁(""	-4733
▁(1,	-4734
▁(2,	-4735
▁));	-4736
▁*/*	-4737
▁--"	-4738
▁//*	-4739
▁//<	-4740
▁1'1	-4741
▁1);	-4742
▁1/*	-4743
▁1;(	-4744
▁20;	-4745
▁40;	-4746
▁5-0	-4747
▁5-9	-4748
▁5.0	-4749
▁6-9	-4750
▁:[_	-4751
▁FOR	-4752
▁OFF	-4753
▁XOR	-4754
▁\"<	-4755
▁asc	-4756
▁dis	-4757
▁eff	-4758
▁fcc	-4759
▁low	-4760
▁max	-4761
▁min	-4762
▁onc	-4763
▁one	-4764
▁onp	-4765
▁sel	-4766
▁set	-4767
▁tru	-4768
▁uni	-4769
▁vau	-4770
▁wap	-4771
▁you	-4772
""=""	-4773
"'%;)	-4774
");//	-4775
";);}	-4776
%2526	-4777
%65%4	-4778
%69%6	-4779
%74%2	-4780
%75%6	-4781
&#00;	-4782
&#039	-4783
&#09;	-4784
&#32;	-4785
&#58;	-4786
'")`>	-4787
'%252	-4788
')\">	-4789
')}">	-4790
',+'/	-4791
'](1)	-4792
'](8)	-4793
())</	-4794
()></	-4795
(1)%2	-4796
(1)))	-4797
(1)/.	-4798
(1);'	-4799
(1)}}	-4800
(10),	-4801
(110,	-4802
(15),	-4803
(37);	-4804
));</	-4805
);"/>	-4806
);"><	-4807
**/</	-4808
*3+9/	-4809
+()+{	-4810
+4)+{	-4811
,115,	-4812
,[{}]	-4813
/"></	-4814
/**/=	-4815
///><	-4816
00006	-4817
0022\	-4818
0052\	-4819
0066\	-4820
00;&#	-4821
00;</	-4822
09;;>	-4823
0:#0=	-4824
10.10	-4825
1455\	-4826
2"></	-4827
2%22,	-4828
20,11	-4829
23"><	-4830
27"><	-4831
27&;#	-4832
29"><	-4833
29;">	-4834
30"><	-4835
31;&#	-4836
32;&#	-4837
37;&#	-4838
4-460	-4839
4000)	-4840
43;&#	-4841
47,11	-4842
49;')	-4843
53&;#	-4844
64,%(	-4845
69;&#	-4846
7">&<	-4847
70;&#	-4848
72&;#	-4849
73;&#	-4850
74&;#	-4851
75598	-4852
9&11/	-4853
91;&#	-4854
:..."	-4855
;!--#	-4856
;";&#	-4857
;#14;	-4858
;&&<&	-4859
;';">	-4860
;';&#	-4861
;(1)>	-4862
;);}&	-4863
;{()}	-4864
="%><	-4865
="0.3	-4866
="10"	-4867
=";//	-4868
="[[[	-4869
="]><	-4870
='?><	-4871
='\\<	-4872
=1/+/	-4873
=1></	-4874
=="&#	-4875
=\"0;	-4876
>'>">	-4877
><![<	-4878
>\";'	-4879
ABDDC	-4880
APABi	-4881
AbABl	-4882
AdAAo	-4883
Adata	-4884
Async	-4885
Atype	-4886
Blbig	-4887
Bound	-4888
Ctype	-4889
Dtype	-4890
Etype	-4891
Firef	-4892
Ftype	-4893
Hello	-4894
IdHRw	-4895
Jumps	-4896
MDAvc	-4897
MnKTt	-4898
Msxml	-4899
PARAM	-4900
PjxzY	-4901
Press	-4902
Queue	-4903
RleHQ	-4904
SHIFT	-4905
Sales	-4906
UNION	-4907
Units	-4908
[1]);	-4909
\")</	-4910
]";>;	-4911
]]"><	-4912
aeiou	-4913
async	-4914
check	-4915
chend	-4916
dCgpO	-4917
diate	-4918
dispa	-4919
ected	-4920
edure	-4921
email	-4922
eries	-4923
farsi	-4924
fetch	-4925
filte	-4926
first	-4927
forms	-4928
forum	-4929
googl	-4930
imgur	-4931
iting	-4932
jAwMC	-4933
kePop	-4934
ldyBY	-4935
ledre	-4936
maskF	-4937
mbers	-4938
mhtml	-4939
movie	-4940
mtext	-4941
namee	-4942
names	-4943
ncate	-4944
olicy	-4945
omize	-4946
orary	-4947
pIHsg	-4948
radio	-4949
reset	-4950
right	-4951
rsite	-4952
scape	-4953
stamp	-4954
tween	-4955
users	-4956
vents	-4957
viour	-4958
while	-4959
zdmci	-4960
▁"'`>	-4961
▁"));	-4962
▁%20'	-4963
▁%253	-4964
▁';';	-4965
▁)%20	-4966
▁1234	-4967
▁3.10	-4968
▁<///	-4969
▁>"><	-4970
▁DIST	-4971
▁DROP	-4972
▁JAVA	-4973
▁LEFT	-4974
▁NAME	-4975
▁WITH	-4976
▁[1].	-4977
▁base	-4978
▁best	-4979
▁bulk	-4980
▁cust	-4981
▁desc	-4982
▁dist	-4983
▁elem	-4984
▁fake	-4985
▁feed	-4986
▁full	-4987
▁give	-4988
▁high	-4989
▁host	-4990
▁imme	-4991
▁need	-4992
▁onqt	-4993
▁onst	-4994
▁onwa	-4995
▁pass	-4996
▁proc	-4997
▁sand	-4998
▁sysc	-4999
▁sysu	-5000
▁test	-5001
▁will	-5002
");}</	-5003
$($){_	-5004
%2050'	-5005
%2050)	-5006
%29;%3	-5007
%4039%	-5008
%61%74	-5009
&#09;&	-5010
&#10;&	-5011
&#11;=	-5012
&#61;"	-5013
'),1,1	-5014
';";--	-5015
';);//	-5016
';)<;/	-5017
';;<;/	-5018
(&#39;	-5019
()%253	-5020
());};	-5021
(),1,1	-5022
(-3+5,	-5023
(1)">'	-5024
(1)"].	-5025
(1))%7	-5026
(1);/*	-5027
(8)>"@	-5028
)(1)'>	-5029
);";>;	-5030
,0:'__	-5031
/&#13;	-5032
0074&#	-5033
1);[].	-5034
123'))	-5035
169-56	-5036
270000	-5037
273696	-5038
39;&;#	-5039
656374	-5040
7&(1)&	-5041
83;&;#	-5042
999999	-5043
:&#13;	-5044
;");</	-5045
;#39;&	-5046
;#83;&	-5047
;&#13;	-5048
;&;#97	-5049
;(1)</	-5050
;);//&	-5051
;//<</	-5052
="--><	-5053
="0.0"	-5054
=="></	-5055
=@&#32	-5056
>">'><	-5057
>*[{}@	-5058
>/***/	-5059
>;<;![	-5060
ADEAKQ	-5061
AGUAcg	-5062
AQuick	-5063
ERSECT	-5064
FkPWFs	-5065
IHhoci	-5066
Identi	-5067
IjAiIH	-5068
JnLzIw	-5069
KDEpPg	-5070
Refere	-5071
SwgdHJ	-5072
Symbol	-5073
TheLaz	-5074
UnaryE	-5075
]{2}';	-5076
__'}].	-5077
aalert	-5078
action	-5079
addsrv	-5080
alhost	-5081
anceof	-5082
bWVudC	-5083
bounce	-5084
callee	-5085
erhere	-5086
genera	-5087
getPro	-5088
gohttp	-5089
images	-5090
indows	-5091
ingBox	-5092
jquery	-5093
marker	-5094
modify	-5095
noSuch	-5096
offset	-5097
olumns	-5098
overta	-5099
pointe	-5100
proche	-5101
sCriPt	-5102
search	-5103
setter	-5104
simple	-5105
stener	-5106
stream	-5107
tabase	-5108
unhand	-5109
vcmcvM	-5110
visibi	-5111
weight	-5112
xtmenu	-5113
▁%20$(	-5114
▁&#111	-5115
▁&#13;	-5116
▁'">><	-5117
▁')%20	-5118
▁'7659	-5119
▁<!--<	-5120
▁<![><	-5121
▁ALTER	-5122
▁EVENT	-5123
▁Error	-5124
▁GROUP	-5125
▁OnXxx	-5126
▁VALUE	-5127
▁\";<;	-5128
▁disks	-5129
▁email	-5130
▁image	-5131
▁input	-5132
▁level	-5133
▁limit	-5134
▁login	-5135
▁mysql	-5136
▁order	-5137
";)}<;/	-5138
%22--%3	-5139
%27';">	-5140
%80%80%	-5141
&#61;&#	-5142
'(.*)'/	-5143
'='7659	-5144
'](8)")	-5145
(&#039;	-5146
(0%0)</	-5147
(1));">	-5148
(1)//'>	-5149
(1)>'</	-5150
(110,46	-5151
(41)></	-5152
(45))))	-5153
(47,101	-5154
(49))</	-5155
(88)"/>	-5156
(88)'%3	-5157
(89)"/>	-5158
)/**/</	-5159
)//"></	-5160
+='';</	-5161
.%241);	-5162
/404%22	-5163
0069006	-5164
04-0080	-5165
29;"/*/	-5166
4076657	-5167
61)')</	-5168
:*/=1--	-5169
;">]]</	-5170
;#114;&	-5171
;#116;&	-5172
;&#110;	-5173
;&;#114	-5174
;'&#41;	-5175
;/*')">	-5176
<!--]]<	-5177
="&#106	-5178
>%22)};	-5179
><!--</	-5180
ATTLIST	-5181
BEalert	-5182
DataURL	-5183
Firefox	-5184
JywgdHJ	-5185
Mozilla	-5186
OnMouse	-5187
Timeout	-5188
[*/[]/+	-5189
__']],'	-5190
__('0',	-5191
bWxuczp	-5192
cesskey	-5193
charset	-5194
clickme	-5195
console	-5196
cpasgTE	-5197
cudzMub	-5198
feImage	-5199
foreign	-5200
hasInst	-5201
inetpub	-5202
jacking	-5203
onevent	-5204
ontimer	-5205
rchange	-5206
ression	-5207
wwwroot	-5208
}+"")</	-5209
▁"'`><\	-5210
▁%27%20	-5211
▁&#13;<	-5212
▁(4000)	-5213
▁(8000)	-5214
▁1=1--"	-5215
▁3=3--"	-5216
▁BACKUP	-5217
▁OFFSET	-5218
▁RANDOM	-5219
▁create	-5220
▁delete	-5221
▁effect	-5222
▁folder	-5223
▁object	-5224
▁onrate	-5225
▁poster	-5226
▁update	-5227
▁vaules	-5228
▁wapiti	-5229
"'%;)(&+	-5230
");//<</	-5231
";);}<;/	-5232
%22,%22/	-5233
%63%75%6	-5234
&#40;'&#	-5235
(1)"&#11	-5236
(1)')()>	-5237
(1)');}}	-5238
(1);"></	-5239
(8000))"	-5240
*3+9/3=>	-5241
+==+4)+{	-5242
,116,99,	-5243
/#0#/#0#	-5244
/404%22;	-5245
00200027	-5246
00610079	-5247
00720073	-5248
1450')/*	-5249
31302700	-5250
77616974	-5251
:/*--></	-5252
:1,0:'__	-5253
;&#09;;>	-5254
;&#47;">	-5255
;;&#039;	-5256
="1"/></	-5257
="1.0"?>	-5258
="999999	-5259
={}[['__	-5260
>">123</	-5261
>(123)</	-5262
>({0:#0=	-5263
ACAAPABi	-5264
AGEAbABl	-5265
AHIAdAAo	-5266
BrownFox	-5267
TUxIdHRw	-5268
UmVxdWVz	-5269
addlogin	-5270
argument	-5271
arketing	-5272
backupdb	-5273
checkbox	-5274
dispatch	-5275
htmlfile	-5276
injected	-5277
ipconfig	-5278
javapgno	-5279
jdGlvbig	-5280
kePopups	-5281
nceError	-5282
operator	-5283
overflow	-5284
postdome	-5285
protocol	-5286
scriptex	-5287
serverse	-5288
showshow	-5289
simpatie	-5290
sysadmin	-5291
totypeOf	-5292
versione	-5293
wapforum	-5294
yoursite	-5295
▁&#00;</	-5296
▁&#32;><	-5297
▁'1'='1'	-5298
▁("1"="1	-5299
▁CLASSID	-5300
▁Windows	-5301
▁between	-5302
▁connect	-5303
▁console	-5304
▁exploit	-5305
▁marquee	-5306
▁members	-5307
▁onfilte	-5308
▁popover	-5309
▁queries	-5310
▁replace	-5311
▁sandbox	-5312
▁tabname	-5313
!#$%&;()*	-5314
%2520%257	-5315
%2529%257	-5316
&#039;)}\	-5317
'),1,1,1;	-5318
('&#49;')	-5319
(1)");}</	-5320
(1)')()">	-5321
(1)/**/</	-5322
)/)[1])</	-5323
,[{}][0].	-5324
00;&#93;"	-5325
2,97,115,	-5326
61;%26%23	-5327
75598"></	-5328
>')%22></	-5329
Blocation	-5330
JumpsOver	-5331
Transform	-5332
VFdmVudCg	-5333
YWxlcnQoe	-5334
bdocument	-5335
behaviour	-5336
evalAsync	-5337
initEvent	-5338
localhost	-5339
ndocument	-5340
openBlock	-5341
something	-5342
timestamp	-5343
▁10.10.1.	-5344
▁:-(>/**/	-5345
▁DISTINCT	-5346
▁anything	-5347
▁codebase	-5348
▁database	-5349
▁distinct	-5350
▁fakeData	-5351
▁giveansw	-5352
▁observer	-5353
▁onbounce	-5354
▁onpointe	-5355
▁onunhand	-5356
▁resource	-5357
▁sysusers	-5358
▁toString	-5359
▁truncate	-5360
$($){_/**/	-5361
%4039%41%2	-5362
%69%70%74>	-5363
&#116;(1)>	-5364
&;#0000039	-5365
&;#0000083	-5366
&;#0000097	-5367
&;#0000114	-5368
(),1,1)='7	-5369
(1);/*';">	-5370
)/)[1])}};	-5371
/**/1/**/=	-5372
0031003000	-5373
6563742040	-5374
;!--&#09;&	-5375
;#0000039&	-5376
;#0000083&	-5377
;#0000114&	-5378
;#0000116&	-5379
AGUAcgByAG	-5380
Identifier	-5381
JavaScript	-5382
TheLazyDog	-5383
\";;&#039;	-5384
addsrvrole	-5385
asyncQueue	-5386
firstChild	-5387
instanceof	-5388
javAscript	-5389
overtarget	-5390
parentNode	-5391
procheckup	-5392
setTimeout	-5393
visibility	-5394
▁("1"="1"#	-5395
▁('1'='1'#	-5396
▁/**/>/**/	-5397
▁INTERSECT	-5398
▁accesskey	-5399
▁arguments	-5400
▁avascript	-5401
▁bfilename	-5402
▁customize	-5403
▁immediate	-5404
▁onwaiting	-5405
▁procedure	-5406
▁standards	-5407
▁substring	-5408
▁temporary	-5409
';);";>;<;/	-5410
(1)-%27';">	-5411
,101,120,11	-5412
;&;#116;&;#	-5413
AnchorClick	-5414
Bexpression	-5415
BoundingBox	-5416
JnLzIwMDAvc	-5417
OnMouseOver	-5418
createBlock	-5419
hasInstance	-5420
servernamee	-5421
sxvccpasgTE	-5422
sysserverse	-5423
▁("1"="1"--	-5424
▁("1"="1"/*	-5425
▁('1'='1'--	-5426
▁('1'='1'/*	-5427
▁<![<!--]]<	-5428
▁<>"'%;)(&+	-5429
▁JAVASCRIPT	-5430
▁nsResolver	-5431
▁onduration	-5432
▁onprogress	-5433
▁onproperty	-5434
▁ontouchend	-5435
▁syscolumns	-5436
▁tablenames	-5437
&#61;&#91;&#	-5438
(88,83,83));	-5439
400076006500	-5440
=1/+/[*/[]/+	-5441
=@&#32;&#13;	-5442
dataTransfer	-5443
ledrejection	-5444
maskForClick	-5445
noSuchMethod	-5446
parentWindow	-5447
▁/***/>/***/	-5448
▁5-0*3+9/3=>	-5449
▁contextmenu	-5450
▁onforminput	-5451
▁ontouchmove	-5452
▁strokecolor	-5453
(1)"&#11;&#10	-5454
,116,99,47,11	-5455
09;6.000146.0	-5456
1450')/***/</	-5457
4076657273696	-5458
;&#47;&#47;">	-5459
UmVxdWVzdCgpO	-5460
contentWindow	-5461
dispatchEvent	-5462
foreignObject	-5463
jdGlvbigpIHsg	-5464
ldyBYTUxIdHRw	-5465
postdomevents	-5466
scriptexecute	-5467
worksinchrome	-5468
xAFjavascript	-5469
▁&#111;&#110;	-5470
▁'7659'='7659	-5471
▁10.10.1.2'--	-5472
▁dataTransfer	-5473
▁onformchange	-5474
▁onmousewheel	-5475
▁onratechange	-5476
▁ontouchstart	-5477
▁strokeweight	-5478
%2528%2529%253	-5479
(88,83,83))<;/	-5480
/**/$($){_/**/	-5481
00;&#93;"&#00;	-5482
09;&#10;&#11;>	-5483
AHIAdAAoADEAKQ	-5484
AQuickBrownFox	-5485
ReferenceError	-5486
getPrototypeOf	-5487
▁popovertarget	-5488
▁targetElement	-5489
(88,83,83))//--	-5490
(88,83,83))//\&	-5491
/**/1/**/=/**/1	-5492
002000270030003	-5493
007200730069006	-5494
UnaryExpression	-5495
▁giveanswerhere	-5496
▁onfilterchange	-5497
.1027\0058.1053\	-5498
/&#09;&#10;&#11;	-5499
0031003000270000	-5500
aaaaaaaaaaaaaaaa	-5501
addsrvrolemember	-5502
fullscreenchange	-5503
▁&#09;&#10;&#11;	-5504
%8	-5505
1'	-5506
17	-5507
8+	-5508
>1	-5509
Cx	-5510
Dx	-5511
FJ	-5512
Fy	-5513
Jl	-5514
Ry	-5515
SA	-5516
`[	-5517
kK	-5518
lO	-5519
sK	-5520
xD	-5521
}@	-5522
▁Y	-5523
"%2	-5524
"),	-5525
"*"	-5526
"+"	-5527
";}	-5528
">?	-5529
">{	-5530
$='	-5531
%59	-5532
%87	-5533
&#2	-5534
&#4	-5535
&#5	-5536
&&/	-5537
'':	-5538
';}	-5539
($$	-5540
(20	-5541
(27	-5542
(5)	-5543
(56	-5544
(57	-5545
(67	-5546
(68	-5547
(69	-5548
(7)	-5549
(70	-5550
(75	-5551
(94	-5552
)+$	-5553
*/=	-5554
++)	-5555
,%1	-5556
,97	-5557
--!	-5558
/')	-5559
//#	-5560
///	-5561
00"	-5562
00:	-5563
09<	-5564
0:(	-5565
1)\	-5566
16,	-5567
1;&	-5568
1=$	-5569
22>	-5570
2;&	-5571
2\2	-5572
349	-5573
384	-5574
45"	-5575
49,	-5576
5-9	-5577
65;	-5578
8(%	-5579
9%2	-5580
9+,	-5581
98,	-5582
:="	-5583
;&;	-5584
;}#	-5585
<<<	-5586
<`[	-5587
='%	-5588
=1,	-5589
=78	-5590
==1	-5591
=[2	-5592
>""	-5593
>1<	-5594
CBm	-5595
CCI	-5596
CDQ	-5597
CIM	-5598
CRM	-5599
>(	-5600
Ls	-5601
Rs	-5602
rA	-5603
ws	-5604
%%3	-5605
(13	-5606
(17	-5607
(19	-5608
)><	-5609
52,	-5610
77%	-5611
92"	-5612
="(	-5613
="?	-5614
=('	-5615
Bon	-5616
Con	-5617
End	-5618
FrA	-5619
GVp	-5620
Gle	-5621
HAR	-5622
HNl	-5623
HNz	-5624
HOU	-5625
IGh	-5626
IiB	-5627
Iiw	-5628
IpO	-5629
Jod	-5630
KCd	-5631
KGV	-5632
Kin	-5633
LUM	-5634
Lmh	-5635
MCc	-5636
PSc	-5637
RCE	-5638
RIG	-5639
RWx	-5640
Rja	-5641
Ryd	-5642
SIg	-5643
SVg	-5644
TMz	-5645
TUy	-5646
TWV	-5647
Ter	-5648
Uga	-5649
UoJ	-5650
WAR	-5651
WNt	-5652
Wdo	-5653
Wor	-5654
XNl	-5655
XNw	-5656
XSl	-5657
Xty	-5658
You	-5659
[86	-5660
[<!	-5661
[{'	-5662
]>;	-5663
`</	-5664
``]	-5665
aWN	-5666
act	-5667
amF	-5668
ann	-5669
ant	-5670
arS	-5671
ari	-5672
bWU	-5673
cGU	-5674
cha	-5675
cli	-5676
cyA	-5677
dev	-5678
dpt	-5679
fcc	-5680
ffi	-5681
fri	-5682
geG	-5683
haW	-5684
htt	-5685
iBp	-5686
iIC	-5687
iLs	-5688
iew	-5689
jLm	-5690
lNh	-5691
lit	-5692
lle	-5693
lol	-5694
mFt	-5695
mUu	-5696
mly	-5697
nLG	-5698
nTW	-5699
(9	-5700
18	-5701
BV	-5702
UC	-5703
_=	-5704
nR	-5705
tx	-5706
(/@	-5707
(23	-5708
)&#	-5709
+';	-5710
10.	-5711
126	-5712
7),	-5713
='(	-5714
Ctx	-5715
Fra	-5716
cep	-5717
goL	-5718
ndb	-5719
odG	-5720
onT	-5721
our	-5722
sKG	-5723
sor	-5724
svG	-5725
tYX	-5726
tal	-5727
toD	-5728
vIi	-5729
xEE	-5730
xMi	-5731
xOT	-5732
xxe	-5733
yel	-5734
zLm	-5735
zaW	-5736
}']	-5737
}*{	-5738
}={	-5739
▁$$	-5740
▁%6	-5741
▁'#	-5742
▁'.	-5743
▁'=	-5744
▁'_	-5745
▁9,	-5746
▁<"	-5747
▁CR	-5748
▁EX	-5749
▁Ed	-5750
▁Ex	-5751
▁GI	-5752
▁He	-5753
▁Sa	-5754
▁pa	-5755
▁se	-5756
▁up	-5757
▁wa	-5758
";)>	-5759
">&#	-5760
">0<	-5761
$=1,	-5762
%03%	-5763
%08%	-5764
%280	-5765
%87%	-5766
&&>&	-5767
'">{	-5768
')"]	-5769
'));	-5770
')\"	-5771
'/%3	-5772
':['	-5773
'});	-5774
'},0	-5775
(('1	-5776
()',	-5777
(1)}	-5778
(101	-5779
(11)	-5780
(119	-5781
(12)	-5782
(135	-5783
(137	-5784
(146	-5785
(21)	-5786
(30)	-5787
(31)	-5788
(56)	-5789
(62)	-5790
(72)	-5791
(74)	-5792
(97,	-5793
)(1)	-5794
)))<	-5795
));}	-5796
)}),	-5797
,$).	-5798
,%%3	-5799
"?	-5800
%&	-5801
<?	-5802
Fn	-5803
PU	-5804
cn	-5805
nM	-5806
xl	-5807
(%2	-5808
(36	-5809
))(	-5810
-1.	-5811
12!	-5812
;=&	-5813
='#	-5814
='<	-5815
=2>	-5816
>`>	-5817
Aid	-5818
Dia	-5819
FOR	-5820
__(	-5821
abc	-5822
apt	-5823
cnV	-5824
dHR	-5825
gdG	-5826
jPU	-5827
(%27	-5828
(0)}	-5829
,0,8	-5830
."),	-5831
/%%3	-5832
/'%3	-5833
/*'+	-5834
//">	-5835
0,0,	-5836
00){	-5837
0006	-5838
1,2]	-5839
1,99	-5840
10.1	-5841
2%03	-5842
2)</	-5843
2)}@	-5844
3&#4	-5845
4.4.	-5846
45;'	-5847
4=';	-5848
5)%3	-5849
5,99	-5850
5764	-5851
6">+	-5852
6)><	-5853
60+,	-5854
65)"	-5855
7%78	-5856
7&#8	-5857
7)%3	-5858
71)\	-5859
7485	-5860
80))	-5861
89".	-5862
92".	-5863
93".	-5864
:"/*	-5865
:100	-5866
:400	-5867
;(&#	-5868
;)`&	-5869
;28&	-5870
;]]&	-5871
="1"	-5872
="33	-5873
="46	-5874
="47	-5875
="53	-5876
="59	-5877
="60	-5878
="61	-5879
="64	-5880
="71	-5881
="72	-5882
="78	-5883
="80	-5884
="99	-5885
="]]	-5886
="`<	-5887
=%09	-5888
='#\	-5889
='%(	-5890
='//	-5891
=/*&	-5892
=0',	-5893
=0;0	-5894
==1)	-5895
=?><	-5896
>$("	-5897
><>>	-5898
>></	-5899
#[	-5900
'-	-5901
)=	-5902
0>	-5903
Bx	-5904
HO	-5905
KH	-5906
KS	-5907
KV	-5908
Se	-5909
Sw	-5910
am	-5911
ay	-5912
dx	-5913
mN	-5914
xs	-5915
zE	-5916
▁T	-5917
">@	-5918
70&	-5919
73&	-5920
;`>	-5921
JzE	-5922
KHh	-5923
KSB	-5924
Nyk	-5925
ayc	-5926
bmN	-5927
dEJ	-5928
lty	-5929
rsa	-5930
uce	-5931
vKV	-5932
▁TO	-5933
"))>	-5934
,<'>	-5935
126"	-5936
93/&	-5937
="97	-5938
?'':	-5939
AsIG	-5940
Bonj	-5941
CgpO	-5942
Chkb	-5943
Dnew	-5944
Drop	-5945
Dsrc	-5946
ECIM	-5947
GGle	-5948
HNlL	-5949
HOST	-5950
HRwO	-5951
ICco	-5952
IHRy	-5953
IpOz	-5954
JzEw	-5955
KXty	-5956
KinG	-5957
LCAx	-5958
LCAy	-5959
LUMN	-5960
Mari	-5961
MubG	-5962
NXNl	-5963
Ondb	-5964
Onhs	-5965
OnpO	-5966
PScx	-5967
RWxl	-5968
Sele	-5969
Some	-5970
Spam	-5971
TeRe	-5972
UgaH	-5973
VjLm	-5974
WEBV	-5975
WQoJ	-5976
Wdod	-5977
XNwb	-5978
XarS	-5979
[$='	-5980
[0],	-5981
[2],	-5982
\006	-5983
]]>;	-5984
`))>	-5985
`/+/	-5986
aWNr	-5987
aonT	-5988
aycg	-5989
bWUy	-5990
cgeG	-5991
cimg	-5992
clip	-5993
cnVl	-5994
cols	-5995
coor	-5996
dGxl	-5997
dKSB	-5998
deTA	-5999
,[	-6000
2&	-6001
6;	-6002
7;	-6003
=5	-6004
>2	-6005
?]	-6006
Qi	-6007
Wz	-6008
XR	-6009
dp	-6010
fX	-6011
}.	-6012
!']	-6013
(('	-6014
(-8	-6015
(48	-6016
,[8	-6017
10%	-6018
11=	-6019
<6;	-6020
>"/	-6021
>((	-6022
WzF	-6023
bml	-6024
ful	-6025
got	-6026
hat	-6027
oot	-6028
▁VA	-6029
▁la	-6030
▁sc	-6031
▁ve	-6032
!'],	-6033
/%27	-6034
>(((	-6035
?]</	-6036
OTQi	-6037
boot	-6038
disc	-6039
dmFy	-6040
ecma	-6041
elem	-6042
ends	-6043
fKCd	-6044
face	-6045
gent	-6046
gray	-6047
haha	-6048
hape	-6049
hist	-6050
htbG	-6051
iFrA	-6052
ieHN	-6053
igin	-6054
jcmV	-6055
lLmh	-6056
lOad	-6057
ldmF	-6058
lize	-6059
mFsc	-6060
mUxM	-6061
mpti	-6062
nIiB	-6063
ndom	-6064
noec	-6065
oNto	-6066
pWzF	-6067
pbml	-6068
perc	-6069
rIiB	-6070
ride	-6071
sCRI	-6072
sCrI	-6073
sKGF	-6074
sbnM	-6075
spam	-6076
stem	-6077
stop	-6078
sult	-6079
tain	-6080
tche	-6081
uKCl	-6082
udWx	-6083
vIix	-6084
vbiB	-6085
wTWV	-6086
wgMz	-6087
xOTk	-6088
your	-6089
zdmc	-6090
{}).	-6091
},!!	-6092
}\">	-6093
}])+	-6094
}]</	-6095
}`</	-6096
▁!--	-6097
▁!==	-6098
▁"-"	-6099
&{	-6100
,2	-6101
9%	-6102
;0	-6103
;?	-6104
AF	-6105
CN	-6106
Ij	-6107
LS	-6108
Lc	-6109
Nl	-6110
TI	-6111
ny	-6112
';>	-6113
.*/	-6114
;0"	-6115
ILS	-6116
\")	-6117
`)>	-6118
evt	-6119
nNl	-6120
pto	-6121
txt	-6122
%203	-6123
');\	-6124
,2);	-6125
29',	-6126
384,	-6127
;#58	-6128
;)>;	-6129
>';>	-6130
Capt	-6131
View	-6132
same	-6133
}=0;	-6134
▁"">	-6135
▁"&"	-6136
▁"/*	-6137
▁'*'	-6138
▁'-'	-6139
▁'--	-6140
▁'><	-6141
▁(_=	-6142
▁+</	-6143
▁---	-6144
▁10.	-6145
▁1='	-6146
▁2);	-6147
▁360	-6148
▁40,	-6149
▁49,	-6150
▁4]&	-6151
▁6-7	-6152
▁6-8	-6153
▁:=_	-6154
▁=";	-6155
▁></	-6156
▁>>>	-6157
▁ADD	-6158
▁CRE	-6159
▁EXC	-6160
▁GIF	-6161
▁OUT	-6162
▁SUM	-6163
▁Src	-6164
▁TUy	-6165
▁YOU	-6166
▁\'-	-6167
▁ave	-6168
▁bud	-6169
▁chr	-6170
▁img	-6171
▁see	-6172
▁sol	-6173
▁})(	-6174
"))=(	-6175
";;';	-6176
";}</	-6177
">"*"	-6178
">/*<	-6179
">0?<	-6180
"><//	-6181
"?><!	-6182
"](1)	-6183
#&#12	-6184
%%203	-6185
%&()*	-6186
%20%0	-6187
%22><	-6188
%27><	-6189
%59%5	-6190
%64%2	-6191
&#2&#	-6192
'"></	-6193
'">{{	-6194
')(),	-6195
');";	-6196
')=('	-6197
')[0]	-6198
'/*/"	-6199
)1	-6200
-*	-6201
/-	-6202
26	-6203
54	-6204
:3	-6205
:8	-6206
Fe	-6207
PX	-6208
Qa	-6209
TR	-6210
lh	-6211
mO	-6212
-*%	-6213
09>	-6214
2%3	-6215
=%3	-6216
FeT	-6217
Ilh	-6218
bPX	-6219
bWw	-6220
cry	-6221
guc	-6222
hdG	-6223
sIG	-6224
▁oo	-6225
%65(	-6226
(120	-6227
(126	-6228
))"/	-6229
000;	-6230
40&<	-6231
99;&	-6232
:350	-6233
:800	-6234
\145	-6235
getR	-6236
kKHR	-6237
less	-6238
▁'/*	-6239
▁--&	-6240
%22)[	-6241
':''.	-6242
';);+	-6243
';});	-6244
("""<	-6245
(""+{	-6246
(";<;	-6247
($)</	-6248
(%252	-6249
('\14	-6250
()">+	-6251
()//>	-6252
();};	-6253
(-8))	-6254
(/.*/	-6255
(0)</	-6256
(1)";	-6257
(1)<!	-6258
(1)`>	-6259
(120,	-6260
(146,	-6261
(27)'	-6262
(5)',	-6263
(5611	-6264
(65)"	-6265
(67)"	-6266
(68)"	-6267
(70)>	-6268
(71)\	-6269
(75)}	-6270
(8)-"	-6271
(8)-'	-6272
(8)><	-6273
(80))	-6274
(9)';	-6275
)%22>	-6276
)%253	-6277
)%255	-6278
)))``	-6279
));})	-6280
);'><	-6281
,%20{	-6282
,0,'/	-6283
/';";	-6284
/////	-6285
//<</	-6286
0%80%	-6287
00"><	-6288
00%02	-6289
00010	-6290
0045\	-6291
1"))>	-6292
1%255	-6293
1%87%	-6294
10"><	-6295
1339&	-6296
15)</	-6297
2"><?	-6298
28&;#	-6299
.)	-6300
1=	-6301
>-	-6302
Cj	-6303
Gh	-6304
Im	-6305
Jq	-6306
PW	-6307
Xa	-6308
aG	-6309
hz	-6310
pP	-6311
vd	-6312
")=	-6313
(38	-6314
(55	-6315
+.)	-6316
47=	-6317
?]{	-6318
Ghy	-6319
Imh	-6320
JqK	-6321
Mou	-6322
NeT	-6323
hzc	-6324
mlu	-6325
pPC	-6326
zIj	-6327
▁"<	-6328
▁>"	-6329
▁aW	-6330
#").	-6331
%27-	-6332
(83)	-6333
,49,	-6334
:\00	-6335
Cimg	-6336
GhyL	-6337
Swgd	-6338
XaDo	-6339
llID	-6340
▁<;?	-6341
▁pat	-6342
")=("	-6343
')().	-6344
';)";	-6345
//#">	-6346
3"><?	-6347
33349	-6348
35;&#	-6349
41)</	-6350
45;&#	-6351
5">1<	-6352
51;&#	-6353
53;&#	-6354
57647	-6355
57;&#	-6356
58)</	-6357
61,97	-6358
61;&#	-6359
65"><	-6360
66)%3	-6361
7)"><	-6362
7)></	-6363
70&;#	-6364
76&;#	-6365
78;&#	-6366
79"><	-6367
8)></	-6368
:'"><	-6369
://6&	-6370
:=".<	-6371
;";)`	-6372
;&;<;	-6373
;));&	-6374
;>;&#	-6375
;{}</	-6376
<;<;/	-6377
=""">	-6378
="''.	-6379
="){}	-6380
="120	-6381
="124	-6382
="132	-6383
="135	-6384
="1>[	-6385
="2">	-6386
="400	-6387
=";<;	-6388
=";>;	-6389
=">"+	-6390
="?">	-6391
=$,_=	-6392
=';>;	-6393
=//0>	-6394
==200	-6395
=[2].	-6396
=\"&{	-6397
=`<`[	-6398
>")'>	-6399
!<	-6400
/,	-6401
4=	-6402
5)	-6403
6%	-6404
JS	-6405
Kj	-6406
Li	-6407
Rl	-6408
Tk	-6409
Us	-6410
]=	-6411
oG	-6412
xF	-6413
{6	-6414
},	-6415
(40	-6416
-8;	-6417
-=_	-6418
10"	-6419
10=	-6420
13=	-6421
29&	-6422
99;	-6423
=1.	-6424
IRE	-6425
Iob	-6426
Jlc	-6427
JyB	-6428
KSc	-6429
KTs	-6430
ory	-6431
{},	-6432
▁UA	-6433
#99;	-6434
(1)<	-6435
(35)	-6436
="89	-6437
=/\0	-6438
=``<	-6439
IRED	-6440
UsID	-6441
guKj	-6442
nJlc	-6443
nJyB	-6444
sKTs	-6445
tern	-6446
toDi	-6447
▁{{!	-6448
'\006	-6449
(1)<\	-6450
(1)>#	-6451
(1111	-6452
*//*&	-6453
,[8].	-6454
:\%26	-6455
>#114	-6456
>$=1,	-6457
>&#97	-6458
>'"><	-6459
>//\\	-6460
></><	-6461
><<<<	-6462
>><<<	-6463
Agent	-6464
CRMFR	-6465
CcgeG	-6466
Cjwvc	-6467
ERWAR	-6468
EVENT	-6469
Eload	-6470
Fecma	-6471
Fhtml	-6472
Fnxxx	-6473
HOULD	-6474
HRwOi	-6475
Hover	-6476
ICcoL	-6477
IGhla	-6478
InFeT	-6479
Incep	-6480
Inter	-6481
JqKSk	-6482
JywgJ	-6483
LCAyM	-6484
LmNvb	-6485
MCcga	-6486
Mario	-6487
NXNlY	-6488
NloaD	-6489
NvbXB	-6490
OURCE	-6491
PSJod	-6492
Param	-6493
RCHAR	-6494
RIGHT	-6495
SWQoJ	-6496
SkpPC	-6497
VNode	-6498
VUIiw	-6499
&>	-6500
(_	-6501
,/	-6502
1!	-6503
3)	-6504
51	-6505
<{	-6506
BU	-6507
NS	-6508
Ns	-6509
OS	-6510
WD	-6511
lk	-6512
'}}	-6513
);(	-6514
../	-6515
/1.	-6516
11"	-6517
99&	-6518
=13	-6519
EPT	-6520
Suc	-6521
__*	-6522
ini	-6523
raw	-6524
thy	-6525
ura	-6526
▁5;	-6527
▁al	-6528
%29/	-6529
');"	-6530
(/,/	-6531
(0).	-6532
:,%3	-6533
="63	-6534
=../	-6535
=13&	-6536
>0</	-6537
>[{'	-6538
BUTT	-6539
PLAY	-6540
aler	-6541
icon	-6542
lkdG	-6543
shed	-6544
}}</	-6545
,%253	-6546
29;&#	-6547
MouSE	-6548
PLAYE	-6549
VwTWV	-6550
WNtYX	-6551
WQnLG	-6552
WdodD	-6553
XaDoS	-6554
[0])}	-6555
[8680	-6556
[<]]>	-6557
[>]]>	-6558
\")'>	-6559
\0\00	-6560
\22\2	-6561
\27\2	-6562
\27\3	-6563
],1</	-6564
]]></	-6565
`1`)>	-6566
``]"<	-6567
aHIub	-6568
aHIuc	-6569
abort	-6570
alled	-6571
allow	-6572
andal	-6573
annel	-6574
aopen	-6575
aycgd	-6576
bHNlL	-6577
brate	-6578
canon	-6579
dChkb	-6580
dldHR	-6581
dropH	-6582
enTer	-6583
gXarS	-6584
gdmFy	-6585
grade	-6586
hrome	-6587
iMjAw	-6588
ideri	-6589
jAsIG	-6590
jKXty	-6591
lkdGg	-6592
mObPX	-6593
mUxMj	-6594
margu	-6595
nczLm	-6596
noecs	-6597
oGgle	-6598
oPSIx	-6599
7+	-6600
He	-6601
US	-6602
(),	-6603
(63	-6604
.*'	-6605
/1>	-6606
75"	-6607
:0,	-6608
>;+	-6609
>;1	-6610
>;;	-6611
>;`	-6612
]%2	-6613
ard	-6614
vcj	-6615
▁20	-6616
▁2;	-6617
▁31	-6618
!--<	-6619
'};"	-6620
1=$$	-6621
:180	-6622
;#41	-6623
="39	-6624
=&;#	-6625
>"><	-6626
Csrc	-6627
Jvcj	-6628
capi	-6629
foof	-6630
nPgo	-6631
valu	-6632
▁";"	-6633
▁'))	-6634
▁10;	-6635
▁1;#	-6636
▁dir	-6637
&;&&<	-6638
(1)>.	-6639
(1)>>	-6640
(83)&	-6641
)(1)>	-6642
.*'/)	-6643
.075"	-6644
='"><	-6645
=`>;`	-6646
Evalu	-6647
onpag	-6648
ortSw	-6649
ouble	-6650
pdGxl	-6651
popup	-6652
rolle	-6653
rover	-6654
scope	-6655
spend	-6656
split	-6657
sxXSl	-6658
uIHRy	-6659
uPSIx	-6660
unesc	-6661
ursor	-6662
vbmVu	-6663
vbnNl	-6664
veHNz	-6665
wLlNh	-6666
wgMzQ	-6667
xssed	-6668
zOnhs	-6669
}";>;	-6670
▁!--"	-6671
▁""&"	-6672
▁""*"	-6673
▁""-"	-6674
▁''&'	-6675
▁''*'	-6676
▁''-'	-6677
▁'(%2	-6678
▁'.',	-6679
▁';<;	-6680
▁'></	-6681
▁'>><	-6682
▁'__*	-6683
▁--->	-6684
▁101,	-6685
▁108,	-6686
▁116,	-6687
▁28);	-6688
▁3.6.	-6689
▁4]>;	-6690
▁5.0,	-6691
▁<%78	-6692
▁<;<;	-6693
▁="1>	-6694
▁='><	-6695
▁File	-6696
▁Gare	-6697
▁IiBp	-6698
▁Safe	-6699
PY	-6700
')&	-6701
'[{	-6702
(81	-6703
(84	-6704
,'=	-6705
00(	-6706
12"	-6707
1>&	-6708
27-	-6709
2;$	-6710
32"	-6711
32=	-6712
5%6	-6713
DOM	-6714
vtt	-6715
{61	-6716
▁=&	-6717
");&	-6718
"/*/	-6719
"/><	-6720
";<;	-6721
%28[	-6722
')('	-6723
(1)1	-6724
(69)	-6725
)');	-6726
,117	-6727
88;&	-6728
;1)&	-6729
;27-	-6730
="74	-6731
>;=&	-6732
Asrc	-6733
Bsrc	-6734
Fwww	-6735
Mode	-6736
PYmo	-6737
RESS	-6738
SIgb	-6739
[>]]	-6740
rock	-6741
ubWF	-6742
{61}	-6743
▁"",	-6744
▁"*"	-6745
'+''.	-6746
(1)-'	-6747
(3)">	-6748
(81)"	-6749
00004	-6750
PRESS	-6751
icode	-6752
rocks	-6753
times	-6754
▁-->;	-6755
▁call	-6756
▁cols	-6757
▁coor	-6758
▁down	-6759
▁else	-6760
▁expr	-6761
▁must	-6762
▁onon	-6763
▁onsu	-6764
▁over	-6765
▁rows	-6766
▁tags	-6767
▁that	-6768
▁{{(_	-6769
▁}}</	-6770
"%%203	-6771
";>;<;	-6772
%22%20	-6773
%22>`>	-6774
%27]%2	-6775
%29}};	-6776
%64%69	-6777
%68%65	-6778
%72%75	-6779
&#39;)	-6780
&#40;1	-6781
&#5&#6	-6782
&#7&#8	-6783
&&>&&<	-6784
')";</	-6785
')(),'	-6786
')()</	-6787
');"><	-6788
');$("	-6789
');<![	-6790
')}\">	-6791
';";)`	-6792
';>;<;	-6793
';\006	-6794
'\0029	-6795
']}]</	-6796
'},0)>	-6797
'};");	-6798
("#").	-6799
%76	-6800
'};	-6801
("1	-6802
((`	-6803
(99	-6804
20<	-6805
21>	-6806
27;	-6807
439	-6808
69&	-6809
Vue	-6810
csp	-6811
dtd	-6812
ies	-6813
▁!=	-6814
!--&	-6815
')")	-6816
'='0	-6817
);%7	-6818
**/\	-6819
,116	-6820
1">[	-6821
2')"	-6822
="17	-6823
Eadd	-6824
Exxx	-6825
``]>	-6826
fail	-6827
work	-6828
▁';;	-6829
▁';=	-6830
▁<//	-6831
%64%4	-6832
0054\	-6833
0055\	-6834
439..	-6835
5,116	-6836
73)">	-6837
;\%26	-6838
="1">	-6839
="125	-6840
="133	-6841
="20"	-6842
Frame	-6843
items	-6844
{0000	-6845
▁slot	-6846
%64%43	-6847
&#10;;	-6848
("1")>	-6849
(%64%2	-6850
(%64%6	-6851
(&;#1;	-6852
('1');	-6853
('1')>	-6854
('\141	-6855
());</	-6856
());})	-6857
();});	-6858
(/,/))	-6859
(1)';-	-6860
(1)/*<	-6861
(1)???	-6862
(1)}">	-6863
(1)}),	-6864
(11)?>	-6865
(123))	-6866
(126)"	-6867
(137)"	-6868
(19)//	-6869
(23)><	-6870
(27)'}	-6871
(36)">	-6872
(47)</	-6873
(48)</	-6874
(55)">	-6875
(56117	-6876
(57)//	-6877
(58)</	-6878
(66)%3	-6879
(72)">	-6880
(73)">	-6881
(84)//	-6882
(88)%3	-6883
(94)</	-6884
(`1`)>	-6885
)%22><	-6886
)');}}	-6887
))()//	-6888
)//','	-6889
)//--!	-6890
)//></	-6891
++;}</	-6892
,107),	-6893
,<'>">	-6894
,_(1))	-6895
/')></	-6896
/)//'>	-6897
123').	-6898
2%2522	-6899
MS	-6900
gJ	-6901
(&;	-6902
(39	-6903
({}	-6904
-7&	-6905
09:	-6906
12=	-6907
20=	-6908
20>	-6909
20\	-6910
;).	-6911
;{}	-6912
=50	-6913
>]>	-6914
Bif	-6915
iMG	-6916
ien	-6917
▁No	-6918
▁WA	-6919
▁\"	-6920
(""+	-6921
(130	-6922
))'>	-6923
.4+,	-6924
28&<	-6925
28)&	-6926
="0%	-6927
="69	-6928
CgvY	-6929
Exhr	-6930
MSIE	-6931
Next	-6932
dual	-6933
})</	-6934
▁Box	-6935
▁\&#	-6936
";)";	-6937
">1</	-6938
&#10\	-6939
())>;	-6940
(28)&	-6941
0020\	-6942
0029&	-6943
39"><	-6944
65&;#	-6945
73"><	-6946
="134	-6947
insec	-6948
orien	-6949
▁WANT	-6950
▁}});	-6951
.0.4+,	-6952
000061	-6953
2'%252	-6954
2,126"	-6955
24">1<	-6956
25)}</	-6957
29'}</	-6958
29))%7	-6959
40,49,	-6960
40;&;#	-6961
63&#9\	-6962
69"></	-6963
7%78%6	-6964
748577	-6965
76"><?	-6966
77"><?	-6967
77))"/	-6968
88;&;#	-6969
;#41;&	-6970
;#58;&	-6971
;#88;&	-6972
;#99;&	-6973
;*//*&	-6974
;;!--&	-6975
;},%20	-6976
="#">{	-6977
="/"><	-6978
="/\%(	-6979
="0.3"	-6980
="0.7"	-6981
="1"><	-6982
="16">	-6983
="2"><	-6984
="20">	-6985
="5"><	-6986
="9"><	-6987
=";&;{	-6988
="\\%(	-6989
="]]><	-6990
=$,_=1	-6991
=%09((	-6992
=&#10<	-6993
=&;#10	-6994
='%></	-6995
='/'%3	-6996
='/*'+	-6997
=({}).	-6998
=/\02.	-6999
${	-7000
.%	-7001
2;	-7002
IQ	-7003
%54	-7004
')%	-7005
(24	-7006
(_)	-7007
./&	-7008
09"	-7009
14,	-7010
90\	-7011
=&>	-7012
=0>	-7013
=<;	-7014
Res	-7015
ifr	-7016
zdE	-7017
▁BE	-7018
▁`-	-7019
▁}}	-7020
();#	-7021
(127	-7022
(128	-7023
(129	-7024
)//;	-7025
/*)}	-7026
29>;	-7027
40;&	-7028
8%54	-7029
:'&#	-7030
="28	-7031
="58	-7032
User	-7033
dETA	-7034
ffic	-7035
ooIQ	-7036
▁(('	-7037
▁100	-7038
▁ENT	-7039
▁net	-7040
▁not	-7041
(24)&	-7042
0036\	-7043
28;&#	-7044
4=%22	-7045
59;&#	-7046
="128	-7047
="50"	-7048
Right	-7049
`1`</	-7050
toXML	-7051
▁114,	-7052
▁Drop	-7053
▁\'><	-7054
▁rela	-7055
";);//	-7056
%48%54	-7057
2)"></	-7058
34">1<	-7059
4=%22>	-7060
;#40;&	-7061
="8"><	-7062
=0;0;1	-7063
=1%22,	-7064
=50');	-7065
>""","	-7066
>&#97;	-7067
>';>";	-7068
>;&#83	-7069
Acript	-7070
Balert	-7071
Bcript	-7072
Blbigi	-7073
CBmYWx	-7074
CRMFRe	-7075
Ccript	-7076
CgpOyA	-7077
ChudWx	-7078
Dcript	-7079
Dialog	-7080
ECIMAL	-7081
Fonxxx	-7082
Fstyle	-7083
Fxssme	-7084
Height	-7085
IHhtbG	-7086
IobmFt	-7087
Johnny	-7088
JyguKj	-7089
KScvKV	-7090
KTtldk	-7091
KTtmdW	-7092
LCAxMi	-7093
LcLick	-7094
LjAiIH	-7095
NXNlYy	-7096
NsaWNr	-7097
OnpOin	-7098
PLAYED	-7099
2%	-7100
7%	-7101
Fa	-7102
cm	-7103
'#;	-7104
('#	-7105
(['	-7106
(\0	-7107
.0'	-7108
.01	-7109
4-.	-7110
40&	-7111
41&	-7112
65&	-7113
88&	-7114
=\&	-7115
Sec	-7116
[<;	-7117
[><	-7118
]:[	-7119
eCh	-7120
xBE	-7121
%29{	-7122
&#65	-7123
')).	-7124
(106	-7125
(500	-7126
/*<;	-7127
41>;	-7128
;>">	-7129
="41	-7130
CBkb	-7131
}));	-7132
▁'&'	-7133
▁('1	-7134
▁(("	-7135
(';<;	-7136
(1)"&	-7137
(1);>	-7138
(500)	-7139
));">	-7140
11.01	-7141
58&;#	-7142
65;&#	-7143
<;!--	-7144
ENter	-7145
ICBkb	-7146
orage	-7147
▁>%22	-7148
▁file	-7149
▁safe	-7150
%2520'	-7151
%70%70	-7152
')%253	-7153
())<\/	-7154
(1)')>	-7155
(1)'><	-7156
(12)><	-7157
2000%2	-7158
66"><?	-7159
='%27-	-7160
='1.0'	-7161
Active	-7162
BvbnNl	-7163
Conxxx	-7164
Policy	-7165
PortSw	-7166
Propag	-7167
RpdGxl	-7168
SOURCE	-7169
Setter	-7170
TIvIix	-7171
TMzNyk	-7172
Target	-7173
UdldHR	-7174
UgaHJl	-7175
VRleHQ	-7176
WEBVTT	-7177
Worker	-7178
[0])})	-7179
[<]]>/	-7180
\";)>;	-7181
\00006	-7182
\0028&	-7183
__,$).	-7184
`1`))>	-7185
aaaaaa	-7186
angeAt	-7187
assign	-7188
bGluaz	-7189
caller	-7190
capita	-7191
dHMubG	-7192
dalert	-7193
double	-7194
fKCdpc	-7195
gPSBkb	-7196
geshow	-7197
gotcha	-7198
hbHNlL	-7199
4)	-7200
;6	-7201
(11	-7202
(50	-7203
63&	-7204
69,	-7205
73"	-7206
76&	-7207
=%0	-7208
==#	-7209
NCg	-7210
cmV	-7211
▁)(	-7212
▁><	-7213
▁`>	-7214
%31]	-7215
'/*`	-7216
)//'	-7217
4-%(	-7218
:500	-7219
;);+	-7220
="%0	-7221
="88	-7222
?69,	-7223
VGhp	-7224
aded	-7225
▁'%'	-7226
▁//>	-7227
▁12.	-7228
▁ifr	-7229
&#12\	-7230
&#13\	-7231
(104)	-7232
(17)"	-7233
(50),	-7234
10,11	-7235
46;&#	-7236
5;&;#	-7237
64,&#	-7238
69&;#	-7239
73&;#	-7240
8(%22	-7241
=%22/	-7242
=/></	-7243
uVGhp	-7244
▁1='1	-7245
%31]);	-7246
(3)//'	-7247
-7";>;	-7248
4%2520	-7249
Loaded	-7250
crypto	-7251
escape	-7252
finite	-7253
iFrAMe	-7254
kKHRvc	-7255
movies	-7256
mptied	-7257
ncLick	-7258
oNloaD	-7259
onlOad	-7260
opener	-7261
origin	-7262
percnt	-7263
phbGVy	-7264
postMe	-7265
quires	-7266
rPSJod	-7267
random	-7268
reduce	-7269
repeat	-7270
result	-7271
sCRIpt	-7272
sCRipt	-7273
sCrIpt	-7274
safari	-7275
scRiPt	-7276
scRipT	-7277
srcdoc	-7278
stroke	-7279
styles	-7280
tYXRja	-7281
tainer	-7282
tchers	-7283
terval	-7284
urable	-7285
ventDe	-7286
yellow	-7287
}']="_	-7288
}}).$=	-7289
}}}});	-7290
▁!/**/	-7291
▁"/></	-7292
▁#000;	-7293
▁%22%3	-7294
▁%61%6	-7295
▁%64%2	-7296
▁%64%6	-7297
▁'""><	-7298
▁'"`><	-7299
5.	-7300
?&	-7301
BB	-7302
FC	-7303
[&	-7304
%53	-7305
(33	-7306
(59	-7307
15.	-7308
;\/	-7309
>;.	-7310
EXT	-7311
ORT	-7312
gub	-7313
rup	-7314
ubG	-7315
')[0	-7316
(/\/	-7317
(125	-7318
58&<	-7319
73&<	-7320
:''.	-7321
="&"	-7322
="25	-7323
="32	-7324
="70	-7325
>%23	-7326
PORT	-7327
TEXT	-7328
\")>	-7329
ical	-7330
▁500	-7331
▁box	-7332
▁xsl	-7333
"))'>	-7334
%53%6	-7335
')"/>	-7336
(";";	-7337
63&;#	-7338
93"><	-7339
="/">	-7340
=">"/	-7341
Pjwvc	-7342
RydXN	-7343
`);</	-7344
▁";<;	-7345
▁FULL	-7346
')[0];	-7347
(86)><	-7348
=//15.	-7349
Schema	-7350
onLoad	-7351
▁'>"><	-7352
▁10.63	-7353
▁11.64	-7354
▁1="1"	-7355
▁1='1'	-7356
▁1=1;#	-7357
▁200){	-7358
▁41)</	-7359
▁<!--\	-7360
▁<?='<	-7361
▁>"'><	-7362
▁?????	-7363
▁ENTER	-7364
▁MINUS	-7365
▁OUTER	-7366
▁RIGHT	-7367
▁Salty	-7368
▁XPath	-7369
▁[1,2]	-7370
▁\\');	-7371
▁apply	-7372
▁clone	-7373
▁focus	-7374
▁green	-7375
▁inner	-7376
▁onEnd	-7377
▁oncue	-7378
▁onhel	-7379
▁onoff	-7380
▁shape	-7381
▁slide	-7382
▁solid	-7383
▁total	-7384
▁watch	-7385
▁world	-7386
"))=(("	-7387
";)';>;	-7388
";);<;/	-7389
";)>";;	-7390
";});</	-7391
#&#127;	-7392
%26#99;	-7393
%28%29;	-7394
%28%29{	-7395
%28/%27	-7396
%29%20{	-7397
%29/%29	-7398
%64%65(	-7399
(93	-7400
(\'	-7401
*';	-7402
,0"	-7403
-7;	-7404
/"<	-7405
3"<	-7406
6)`	-7407
:</	-7408
=/>	-7409
={'	-7410
OyB	-7411
lcl	-7412
pJy	-7413
");}	-7414
')>;	-7415
'>=(	-7416
']]:	-7417
(116	-7418
)';;	-7419
,109	-7420
0,0"	-7421
389&	-7422
;)>&	-7423
="$(	-7424
=%26	-7425
=(('	-7426
=250	-7427
Jyko	-7428
naHR	-7429
▁'',	-7430
▁5-8	-7431
▁@['	-7432
▁ASC	-7433
▁DIS	-7434
&#1;;	-7435
(16)`	-7436
3"<"/	-7437
41;>;	-7438
93/">	-7439
;\006	-7440
="/*<	-7441
▁%22/	-7442
')[0].	-7443
(116)&	-7444
(9)';-	-7445
)'%252	-7446
="3"><	-7447
BUTTON	-7448
Donxxx	-7449
LnczLm	-7450
iMSIgb	-7451
▁1=">"	-7452
▁<!'/*	-7453
▁onmoz	-7454
%22,%20	-7455
%74(%22	-7456
&#39;)&	-7457
'))=(('	-7458
')[0],'	-7459
';);<;/	-7460
';\0029	-7461
'}{}*{-	-7462
(";*//*	-7463
(%27%20	-7464
(-8))>#	-7465
(0)})</	-7466
(0,0,'/	-7467
(1)"/>?	-7468
(1)%253	-7469
(1)')">	-7470
(1)';</	-7471
(1))}</	-7472
(1)//";	-7473
(1)//';	-7474
(1)//]>	-7475
(1);};>	-7476
(1)>*/=	-7477
(1)\29>	-7478
(10,2);	-7479
(100)">	-7480
(100,11	-7481
(101)">	-7482
(102)</	-7483
(115)</	-7484
(127)</	-7485
(128)//	-7486
(129)</	-7487
(130)">	-7488
(135)</	-7489
(146,20	-7490
(19)//1	-7491
(2)"></	-7492
(2));%7	-7493
(2)//">	-7494
(2)//'>	-7495
(2)//]>	-7496
(20)}),	-7497
(25)}</	-7498
(29))%7	-7499
%51	-7500
({'	-7501
AsJ	-7502
VGV	-7503
dXJ	-7504
xCB	-7505
yBp	-7506
})}	-7507
▁%'	-7508
▁cx	-7509
▁cy	-7510
())%	-7511
())&	-7512
())>	-7513
(42)	-7514
)'/)	-7515
="90	-7516
=400	-7517
=50,	-7518
>'?>	-7519
bGwg	-7520
blue	-7521
emit	-7522
▁*/;	-7523
▁off	-7524
%51%6	-7525
(88)&	-7526
(_.__	-7527
7"><!	-7528
://%0	-7529
;!--[	-7530
="<%(	-7531
XJzaW	-7532
}%29;	-7533
▁!");	-7534
▁\";;	-7535
");<;/	-7536
%65));	-7537
%69%65	-7538
./";>;	-7539
="6"><	-7540
="7"><	-7541
="99">	-7542
>%22);	-7543
>')%22	-7544
Aonxxx	-7545
RleHQv	-7546
▁below	-7547
%22%29;	-7548
(1)<!--	-7549
(3)"></	-7550
(3)//">	-7551
(30))%7	-7552
(33);">	-7553
(56)"><	-7554
(71)\29	-7555
(74)"><	-7556
(77))"/	-7557
(83)"><	-7558
(83)))<	-7559
(84)//#	-7560
(87)"><	-7561
(99,108	-7562
({}[$='	-7563
)%22)</	-7564
)'%22)[	-7565
)');[].	-7566
)))``</	-7567
,%20%27	-7568
,101))(	-7569
,105,99	-7570
,114,10	-7571
-1.4.4.	-7572
/';";>;	-7573
0000006	-7574
000061}	-7575
10,116)	-7576
123'));	-7577
2"><!--	-7578
389>;<;	-7579
5;&;#11	-7580
5;&;#99	-7581
6;&;#97	-7582
7.147/&	-7583
8"><!--	-7584
8%80%80	-7585
8;&;#10	-7586
8;&;#97	-7587
93/";>;	-7588
://"></	-7589
://6&;#	-7590
;";>;<;	-7591
;#101;&	-7592
;#105;&	-7593
;#106;&	-7594
;#108;&	-7595
;#112;&	-7596
;#115;&	-7597
;#118;&	-7598
;;&#10;	-7599
ctors	-7600
▁Data	-7601
;\0029&	-7602
="#"?><	-7603
="//14.	-7604
="0,0,8	-7605
="0.45"	-7606
="10"><	-7607
="11"><	-7608
="12"><	-7609
="13"><	-7610
="14"><	-7611
="15"><	-7612
="18"><	-7613
="19"><	-7614
="20"><	-7615
="21"><	-7616
="22"><	-7617
="23"><	-7618
="25"><	-7619
="26">+	-7620
="27"><	-7621
="29"><	-7622
="30"><	-7623
="31"><	-7624
="32"><	-7625
="33"><	-7626
="36"><	-7627
="37"><	-7628
="38"><	-7629
="40"><	-7630
="41"><	-7631
="42"><	-7632
="44"><	-7633
="45"><	-7634
="46"><	-7635
="47"><	-7636
="48"><	-7637
="49"><	-7638
="50"><	-7639
="51"><	-7640
="52"><	-7641
="53"><	-7642
="54"><	-7643
="55"><	-7644
="56"><	-7645
="57"><	-7646
="58"><	-7647
="59"><	-7648
="60"><	-7649
="61"><	-7650
="63"><	-7651
="65"><	-7652
="68"><	-7653
="69"><	-7654
="70"><	-7655
="72"><	-7656
="73"><	-7657
="74"><	-7658
="75"><	-7659
="79"><	-7660
="80"><	-7661
="81"><	-7662
="83"><	-7663
="84"><	-7664
="85"><	-7665
="86"><	-7666
="87"><	-7667
="88"><	-7668
="89"><	-7669
="91">[	-7670
="92"><	-7671
="93"><	-7672
="94"><	-7673
="95"><	-7674
="96"><	-7675
="98"><	-7676
=";>;";	-7677
=\";&;{	-7678
>;";;';	-7679
???????	-7680
Aonload	-7681
BlbigiR	-7682
BlbignR	-7683
Bonjour	-7684
CBmYWxz	-7685
Capture	-7686
Ciframe	-7687
Eshadow	-7688
EventLi	-7689
Fcookie	-7690
HRoPSIx	-7691
ICcoLio	-7692
IHhociA	-7693
IjAiIHk	-7694
IpOzwvc	-7695
JykoKTt	-7696
KDEpJyk	-7697
LjAiIHg	-7698
MDAnPgo	-7699
MyEvent	-7700
OnMouSE	-7701
OncLick	-7702
Propert	-7703
Scripts	-7704
Success	-7705
VUJywgJ	-7706
[>]]></	-7707
\")';</	-7708
\")>";'	-7709
\";)<;/	-7710
`1`}`</	-7711
``]"<">	-7712
actuate	-7713
bWVudEJ	-7714
channel	-7715
cnVlKTt	-7716
dETAILS	-7717
dHMnKTt	-7718
deTAiLs	-7719
defined	-7720
discard	-7721
doctype	-7722
eObject	-7723
friends	-7724
gJyguKj	-7725
gPSBmdW	-7726
general	-7727
history	-7728
iderich	-7729
ieHNzIj	-7730
iterate	-7731
jcmVhdG	-7732
kKHRvcC	-7733
lcnJvcj	-7734
llowing	-7735
marguee	-7736
neCcgeG	-7737
noalert	-7738
onfocus	-7739
onstart	-7740
outline	-7741
replace	-7742
rollend	-7743
rolling	-7744
rpolicy	-7745
sNXNlYy	-7746
scripts	-7747
setData	-7748
strings	-7749
traffic	-7750
unicode	-7751
upgrade	-7752
validjs	-7753
vibrate	-7754
withCtx	-7755
zOnhsaW	-7756
▁";&;<;	-7757
▁";>;<;	-7758
▁&;#14;	-7759
▁'(.*%3	-7760
▁'0'='0	-7761
▁'>//\\	-7762
▁)));}}	-7763
▁//**/\	-7764
▁11.52,	-7765
▁3.6.28	-7766
▁50000)	-7767
▁<!--><	-7768
▁<;!--#	-7769
▁<;!--[	-7770
▁COLUMN	-7771
▁CREATE	-7772
▁Chrome	-7773
▁EXCEPT	-7774
▁Method	-7775
▁MjAwMC	-7776
▁Object	-7777
▁SHOULD	-7778
▁SrcSet	-7779
▁active	-7780
▁border	-7781
▁budget	-7782
▁cookie	-7783
▁coords	-7784
▁cursor	-7785
▁dashed	-7786
▁format	-7787
▁getURL	-7788
▁latest	-7789
▁oNloaD	-7790
▁onhelp	-7791
▁onsele	-7792
▁result	-7793
▁secret	-7794
▁submit	-7795
▁system	-7796
▁trough	-7797
▁{{{}[{	-7798
%27)%22>	-7799
%27,%20{	-7800
%29;%253	-7801
%48%54%4	-7802
%61%64%2	-7803
%65%45%6	-7804
%68%69%6	-7805
%76%22);	-7806
&#1&#2&#	-7807
&#11&#12	-7808
&;&&<&&/	-7809
'(.*%253	-7810
');\"></	-7811
';";)`>;	-7812
';";-->;	-7813
';)>;<;/	-7814
';)}";>;	-7815
'\0029">	-7816
(("1"))>	-7817
(('1'))>	-7818
((`1`))>	-7819
(1)")}</	-7820
(1)))+';	-7821
(1)))//#	-7822
(1))//">	-7823
(1))})</	-7824
(1)//#">	-7825
(1);//">	-7826
(1)`()">	-7827
(107)></	-7828
(108)></	-7829
(11)"></	-7830
(1111)</	-7831
(123))][	-7832
(17)"?><	-7833
(2)">]><	-7834
(30)](1)	-7835
(32)"></	-7836
(37)//">	-7837
(38)//">	-7838
(39)//">	-7839
(40)//">	-7840
(49)"></	-7841
(57)//</	-7842
(59)"></	-7843
(62)//'>	-7844
(63)"></	-7845
(80))}</	-7846
(93));">	-7847
(97)"></	-7848
);%22></	-7849
,101,114	-7850
,117,109	-7851
/////"><	-7852
0%80%80%	-7853
1;&;#114	-7854
2%03"></	-7855
34;(1)</	-7856
45;'"></	-7857
5"><!--[	-7858
57647/1>	-7859
58;&;#97	-7860
5;&;#112	-7861
63&#9\06	-7862
64,%59%5	-7863
7"&&>&&<	-7864
7.147/">	-7865
88;&#83<	-7866
:"/*'/*`	-7867
://"/></	-7868
:\000072	-7869
;!--";<;	-7870
="&#106;	-7871
="0.075"	-7872
="0.373"	-7873
="10"></	-7874
="100"><	-7875
="101"><	-7876
="102"><	-7877
="103"><	-7878
="104"><	-7879
="105"><	-7880
="106"><	-7881
="107"><	-7882
="109"><	-7883
="110"><	-7884
="111"><	-7885
="112"><	-7886
="113"><	-7887
="114"><	-7888
="116"><	-7889
="117"><	-7890
="118"><	-7891
="119"><	-7892
="120"><	-7893
="121"><	-7894
="122"><	-7895
="123"><	-7896
="124"><	-7897
="126"><	-7898
="127"><	-7899
="128"><	-7900
="129"><	-7901
="130"><	-7902
="131"><	-7903
="134"><	-7904
="136"><	-7905
="137"><	-7906
="138"><	-7907
="139"><	-7908
="17"><?	-7909
="24">1<	-7910
="28">1<	-7911
="34">1<	-7912
="35">1<	-7913
="4">0?<	-7914
="40"></	-7915
="43"><?	-7916
="64"><!	-7917
="66"><?	-7918
="67"><!	-7919
="76"><?	-7920
="77"><?	-7921
="78"><?	-7922
="82"><?	-7923
='+/"/+/	-7924
='+/`/+/	-7925
='1';}</	-7926
='100'><	-7927
=//33349	-7928
=0',0,0,	-7929
=781339&	-7930
==1)?'':	-7931
>#116;&#	-7932
>;<;!--#	-7933
Aonerror	-7934
Bonerror	-7935
Chandler	-7936
Conerror	-7937
Cression	-7938
DOMFrame	-7939
Donerror	-7940
Fhandler	-7941
Fonerror	-7942
GhyLnJlc	-7943
IjAiIHdp	-7944
InRleHQv	-7945
Interval	-7946
MCcgaGVp	-7947
Modeless	-7948
REQUIRED	-7949
Security	-7950
UsIDAsIG	-7951
[0])}),'	-7952
\")>\";'	-7953
]]>;<;![	-7954
andalone	-7955
animated	-7956
attacker	-7957
createNS	-7958
dXJuIHRy	-7959
dropHere	-7960
eChjKXty	-7961
evaluate	-7962
generate	-7963
iggerRes	-7964
insecure	-7965
interval	-7966
jPUNvbXB	-7967
jdGlvbiB	-7968
ldmFsKGF	-7969
listener	-7970
navigate	-7971
oNtoGGle	-7972
ontoggle	-7973
onunload	-7974
pWzFdKSB	-7975
requests	-7976
requires	-7977
startCon	-7978
uVGhpcyA	-7979
unescape	-7980
username	-7981
vcmcvMTk	-7982
watchers	-7983
})};//">	-7984
▁(''+''.	-7985
▁//--></	-7986
▁11.60+,	-7987
▁4.0.4+,	-7988
▁DECIMAL	-7989
▁Execute	-7990
▁Garethy	-7991
▁Message	-7992
▁OnError	-7993
▁VARCHAR	-7994
▁average	-7995
▁bgsound	-7996
▁dirname	-7997
▁getSele	-7998
▁network	-7999
▁onabort	-8000
▁onclose	-8001
▁onorien	-8002
▁pattern	-8003
▁referre	-8004
▁request	-8005
▁strings	-8006
▁vectors	-8007
▁{}[['__	-8008
!#$%%&()*	-8009
"/*/'/*/"	-8010
";)';;<;/	-8011
";;&;#10;	-8012
%2522%252	-8013
%28%29%29	-8014
%28%29;%3	-8015
%61%70%70	-8016
%63%72%65	-8017
%64(%64%6	-8018
%74%72%75	-8019
&#0000106	-8020
&#10\0006	-8021
&#40;1)</	-8022
')\");}</	-8023
';));";>;	-8024
';);";)";	-8025
'](8)")-"	-8026
'](8)")-'	-8027
();%22>`>	-8028
();});$("	-8029
(1)')()</	-8030
(1)//";</	-8031
(1)//';</	-8032
(1)}}).$=	-8033
(10)//></	-8034
(106)//">	-8035
(125)"></	-8036
(2)//"></	-8037
(2)//'></	-8038
(42)//#">	-8039
(5)',384,	-8040
(69)"/></	-8041
(75)}/></	-8042
(\61)')</	-8043
."),("""<	-8044
.*'/));</	-8045
/#0#/#0#(	-8046
00%02%03%	-8047
000045)%3	-8048
40,49,41)	-8049
5&;#00000	-8050
61,97,108	-8051
63;%26%23	-8052
69;%26%23	-8053
70;%26%23	-8054
72;%26%23	-8055
73;%26%23	-8056
74;%26%23	-8057
76;%26%23	-8058
8;&#97;&<	-8059
:100%;"><	-8060
="){}}])+	-8061
="1.0"?><	-8062
="125"><?	-8063
="132"><!	-8064
="135"><?	-8065
="400"></	-8066
="71"><//	-8067
=";>';>";	-8068
="><">/*<	-8069
=';>;';";	-8070
==200%29{	-8071
>#0000083	-8072
>#0000097	-8073
>#0000112	-8074
>#0000114	-8075
>;=&;{()}	-8076
><>>>><<<	-8077
BvbnNlVGV	-8078
Dfunction	-8079
Evaluator	-8080
Inception	-8081
Marketing	-8082
Microsoft	-8083
NjcmlwdCI	-8084
OTQiIGhla	-8085
Pageclick	-8086
TeReENter	-8087
UdldHRlcl	-8088
VUIiwiaHR	-8089
[1]%29}};	-8090
aonToGgle	-8091
autofocus	-8092
bGluaycgd	-8093
canonical	-8094
component	-8095
eshowshow	-8096
important	-8097
malicious	-8098
onmessage	-8099
preventDe	-8100
pushState	-8101
rawupdate	-8102
somewhere	-8103
toDisplay	-8104
undefined	-8105
userAgent	-8106
vcmcveHNz	-8107
▁'%22--%3	-8108
▁'1'='1--	-8109
▁NoScript	-8110
▁download	-8111
▁executed	-8112
▁javapgno	-8113
▁keytimes	-8114
▁location	-8115
▁ononline	-8116
▁relative	-8117
▁{{(_=''.	-8118
▁{}.")));	-8119
%08%00%00%	-8120
%20=%20%27	-8121
%2520%2528	-8122
%2526%2520	-8123
%2528%2522	-8124
%28%29%20{	-8125
%63%68(%22	-8126
&#039;)}\&	-8127
&#12\00006	-8128
&;#0000088	-8129
&;#0000101	-8130
&;#0000105	-8131
&;#0000108	-8132
&;#0000112	-8133
&;#0000118	-8134
');{}[['__	-8135
';)";)}<;/	-8136
';);//";>;	-8137
'];{}[['__	-8138
('1');'>=(	-8139
(1)'}{}*{-	-8140
(1);">]]</	-8141
(1);');}</	-8142
(133)//--!	-8143
(21)')()</	-8144
(\061)')</	-8145
)%2520%257	-8146
));})();</	-8147
3&#4&#5&#6	-8148
5;&#112;&<	-8149
7.147/";>;	-8150
7485777)%3	-8151
:";;&;#10;	-8152
;#0000040&	-8153
;#0000041&	-8154
;#0000058&	-8155
;#0000088&	-8156
;#0000099&	-8157
;#0000101&	-8158
;#0000105&	-8159
;#0000106&	-8160
;#0000108&	-8161
;#0000112&	-8162
;#0000115&	-8163
;#0000118&	-8164
="39"><!--	-8165
="62"><!--	-8166
="90"><!--	-8167
="97"><!--	-8168
=&;#000010	-8169
=50');}}</	-8170
>#115;&#99	-8171
>;';";-->;	-8172
?69,69"></	-8173
ChudWxsKTs	-8174
JaVaScript	-8175
LCAxLCAxMi	-8176
LCAyMjAsIG	-8177
OndbLcLick	-8178
PYmogPSBkb	-8179
Properties	-8180
Successful	-8181
VRleHQubWF	-8182
YWxlcnQoeC	-8183
YXNjcmlwdD	-8184
[8680439..	-8185
\0028'\006	-8186
bGwgKTtldk	-8187
capitalize	-8188
dHMnKTtldk	-8189
gXarSmObPX	-8190
getRangeAt	-8191
indefinite	-8192
jAvascript	-8193
mUxMjMnKTt	-8194
makePopups	-8195
navigation	-8196
setCapture	-8197
stopPropag	-8198
tYXRjaCgvY	-8199
zdmciPjxzY	-8200
});{}[['__	-8201
▁''=']]></	-8202
▁('1'='1--	-8203
▁--><!--*{	-8204
▁>%22%27><	-8205
▁DISPLAYED	-8206
▁Heiderich	-8207
▁Marketing	-8208
▁fileInput	-8209
▁following	-8210
▁injection	-8211
▁innerHTML	-8212
▁isTrusted	-8213
▁maskUnits	-8214
▁navigator	-8215
▁onemptied	-8216
▁onoffline	-8217
▁onstalled	-8218
▁onstorage	-8219
▁onsuspend	-8220
▁scrolling	-8221
";);//<;<;/	-8222
";)>";;';>;	-8223
%28/%27%28[	-8224
&#0000101&<	-8225
&#0000105&<	-8226
&#0000115&<	-8227
';)";);}<;/	-8228
';\0029";>;	-8229
(";*//*";);	-8230
()%2520%257	-8231
());})();};	-8232
(100,111,99	-8233
(119,114,10	-8234
(27)'}{}*{-	-8235
,<'>">">"*"	-8236
39;&;#41;>;	-8237
4%2520%2526	-8238
5&;#0000099	-8239
6&;#0000040	-8240
6&;#0000058	-8241
6&;#0000097	-8242
8%80%80%80%	-8243
;&#39;&#41>	-8244
="&#0000106	-8245
="1000"/></	-8246
="108"><!--	-8247
="133"><!--	-8248
="37"><!--<	-8249
="\63&#9\06	-8250
=%22/%22></	-8251
CRMFRequest	-8252
Cexpression	-8253
Dexpression	-8254
EaddEventLi	-8255
Eshadowlabs	-8256
Fecmascript	-8257
KScvKVsxXSl	-8258
MouseEvents	-8259
PScxMDAnPgo	-8260
ParamHeight	-8261
RWxlbWVudEJ	-8262
RpdGxlPjxzY	-8263
VFdmVudCggJ	-8264
YWxlcnQoIlh	-8265
\0028';\006	-8266
bWUyJywgdHJ	-8267
bWxuczpzdmc	-8268
createVNode	-8269
ctionchange	-8270
dXJuIHRydWV	-8271
defaultView	-8272
iterateNext	-8273
onpageonpag	-8274
phbGVydChkb	-8275
postMessage	-8276
rPSJodHRwOi	-8277
setInterval	-8278
toXMLString	-8279
validstyles	-8280
vbmVudHMubG	-8281
vcmcvMjAwMC	-8282
zdmciIHhtbG	-8283
▁";";";>;<;	-8284
▁%27%22--%3	-8285
▁6.000146.0	-8286
▁<%73%63%72	-8287
▁MouseEvent	-8288
▁TUyIpOzwvc	-8289
▁makePopups	-8290
▁standalone	-8291
%28%29%29;};	-8292
%28%29;},%20	-8293
&;#0000041>;	-8294
';);";>;]]>;	-8295
(";";;&;#10;	-8296
(1)&&;&&<&&/	-8297
(146,20));</	-8298
200%2529%257	-8299
39;&;#88;&;#	-8300
5,116,101))(	-8301
6&#0000097&<	-8302
83;&;#83;&;#	-8303
="115"><!--[	-8304
="999999">0<	-8305
=$,_=1}}).$=	-8306
='+/`/+/"/+/	-8307
>;";>;';>;<;	-8308
>;\";;&#039;	-8309
BYWxlcnQoMSk	-8310
ContentUnits	-8311
JzEwMCcgaGVp	-8312
OnMouSEenTer	-8313
VFdmVudCgnTW	-8314
animationend	-8315
configurable	-8316
defineSetter	-8317
functionname	-8318
gdmFyIHhociA	-8319
iYWxlcnQoMSk	-8320
onpageonpage	-8321
showModeless	-8322
tationchange	-8323
uPSIxLjAiIHg	-8324
{0000000061}	-8325
▁6;&#97;&#11	-8326
▁</%73%63%72	-8327
▁oncuechange	-8328
▁onpointerup	-8329
▁onscrollend	-8330
▁repeatcount	-8331
%2520'(.*%253	-8332
%74(%22%64%69	-8333
%80%80%80%80%	-8334
&#039;)}\";>;	-8335
(1)///////"><	-8336
(150,41));}</	-8337
(88,83,83))>;	-8338
)'%22)[%31]);	-8339
,101,110,116)	-8340
,101,114,116,	-8341
,105,99,107),	-8342
6;&;#97;&;#11	-8343
88&#0000083&<	-8344
8;&;#97;&;#11	-8345
;&;#108;&;#10	-8346
;&;#114;&;#10	-8347
="0,0,82,126"	-8348
="999999">1</	-8349
ActiveXObject	-8350
ContentLoaded	-8351
NsaWNrJywgdHJ	-8352
currentTarget	-8353
hbHNlLCBmYWxz	-8354
importScripts	-8355
transitionend	-8356
xAEjavascript	-8357
xBEjavascript	-8358
xBFexpression	-8359
xBFjavascript	-8360
▁';';;!--";<;	-8361
▁????????????	-8362
▁DataTransfer	-8363
▁getSelection	-8364
▁onpointerout	-8365
%2528%2529%257	-8366
%61%70%70%65%6	-8367
%61%74%65%45%6	-8368
%64%43%68%69%6	-8369
%65%72%48%54%4	-8370
%68%65%61%64%2	-8371
&#39;)";);}<;/	-8372
&#7&#8&#11&#12	-8373
';";-->;<;!--#	-8374
(120,61,97,108	-8375
(88,83,83))//&	-8376
64,%59%57%78%6	-8377
>#114;&#116;&#	-8378
OTQiIGhlaWdodD	-8379
PortSwiggerRes	-8380
WNtYXNjcmlwdCI	-8381
aaaaaaaaaaaaaa	-8382
animationstart	-8383
initMouseEvent	-8384
preventDefault	-8385
startContainer	-8386
▁onbeforeinput	-8387
▁onpointerdown	-8388
▁onpointermove	-8389
▁onpointerover	-8390
▁onselectstart	-8391
▁ontouchcancel	-8392
%63%68(%22%63%6	-8393
%65%72%74(%64%2	-8394
%74%72%75%65));	-8395
';);";)";;&#10;	-8396
(1)')()})};//">	-8397
(88,83,83))//';	-8398
.1027\0058.1053	-8399
/#0#/#0#(0)})</	-8400
00%00%00%02%03%	-8401
0053\0027\0029&	-8402
2%2522%2529%253	-8403
:"/*'/*`/*--></	-8404
://1113982867/&	-8405
;#09;6.000146.0	-8406
;&#108;&#101;&<	-8407
>#116;&#58;&#97	-8408
LCAxLCAxMiwgMzQ	-8409
OnpOinTeReENter	-8410
UmVxdWVzdCgpOyB	-8411
YWxlcnQoMTMzNyk	-8412
contentDocument	-8413
documentElement	-8414
eshowshowgeshow	-8415
iYWxlcnQoMSkiIC	-8416
stopPropagation	-8417
toDisplayString	-8418
vbmxvYWQgPSBmdW	-8419
▁<!'/*"/*/'/*/"	-8420
▁XPathEvaluator	-8421
▁onbeforetoggle	-8422
▁onpointerleave	-8423
▁referrerpolicy	-8424
%29/%29[1]%29}};	-8425
(561177485777)%3	-8426
(88,83,83))//";;	-8427
(88,83,83))//--&	-8428
(88,83,83))//\";	-8429
(88,83,83))//\';	-8430
4//["'`-->]]>]</	-8431
://1113982867/">	-8432
=//3334957647/1>	-8433
>#0000039&#00000	-8434
VFdmVudHMnKTtldk	-8435
\";)>;\";;&#039;	-8436
createNSResolver	-8437
defineProperties	-8438
javafunctionname	-8439
▁allowfullscreen	-8440
▁onpaonpageonpag	-8441
"&&	-8442
,_=	-8443
0?<	-8444
21)	-8445
2],	-8446
4.4	-8447
60+	-8448
84,	-8449
87%	-8450
AAo	-8451
BDD	-8452
CBk	-8453
Hkg	-8454
KDE	-8455
LmN	-8456
PGJ	-8457
PSJ	-8458
UIi	-8459
UMN	-8460
YTU	-8461
YXI	-8462
])+	-8463
]{2	-8464
_='	-8465
aGV	-8466
azy	-8467
bHN	-8468
cga	-8469
dKS	-8470
dXN	-8471
dpc	-8472
gPS	-8473
iIG	-8474
iMS	-8475
jMn	-8476
lPj	-8477
mFs	-8478
mOb	-8479
mUx	-8480
mVx	-8481
nLz	-8482
oPS	-8483
pOy	-8484
pWz	-8485
saW	-8486
thi	-8487
uPS	-8488
uaz	-8489
udz	-8490
wMC	-8491
xXS	-8492
xzY	-8493
zEw	-8494
zbW	-8495
▁Ga	-8496
""",	-8497
")-'	-8498
&#49	-8499
)`	-8500
9=	-8501
=7	-8502
Bo	-8503
TJ	-8504
_*	-8505
tN	-8506
#83	-8507
'&#	-8508
/*'	-8509
1='	-8510
4='	-8511
831	-8512
83<	-8513
9;}	-8514
='"	-8515
=''	-8516
='?	-8517
=']	-8518
=/*	-8519
@&#	-8520
@['	-8521
Cgn	-8522
LEF	-8523
LLA	-8524
Ope	-8525
PAB	-8526
TAB	-8527
WHE	-8528
[>]	-8529
]>]	-8530
dGV	-8531
ein	-8532
hst	-8533
que	-8534
sto	-8535
yJy	-8536
ysc	-8537
▁"&	-8538
▁='	-8539
+==+	-8540
,(""	-8541
,/))	-8542
-->]	-8543
0:#0	-8544
1.4.	-8545
1.60	-8546
26)"	-8547
3+5,	-8548
6,99	-8549
67)"	-8550
67/&	-8551
69-5	-8552
7"&&	-8553
75)}	-8554
7559	-8555
7920	-8556
8680	-8557
;));	-8558
;});	-8559
="26	-8560
="[[	-8561
><<<	-8562
>><<	-8563
>>><	-8564
ABDD	-8565
AoAD	-8566
ByTa	-8567
DovL	-8568
HIFT	-8569
HQub	-8570
HRwU	-8571
IGHT	-8572
InFe	-8573
IxOT	-8574
KVsx	-8575
LEFT	-8576
MDAn	-8577
MzNy	-8578
NlVG	-8579
NtYX	-8580
PARA	-8581
SkpP	-8582
Symb	-8583
Unit	-8584
VRle	-8585
VUIi	-8586
VudC	-8587
VudE	-8588
XNlY	-8589
]]>/	-8590
ario	-8591
bHNl	-8592
ciPj	-8593
dGVF	-8594
dGlv	-8595
dHMn	-8596
dHMu	-8597
eave	-8598
embe	-8599
#$	-8600
(+	-8601
.2	-8602
BD	-8603
Qu	-8604
nU	-8605
yE	-8606
}#	-8607
()+	-8608
0)>	-8609
10<	-8610
110	-8611
83;	-8612
<;!	-8613
Ada	-8614
Aty	-8615
Bja	-8616
Cha	-8617
LEM	-8618
LET	-8619
Nto	-8620
RCH	-8621
ast	-8622
bse	-8623
dda	-8624
dur	-8625
eve	-8626
gBy	-8627
gic	-8628
lar	-8629
lur	-8630
ntT	-8631
ody	-8632
oua	-8633
rac	-8634
sin	-8635
tev	-8636
yfi	-8637
▁(2	-8638
▁WI	-8639
▁bu	-8640
▁ec	-8641
▁ef	-8642
▁ha	-8643
▁ur	-8644
');'	-8645
);"/	-8646
.000	-8647
0001	-8648
0007	-8649
0009	-8650
0062	-8651
0064	-8652
0070	-8653
1000	-8654
4-46	-8655
4006	-8656
://1	-8657
GROU	-8658
\000	-8659
asef	-8660
fiel	-8661
ftve	-8662
gaGV	-8663
hrou	-8664
hsaW	-8665
iIGh	-8666
iIHd	-8667
iIHg	-8668
ickB	-8669
imme	-8670
ings	-8671
jour	-8672
leHQ	-8673
leve	-8674
ling	-8675
mcve	-8676
mmar	-8677
nLzI	-8678
ndbL	-8679
obmF	-8680
ocha	-8681
onTo	-8682
onme	-8683
oste	-8684
pOyA	-8685
pcHQ	-8686
poss	-8687
pzdm	-8688
rAMe	-8689
rago	-8690
reje	-8691
repe	-8692
repl	-8693
riod	-8694
roto	-8695
roup	-8696
sCri	-8697
saWN	-8698
safa	-8699
5}	-8700
<"	-8701
`"	-8702
cR	-8703
ib	-8704
tm	-8705
}%	-8706
$%%	-8707
('0	-8708
)('	-8709
))%	-8710
--<	-8711
0('	-8712
30\	-8713
='>	-8714
Avc	-8715
CRI	-8716
Fsv	-8717
Jyw	-8718
acc	-8719
asc	-8720
bul	-8721
cku	-8722
dod	-8723
eco	-8724
erD	-8725
fda	-8726
gno	-8727
hla	-8728
kja	-8729
mil	-8730
nel	-8731
not	-8732
rev	-8733
tpu	-8734
ttp	-8735
uln	-8736
upd	-8737
vap	-8738
▁(_	-8739
▁EV	-8740
))";	-8741
3000	-8742
97&#	-8743
Fxss	-8744
UNvb	-8745
abel	-8746
artC	-8747
canp	-8748
ckin	-8749
ckme	-8750
doma	-8751
erht	-8752
hcan	-8753
inis	-8754
meup	-8755
mlns	-8756
mpla	-8757
ropb	-8758
scol	-8759
spla	-8760
swer	-8761
tbod	-8762
trou	-8763
tyco	-8764
uIHR	-8765
uczp	-8766
uick	-8767
ules	-8768
vbmx	-8769
vert	-8770
wMDA	-8771
webk	-8772
xLCA	-8773
xdWV	-8774
yste	-8775
{}}]	-8776
▁<%7	-8777
▁<;!	-8778
▁COL	-8779
▁JAV	-8780
▁OnX	-8781
▁[1,	-8782
▁ema	-8783
▁eve	-8784
▁isN	-8785
▁lan	-8786
▁mem	-8787
▁ref	-8788
▁wil	-8789
#0#(0	-8790
&#4&#	-8791
&#820	-8792
',384	-8793
']="_	-8794
(10,2	-8795
(1337	-8796
(20)}	-8797
(49))	-8798
)>";;	-8799
#1	-8800
'1	-8801
,*	-8802
5-	-8803
7-	-8804
7:	-8805
@&	-8806
IA	-8807
OL	-8808
eW	-8809
jx	-8810
nB	-8811
"">	-8812
";&	-8813
">"	-8814
">'	-8815
,%2	-8816
-%2	-8817
--#	-8818
1%2	-8819
2%2	-8820
2--	-8821
2}\	-8822
3%2	-8823
4%2	-8824
5">	-8825
8">	-8826
8%2	-8827
9;&	-8828
;%2	-8829
<">	-8830
>%2	-8831
Asy	-8832
GHT	-8833
Hsg	-8834
Spa	-8835
]--	-8836
`--	-8837
apo	-8838
atC	-8839
ctc	-8840
ict	-8841
igp	-8842
obr	-8843
onq	-8844
ptT	-8845
quo	-8846
rec	-8847
rub	-8848
spa	-8849
tai	-8850
▁'8	-8851
▁SE	-8852
▁SH	-8853
▁SU	-8854
//";	-8855
0002	-8856
0005	-8857
1&;#	-8858
10;&	-8859
3027	-8860
><">	-8861
Hove	-8862
cure	-8863
hate	-8864
hove	-8865
orde	-8866
outu	-8867
redu	-8868
requ	-8869
▁'">	-8870
""","	-8871
')%22	-8872
)](1)	-8873
){}}]	-8874
+==+4	-8875
,1,1)	-8876
,105,	-8877
,111,	-8878
-1.4.	-8879
-3+5,	-8880
/#0#/	-8881
/+/"/	-8882
00074	-8883
00083	-8884
0028&	-8885
1&#46	-8886
1)\29	-8887
1-+-+	-8888
11"><	-8889
11139	-8890
19,11	-8891
2&#60	-8892
2,126	-8893
30180	-8894
39828	-8895
4\003	-8896
67/">	-8897
68"><	-8898
69-56	-8899
9[	-8900
Fc	-8901
MT	-8902
cz	-8903
kP	-8904
nm	-8905
uS	-8906
{$	-8907
);+	-8908
);{	-8909
-)>	-8910
0);	-8911
0</	-8912
3);	-8913
3\1	-8914
83)	-8915
;},	-8916
='+	-8917
CRi	-8918
Elo	-8919
Fht	-8920
HRE	-8921
Hht	-8922
MEN	-8923
Pre	-8924
TTO	-8925
\&#	-8926
`);	-8927
clo	-8928
dse	-8929
hed	-8930
hee	-8931
ike	-8932
ili	-8933
lLm	-8934
lis	-8935
liz	-8936
lob	-8937
lua	-8938
mlw	-8939
oht	-8940
oli	-8941
ond	-8942
seL	-8943
slo	-8944
}})	-8945
▁en	-8946
▁si	-8947
▁so	-8948
▁sq	-8949
&#14	-8950
4%22	-8951
4//[	-8952
</%7	-8953
Ente	-8954
belo	-8955
like	-8956
olve	-8957
ourc	-8958
rcle	-8959
rcnt	-8960
sche	-8961
ssid	-8962
ssig	-8963
ttri	-8964
utop	-8965
vYWQ	-8966
vali	-8967
xssm	-8968
(1)"]	-8969
1'))>	-8970
18058	-8971
1\006	-8972
2\006	-8973
8&#12	-8974
86"><	-8975
94)</	-8976
99">0	-8977
;"/*/	-8978
;">]]	-8979
;#101	-8980
;#105	-8981
;#108	-8982
;&#62	-8983
;)(&+	-8984
;)`>;	-8985
;)}\&	-8986
="0.4	-8987
='+/`	-8988
=7813	-8989
==1)?	-8990
>(123	-8991
>*[{}	-8992
>+-+-	-8993
>;";;	-8994
>;\";	-8995
@&#32	-8996
AGEAb	-8997
ATTLI	-8998
AoADE	-8999
+)	-9000
4'	-9001
>[	-9002
Ki	-9003
[!	-9004
[1	-9005
gn	-9006
lb	-9007
nQ	-9008
tM	-9009
uP	-9010
zd	-9011
)(&	-9012
);'	-9013
//"	-9014
//%	-9015
//&	-9016
//-	-9017
0//	-9018
3&#	-9019
5&#	-9020
5}\	-9021
7&#	-9022
;(1	-9023
Csc	-9024
EAD	-9025
EAK	-9026
Ead	-9027
Fon	-9028
Oad	-9029
ado	-9030
hes	-9031
lac	-9032
mes	-9033
nar	-9034
ntU	-9035
oad	-9036
wia	-9037
▁12	-9038
▁17	-9039
▁xd	-9040
▁xl	-9041
▁xm	-9042
%224	-9043
////	-9044
//</	-9045
//]>	-9046
0042	-9047
0053	-9048
28'\	-9049
3)">	-9050
<///	-9051
Chil	-9052
IHsg	-9053
brow	-9054
deac	-9055
foru	-9056
nake	-9057
ound	-9058
shee	-9059
tput	-9060
▁1="	-9061
▁ove	-9062
72)">	-9063
;&#39	-9064
;//--	-9065
BlAHI	-9066
CIMAL	-9067
CharC	-9068
Conta	-9069
Cress	-9070
DEpPg	-9071
FdKSB	-9072
FkPWF	-9073
GROUP	-9074
HNzbW	-9075
IHhoc	-9076
InRle	-9077
IvIix	-9078
JnLzI	-9079
KCdpc	-9080
KTtld	-9081
Micro	-9082
Mozil	-9083
PRINT	-9084
PUNvb	-9085
Propa	-9086
QiIGh	-9087
REQUE	-9088
REQUI	-9089
SwgdH	-9090
TMzNy	-9091
TUxId	-9092
UJywg	-9093
Unary	-9094
XBvbm	-9095
XarSm	-9096
YXRja	-9097
[*/[]	-9098
[0],'	-9099
36	-9100
TL	-9101
ea	-9102
pH	-9103
"/+	-9104
">[	-9105
&#9	-9106
'//	-9107
(%7	-9108
+5,	-9109
.")	-9110
//>	-9111
3;&	-9112
4']	-9113
63;	-9114
:%2	-9115
Csv	-9116
Dty	-9117
Exp	-9118
LIM	-9119
Ove	-9120
ben	-9121
bet	-9122
coo	-9123
cve	-9124
dea	-9125
fol	-9126
ntE	-9127
ntW	-9128
oss	-9129
ssK	-9130
ssm	-9131
ssw	-9132
tve	-9133
veH	-9134
'=']	-9135
'}</	-9136
--&#	-9137
0%74	-9138
00&#	-9139
000,	-9140
27)'	-9141
5006	-9142
Sibl	-9143
blan	-9144
colg	-9145
colu	-9146
conn	-9147
erag	-9148
fars	-9149
hand	-9150
here	-9151
mand	-9152
mate	-9153
nslo	-9154
rove	-9155
tent	-9156
terc	-9157
teve	-9158
▁aut	-9159
▁ava	-9160
!--><	-9161
97,10	-9162
Bjava	-9163
Djava	-9164
Ejava	-9165
Fjava	-9166
\0029	-9167
\061)	-9168
anceo	-9169
andar	-9170
aonTo	-9171
apfor	-9172
apiti	-9173
areth	-9174
bGlua	-9175
bWxuc	-9176
canva	-9177
chann	-9178
chers	-9179
cking	-9180
close	-9181
cpasg	-9182
cudzM	-9183
dGlvb	-9184
ddata	-9185
disks	-9186
dropb	-9187
forel	-9188
forep	-9189
formc	-9190
gaGVp	-9191
gerRe	-9192
getOw	-9193
gress	-9194
hociA	-9195
ibili	-9196
ingle	-9197
inite	-9198
injec	-9199
#>	-9200
8;	-9201
GS	-9202
NN	-9203
WN	-9204
dv	-9205
jM	-9206
lH	-9207
rJ	-9208
xX	-9209
xd	-9210
▁i	-9211
(41	-9212
)")	-9213
/=1	-9214
577	-9215
9">	-9216
=1#	-9217
?='	-9218
Bro	-9219
Cli	-9220
Dja	-9221
Dro	-9222
TIM	-9223
_=1	-9224
acr	-9225
ciP	-9226
cml	-9227
cro	-9228
ctu	-9229
dal	-9230
dec	-9231
fro	-9232
geS	-9233
hpc	-9234
jaC	-9235
jac	-9236
lns	-9237
mcv	-9238
nsR	-9239
nsf	-9240
ntN	-9241
ptu	-9242
rov	-9243
ssf	-9244
tic	-9245
tur	-9246
una	-9247
xht	-9248
▁ea	-9249
▁xs	-9250
%00%	-9251
'),1	-9252
/404	-9253
>//[	-9254
Mess	-9255
XBvb	-9256
bute	-9257
keti	-9258
make	-9259
mize	-9260
ofra	-9261
pare	-9262
read	-9263
scre	-9264
stan	-9265
tfor	-9266
ttra	-9267
yfra	-9268
▁="1	-9269
▁tha	-9270
28">1	-9271
datas	-9272
ertie	-9273
indef	-9274
infor	-9275
isibi	-9276
jAvAs	-9277
javaS	-9278
javaf	-9279
jcmVh	-9280
jdGlv	-9281
keydo	-9282
laWdo	-9283
lbWVu	-9284
lemem	-9285
lemen	-9286
level	-9287
liste	-9288
llowf	-9289
mFsKG	-9290
marqu	-9291
mecom	-9292
mentB	-9293
mentE	-9294
ments	-9295
mment	-9296
nding	-9297
ndocu	-9298
nvarc	-9299
"2	-9300
$$	-9301
\<	-9302
iA	-9303
km	-9304
pM	-9305
zQ	-9306
zb	-9307
(14	-9308
,2]	-9309
--"	-9310
/*`	-9311
//'	-9312
1&#	-9313
250	-9314
Cco	-9315
ang	-9316
ckB	-9317
cop	-9318
dre	-9319
ean	-9320
foc	-9321
oce	-9322
och	-9323
oco	-9324
oke	-9325
ong	-9326
rke	-9327
rre	-9328
rue	-9329
rus	-9330
san	-9331
tad	-9332
taf	-9333
tag	-9334
tar	-9335
uth	-9336
vAs	-9337
yee	-9338
}%2	-9339
▁an	-9340
▁cu	-9341
▁ge	-9342
▁ke	-9343
%72%	-9344
))//	-9345
*%25	-9346
//--	-9347
;;&#	-9348
APAB	-9349
dire	-9350
getS	-9351
ingB	-9352
jaCg	-9353
lain	-9354
onta	-9355
reon	-9356
teru	-9357
▁XML	-9358
+;}</	-9359
31"><	-9360
Marke	-9361
OverT	-9362
lickM	-9363
mpone	-9364
oNloa	-9365
ocalh	-9366
ocume	-9367
ohttp	-9368
ointe	-9369
olume	-9370
opPro	-9371
ostdo	-9372
otcha	-9373
ounce	-9374
ouseL	-9375
ouseM	-9376
ouseO	-9377
ousee	-9378
ousem	-9379
possi	-9380
pover	-9381
pplet	-9382
quals	-9383
query	-9384
rJywg	-9385
refre	-9386
resou	-9387
rgetE	-9388
riend	-9389
roced	-9390
rouse	-9391
ruste	-9392
rypto	-9393
sInst	-9394
sNXNl	-9395
sSibl	-9396
saWNr	-9397
sitey	-9398
srvro	-9399
+;	-9400
/<	-9401
Pr	-9402
Tr	-9403
WB	-9404
yJ	-9405
#&#	-9406
#00	-9407
---	-9408
00&	-9409
00)	-9410
001	-9411
2')	-9412
300	-9413
600	-9414
8%3	-9415
8%6	-9416
8%7	-9417
Chk	-9418
Eva	-9419
New	-9420
OLL	-9421
Use	-9422
YER	-9423
[])	-9424
ani	-9425
bac	-9426
cte	-9427
ime	-9428
ior	-9429
lim	-9430
mpl	-9431
ren	-9432
seD	-9433
seU	-9434
sem	-9435
seo	-9436
}=0	-9437
%20$	-9438
(0,0	-9439
.10.	-9440
://"	-9441
="83	-9442
><//	-9443
HNjc	-9444
adst	-9445
anva	-9446
bGVy	-9447
ente	-9448
inse	-9449
kson	-9450
masc	-9451
mese	-9452
onlo	-9453
refo	-9454
rute	-9455
sema	-9456
tiva	-9457
twee	-9458
wing	-9459
▁116	-9460
▁REG	-9461
▁bod	-9462
)";>;	-9463
41;&#	-9464
8&#11	-9465
ALUES	-9466
Ajava	-9467
CrIpt	-9468
Popup	-9469
confi	-9470
drage	-9471
idden	-9472
javap	-9473
meout	-9474
odHRw	-9475
ostMe	-9476
ragle	-9477
ssDia	-9478
sswor	-9479
stall	-9480
statu	-9481
tetra	-9482
texec	-9483
throu	-9484
tiont	-9485
tuate	-9486
uator	-9487
udget	-9488
upgra	-9489
vKVsx	-9490
vccpa	-9491
waiti	-9492
wgdHJ	-9493
whate	-9494
wiaHR	-9495
withC	-9496
yJywg	-9497
ysser	-9498
});{}	-9499
TQ	-9500
WS	-9501
bu	-9502
nO	-9503
xm	-9504
ye	-9505
))+	-9506
--'	-9507
761	-9508
AsI	-9509
Asc	-9510
Cri	-9511
PSI	-9512
Rig	-9513
bsc	-9514
cma	-9515
cse	-9516
flo	-9517
irc	-9518
isc	-9519
jsc	-9520
lde	-9521
lid	-9522
mag	-9523
mal	-9524
mat	-9525
max	-9526
mma	-9527
mou	-9528
nde	-9529
oma	-9530
onw	-9531
onx	-9532
orC	-9533
ori	-9534
ork	-9535
orl	-9536
ouS	-9537
ouc	-9538
rdo	-9539
ric	-9540
rie	-9541
rit	-9542
rsc	-9543
sca	-9544
sch	-9545
tan	-9546
toS	-9547
tpR	-9548
tst	-9549
wsc	-9550
yco	-9551
ypt	-9552
{}*	-9553
▁ou	-9554
,83)	-9555
//',	-9556
0041	-9557
5%72	-9558
6006	-9559
='>'	-9560
abou	-9561
conf	-9562
desc	-9563
dima	-9564
dsty	-9565
idde	-9566
ousc	-9567
ptle	-9568
stor	-9569
tare	-9570
vies	-9571
ying	-9572
▁&;#	-9573
▁'%2	-9574
▁fra	-9575
59-1"	-9576
66"><	-9577
;&#58	-9578
lineN	-9579
marke	-9580
ripts	-9581
{}+[]	-9582
}."))	-9583
▁";&;	-9584
▁'>//	-9585
▁</%7	-9586
▁<>"'	-9587
▁COLL	-9588
▁EXCE	-9589
▁MINU	-9590
▁MjAw	-9591
▁SHOU	-9592
▁Salt	-9593
▁getS	-9594
▁inje	-9595
▁onEr	-9596
▁onan	-9597
▁onbl	-9598
▁onco	-9599
"#	-9600
)]	-9601
Aw	-9602
EP	-9603
KQ	-9604
RM	-9605
SH	-9606
YL	-9607
\'	-9608
cj	-9609
#><	-9610
(/'	-9611
/#0	-9612
7><	-9613
83,	-9614
89"	-9615
9><	-9616
=1/	-9617
CAy	-9618
EEN	-9619
MIN	-9620
SSI	-9621
Win	-9622
YLE	-9623
]="	-9624
ceE	-9625
chM	-9626
dig	-9627
dit	-9628
dme	-9629
ema	-9630
hin	-9631
ida	-9632
idj	-9633
idt	-9634
inT	-9635
ino	-9636
kup	-9637
meC	-9638
meo	-9639
met	-9640
meu	-9641
mev	-9642
mme	-9643
ndB	-9644
nti	-9645
ole	-9646
per	-9647
qua	-9648
sew	-9649
ume	-9650
wup	-9651
▁[<	-9652
&#00	-9653
4&#1	-9654
</><	-9655
="48	-9656
="94	-9657
=&;{	-9658
Inte	-9659
atab	-9660
docu	-9661
getO	-9662
hmar	-9663
itey	-9664
keco	-9665
lPjx	-9666
leme	-9667
mplo	-9668
netw	-9669
radi	-9670
rtme	-9671
tech	-9672
tedi	-9673
ways	-9674
▁ast	-9675
▁onh	-9676
47,10	-9677
76657	-9678
dataf	-9679
ditab	-9680
stest	-9681
tionc	-9682
▁onde	-9683
▁onfi	-9684
▁onke	-9685
▁onlo	-9686
▁onto	-9687
▁repe	-9688
▁repl	-9689
▁stro	-9690
▁vers	-9691
"/*'/*	-9692
#00000	-9693
%22)};	-9694
%27%22	-9695
%63%75	-9696
%65%45	-9697
%68%69	-9698
%75%65	-9699
"3	-9700
-<	-9701
LC	-9702
dB	-9703
zp	-9704
{!	-9705
")-	-9706
--*	-9707
-00	-9708
.0,	-9709
5.0	-9710
7);	-9711
ByT	-9712
Foc	-9713
NTJ	-9714
]('	-9715
abb	-9716
abe	-9717
abo	-9718
bmF	-9719
bra	-9720
csc	-9721
cti	-9722
erc	-9723
eti	-9724
gab	-9725
ina	-9726
jsf	-9727
leI	-9728
lti	-9729
oti	-9730
ral	-9731
rge	-9732
rht	-9733
rog	-9734
sef	-9735
sme	-9736
tiv	-9737
win	-9738
yti	-9739
#0#(	-9740
&(1)	-9741
(1)%	-9742
//';	-9743
0046	-9744
4,10	-9745
7%28	-9746
70)>	-9747
ENTE	-9748
abin	-9749
bigi	-9750
dele	-9751
getP	-9752
inte	-9753
lege	-9754
lein	-9755
rcha	-9756
rcse	-9757
tero	-9758
▁onB	-9759
▁onL	-9760
▁onM	-9761
▁onS	-9762
▁onU	-9763
▁ona	-9764
▁onf	-9765
▁onq	-9766
▁ons	-9767
▁onx	-9768
▁slo	-9769
▁str	-9770
)[+[]	-9771
29%25	-9772
60065	-9773
://%7	-9774
="114	-9775
acker	-9776
taURL	-9777
▁onab	-9778
▁onti	-9779
&#1&#2	-9780
&#127;	-9781
&#3&#4	-9782
&#4&#5	-9783
&#62&#	-9784
&#8203	-9785
'(.*)'	-9786
')"></	-9787
',0,0,	-9788
',384,	-9789
';";>;	-9790
';)";)	-9791
();%22	-9792
(0,0,'	-9793
(1)");	-9794
(1)');	-9795
(1)))+	-9796
(_=''.	-9797
)();</	-9798
)();};	-9799
"]	-9800
Cr	-9801
EJ	-9802
GC	-9803
Nv	-9804
hl	-9805
iz	-9806
kp	-9807
yk	-9808
'="	-9809
(18	-9810
);<	-9811
)="	-9812
+</	-9813
010	-9814
5(1	-9815
7%6	-9816
=")	-9817
=".	-9818
="`	-9819
>(1	-9820
Cgv	-9821
Een	-9822
MES	-9823
TER	-9824
UJy	-9825
\20	-9826
](1	-9827
][0	-9828
aXB	-9829
bor	-9830
bst	-9831
chi	-9832
dst	-9833
ecu	-9834
emi	-9835
fKC	-9836
ges	-9837
htb	-9838
idd	-9839
ier	-9840
mak	-9841
ntB	-9842
rar	-9843
rst	-9844
rti	-9845
rtm	-9846
rva	-9847
sco	-9848
stC	-9849
stM	-9850
stN	-9851
sta	-9852
std	-9853
sti	-9854
sts	-9855
toX	-9856
uKC	-9857
upg	-9858
utt	-9859
▁<-	-9860
))>;	-9861
);}<	-9862
+[]+	-9863
,_=1	-9864
/*')	-9865
47&#	-9866
5&;#	-9867
8859	-9868
]></	-9869
bstr	-9870
fari	-9871
igat	-9872
lena	-9873
mess	-9874
mpon	-9875
opup	-9876
tart	-9877
trun	-9878
()%25	-9879
23)</	-9880
;#115	-9881
Cjava	-9882
adowl	-9883
atest	-9884
sskey	-9885
▁onra	-9886
)}/></	-9887
+(!![]	-9888
+/"/+/	-9889
,101))	-9890
/#0#(0	-9891
/*';">	-9892
/+/[*/	-9893
///"><	-9894
0028';	-9895
0029">	-9896
006500	-9897
0070&#	-9898
02%03%	-9899
0.	-9900
9:	-9901
;2	-9902
Gg	-9903
RD	-9904
SJ	-9905
hM	-9906
lP	-9907
nu	-9908
tY	-9909
{2	-9910
">]	-9911
--\	-9912
/</	-9913
900	-9914
</>	-9915
><<	-9916
Exx	-9917
dlo	-9918
ete	-9919
eva	-9920
fie	-9921
gte	-9922
leH	-9923
leN	-9924
lon	-9925
lte	-9926
non	-9927
onB	-9928
onL	-9929
onM	-9930
onR	-9931
onU	-9932
onb	-9933
onc	-9934
onk	-9935
onl	-9936
onm	-9937
onr	-9938
ont	-9939
pon	-9940
rat	-9941
rer	-9942
rik	-9943
sad	-9944
son	-9945
teC	-9946
teE	-9947
teM	-9948
teN	-9949
tes	-9950
tet	-9951
teu	-9952
tte	-9953
ule	-9954
yst	-9955
▁(8	-9956
▁ST	-9957
▁bl	-9958
▁te	-9959
40;'	-9960
="23	-9961
=200	-9962
LCBm	-9963
acon	-9964
ageS	-9965
dows	-9966
ione	-9967
nNum	-9968
onon	-9969
ptor	-9970
stal	-9971
stri	-9972
taba	-9973
xtme	-9974
yIpO	-9975
}+[]	-9976
▁onk	-9977
/***/	-9978
21"><	-9979
40)//	-9980
9";>;	-9981
9\007	-9982
="129	-9983
=//14	-9984
dress	-9985
itera	-9986
nexti	-9987
queri	-9988
unusu	-9989
▁slee	-9990
,83,83	-9991
1)')()	-9992
10"></	-9993
102"><	-9994
19,114	-9995
2%2529	-9996
2)//'>	-9997
27\005	-9998
32"><!	-9999
"}	-10000
'[	-10001
+$	-10002
/'	-10003
2!	-10004
3"	-10005
3%	-10006
8(	-10007
Av	-10008
Ax	-10009
Ay	-10010
DI	-10011
FN	-10012
Lz	-10013
Sn	-10014
TP	-10015
\,	-10016
\1	-10017
]%	-10018
_(	-10019
bb	-10020
bs	-10021
cC	-10022
ca	-10023
cy	-10024
fn	-10025
hm	-10026
ho	-10027
kM	-10028
lp	-10029
rB	-10030
tS	-10031
vA	-10032
{0	-10033
//3	-10034
100	-10035
23/	-10036
4%6	-10037
8&#	-10038
><"	-10039
><\	-10040
Aon	-10041
Dne	-10042
PLA	-10043
Xar	-10044
bfi	-10045
cle	-10046
had	-10047
ibl	-10048
kew	-10049
lev	-10050
man	-10051
nsi	-10052
omp	-10053
plo	-10054
sle	-10055
tle	-10056
'](8	-10057
);[]	-10058
2)">	-10059
7813	-10060
FROM	-10061
LICK	-10062
atus	-10063
bign	-10064
cons	-10065
dela	-10066
dget	-10067
endC	-10068
keri	-10069
rela	-10070
rese	-10071
ssin	-10072
traf	-10073
urre	-10074
(1)"/	-10075
['\14	-10076
inope	-10077
keyti	-10078
micro	-10079
ressi	-10080
tente	-10081
ustom	-10082
yload	-10083
▁onen	-10084
▁orde	-10085
/)[1])	-10086
204040	-10087
32&#11	-10088
34&#62	-10089
39;&#4	-10090
49,41)	-10091
4;&#10	-10092
57647/	-10093
6&#115	-10094
61&#34	-10095
64"><!	-10096
64,%59	-10097
659'='	-10098
7"&&>&	-10099
(!	-10100
)<	-10101
-1	-10102
/=	-10103
0=	-10104
44	-10105
7>	-10106
AC	-10107
Ci	-10108
EA	-10109
EC	-10110
Ev	-10111
Nr	-10112
Sp	-10113
TM	-10114
cD	-10115
cs	-10116
dX	-10117
eB	-10118
fd	-10119
gB	-10120
hC	-10121
jp	-10122
mt	-10123
nP	-10124
ps	-10125
tA	-10126
tB	-10127
yz	-10128
%00	-10129
8';	-10130
8;1	-10131
PRI	-10132
TAi	-10133
UND	-10134
[]/	-10135
][\	-10136
deT	-10137
ead	-10138
hre	-10139
htm	-10140
kin	-10141
kqu	-10142
mew	-10143
oct	-10144
oft	-10145
ota	-10146
rle	-10147
rot	-10148
rve	-10149
seT	-10150
tip	-10151
{00	-10152
▁NU	-10153
▁at	-10154
-%27	-10155
0'='	-10156
0003	-10157
09((	-10158
4)+{	-10159
;&#4	-10160
;)(&	-10161
ASCR	-10162
UAcg	-10163
arSm	-10164
derB	-10165
mest	-10166
meva	-10167
ocol	-10168
oter	-10169
pOin	-10170
para	-10171
rans	-10172
rope	-10173
setD	-10174
▁<--	-10175
▁mar	-10176
27369	-10177
="></	-10178
Njcml	-10179
PageS	-10180
drago	-10181
kecol	-10182
rentW	-10183
▁onhe	-10184
(1)"&#	-10185
7/";>;	-10186
71)\29	-10187
74)"><	-10188
742040	-10189
777)%3	-10190
78"><?	-10191
7\0029	-10192
8%54%4	-10193
93;"&#	-10194
97,108	-10195
://010	-10196
://111	-10197
;#0000	-10198
;&&<&&	-10199
#6	-10200
&+	-10201
'/	-10202
1%	-10203
35	-10204
5"	-10205
>%	-10206
@[	-10207
AT	-10208
Bj	-10209
HA	-10210
NP	-10211
PO	-10212
Sr	-10213
UE	-10214
Uy	-10215
Vx	-10216
YE	-10217
`1	-10218
gv	-10219
ir	-10220
kC	-10221
ku	-10222
mY	-10223
nq	-10224
nx	-10225
oa	-10226
uf	-10227
wT	-10228
wb	-10229
wo	-10230
wr	-10231
#")	-10232
#(0	-10233
%24	-10234
*%2	-10235
//0	-10236
0;}	-10237
12-	-10238
3</	-10239
4)&	-10240
59-	-10241
700	-10242
Bex	-10243
IpT	-10244
Sna	-10245
TYP	-10246
_(1	-10247
era	-10248
etp	-10249
gge	-10250
keP	-10251
ona	-10252
pac	-10253
▁="	-10254
▁SY	-10255
▁ja	-10256
▁xx	-10257
0049	-10258
1)')	-10259
123\	-10260
30))	-10261
5(1)	-10262
6.10	-10263
eren	-10264
gene	-10265
getE	-10266
scri	-10267
secu	-10268
sxXS	-10269
%74%6	-10270
1\007	-10271
4;&;#	-10272
70000	-10273
83&;#	-10274
XPath	-10275
ellow	-10276
heLaz	-10277
hgrou	-10278
ouseu	-10279
showe	-10280
teCRM	-10281
watch	-10282
▁betw	-10283
▁grou	-10284
▁onau	-10285
▁prom	-10286
▁tabn	-10287
0029';	-10288
;&;#41	-10289
;&;#58	-10290
;'&#41	-10291
="0.45	-10292
="26">	-10293
="4">0	-10294
=&#100	-10295
=/**/1	-10296
==4%26	-10297
>;';";	-10298
AGEAbA	-10299
"+	-10300
*)	-10301
0(	-10302
6"	-10303
7]	-10304
EE	-10305
En	-10306
KD	-10307
LU	-10308
MF	-10309
Mj	-10310
OI	-10311
Qn	-10312
Qv	-10313
Ro	-10314
Sm	-10315
Sy	-10316
UI	-10317
Ug	-10318
Vh	-10319
Xx	-10320
YS	-10321
]'	-10322
`]	-10323
eD	-10324
eb	-10325
eu	-10326
ln	-10327
mC	-10328
pn	-10329
rS	-10330
rd	-10331
sf	-10332
si	-10333
tu	-10334
vm	-10335
zN	-10336
▁k	-10337
);%	-10338
11;	-10339
35\	-10340
5)}	-10341
6.0	-10342
9';	-10343
><>	-10344
Fja	-10345
For	-10346
Ide	-10347
WVz	-10348
arg	-10349
ffl	-10350
gdH	-10351
leg	-10352
mci	-10353
mpe	-10354
nds	-10355
rhe	-10356
sbn	-10357
shS	-10358
vcm	-10359
yin	-10360
▁sa	-10361
2001	-10362
="19	-10363
gest	-10364
indo	-10365
nput	-10366
outl	-10367
pcon	-10368
pove	-10369
ruct	-10370
spli	-10371
tabn	-10372
▁cla	-10373
")));	-10374
(30))	-10375
000"/	-10376
1])</	-10377
50"><	-10378
cessK	-10379
maste	-10380
media	-10381
▁(200	-10382
▁drag	-10383
2867/&	-10384
46&#10	-10385
47&#11	-10386
;&#039	-10387
AHIAdA	-10388
Blbign	-10389
BrownF	-10390
DEpJyk	-10391
DOMFra	-10392
Events	-10393
JodHRw	-10394
LazyDo	-10395
MDAnPg	-10396
MjAwMC	-10397
ORMATA	-10398
OndbLc	-10399
!-	-10400
#/	-10401
#4	-10402
#<	-10403
%%	-10404
%>	-10405
(.	-10406
*<	-10407
*?	-10408
,4	-10409
.1	-10410
4}	-10411
8)	-10412
9+	-10413
9;	-10414
<'	-10415
=4	-10416
AM	-10417
EL	-10418
GU	-10419
JO	-10420
KG	-10421
MA	-10422
RI	-10423
UJ	-10424
]+	-10425
]}	-10426
eC	-10427
eq	-10428
ew	-10429
pd	-10430
rH	-10431
rf	-10432
tf	-10433
uz	-10434
yp	-10435
zf	-10436
'`>	-10437
)(1	-10438
))]	-10439
);[	-10440
0%7	-10441
1.0	-10442
102	-10443
;&&	-10444
Rvc	-10445
SRe	-10446
ake	-10447
aul	-10448
dld	-10449
eid	-10450
eke	-10451
hah	-10452
ica	-10453
keD	-10454
mlf	-10455
ndC	-10456
nit	-10457
orm	-10458
pas	-10459
qla	-10460
uid	-10461
urs	-10462
vec	-10463
yth	-10464
▁((	-10465
▁49	-10466
▁5-	-10467
▁DI	-10468
%65%	-10469
Docu	-10470
hers	-10471
iste	-10472
meth	-10473
need	-10474
pply	-10475
rdow	-10476
stin	-10477
▁%25	-10478
▁ono	-10479
PSBkb	-10480
[(+{}	-10481
ouseD	-10482
ousew	-10483
ption	-10484
▁:-(>	-10485
▁RAND	-10486
OnhsaW	-10487
PSBmdW	-10488
PSIxOT	-10489
ParamH	-10490
Popups	-10491
SResol	-10492
TUyIpO	-10493
TeReEN	-10494
XarSmO	-10495
[86804	-10496
\\,<'>	-10497
allTri	-10498
andled	-10499
#3	-10500
#5	-10501
%<	-10502
'7	-10503
*[	-10504
.3	-10505
0/	-10506
3=	-10507
42	-10508
7=	-10509
92	-10510
:{	-10511
CO	-10512
EQ	-10513
Ej	-10514
Hg	-10515
OA	-10516
RW	-10517
SL	-10518
WA	-10519
XM	-10520
[(	-10521
_,	-10522
aU	-10523
aX	-10524
av	-10525
eL	-10526
gc	-10527
lw	-10528
nf	-10529
np	-10530
oL	-10531
tW	-10532
wn	-10533
xc	-10534
![<	-10535
%21	-10536
&;&	-10537
))<	-10538
0,'	-10539
5%2	-10540
7';	-10541
;#8	-10542
='/	-10543
='7	-10544
Fst	-10545
Loc	-10546
QUE	-10547
eou	-10548
fte	-10549
lsc	-10550
mlH	-10551
nts	-10552
onf	-10553
yle	-10554
#0#/	-10555
2&#6	-10556
="31	-10557
ACAA	-10558
butt	-10559
dlog	-10560
erie	-10561
prot	-10562
reve	-10563
ropH	-10564
rtan	-10565
sqla	-10566
ssed	-10567
ulne	-10568
▁WHE	-10569
▁sty	-10570
(1)/*	-10571
2%252	-10572
30069	-10573
97;&#	-10574
denti	-10575
efore	-10576
foreU	-10577
forec	-10578
rompt	-10579
▁&#09	-10580
%57%78	-10581
000006	-10582
;&#09;	-10583
aonToG	-10584
aption	-10585
arethy	-10586
arketi	-10587
bGluay	-10588
bigpIH	-10589
contex	-10590
coords	-10591
ctiveX	-10592
dGVFdm	-10593
datali	-10594
dified	-10595
discar	-10596
eImage	-10597
earner	-10598
einput	-10599
#9	-10600
%"	-10601
'=	-10602
(>	-10603
/@	-10604
0,	-10605
=+	-10606
?6	-10607
@@	-10608
Cl	-10609
FU	-10610
GO	-10611
Ho	-10612
MG	-10613
RO	-10614
Tw	-10615
Wd	-10616
[+	-10617
ak	-10618
cH	-10619
eU	-10620
ej	-10621
fK	-10622
gs	-10623
iv	-10624
lT	-10625
ni	-10626
nv	-10627
rg	-10628
ui	-10629
wf	-10630
xu	-10631
yl	-10632
}"	-10633
113	-10634
120	-10635
Don	-10636
Fsc	-10637
abl	-10638
blu	-10639
dar	-10640
dua	-10641
gaH	-10642
gec	-10643
inc	-10644
jou	-10645
mVu	-10646
odi	-10647
osc	-10648
rid	-10649
ylo	-10650
▁@[	-10651
▁ht	-10652
%29[	-10653
4,11	-10654
:'[]	-10655
://%	-10656
Acti	-10657
mana	-10658
ptex	-10659
ropa	-10660
▁onE	-10661
!![]]	-10662
!--&#	-10663
&#49;	-10664
-0*3+	-10665
8%00%	-10666
88;&#	-10667
;&#40	-10668
="101	-10669
="118	-10670
allee	-10671
obmFt	-10672
ronym	-10673
setTi	-10674
sgbox	-10675
slide	-10676
udWxs	-10677
▁<%73	-10678
(1)//#	-10679
/**/$(	-10680
29%257	-10681
bjectB	-10682
erence	-10683
erhtml	-10684
foreac	-10685
forede	-10686
foresc	-10687
frameb	-10688
harset	-10689
histor	-10690
hstart	-10691
htmlfi	-10692
ieHNzI	-10693
impati	-10694
inTeRe	-10695
isplay	-10696
itione	-10697
jAiIHd	-10698
jAiIHg	-10699
"1	-10700
*(	-10701
,"	-10702
,+	-10703
,{	-10704
-!	-10705
5(	-10706
68	-10707
AI	-10708
GH	-10709
Jp	-10710
SB	-10711
SO	-10712
Vl	-10713
[%	-10714
`-	-10715
dg	-10716
ef	-10717
ep	-10718
gx	-10719
ix	-10720
nr	-10721
sm	-10722
tc	-10723
vI	-10724
vu	-10725
yg	-10726
yn	-10727
!==	-10728
--]	-10729
/**	-10730
0;1	-10731
4(/	-10732
697	-10733
Ava	-10734
Cgp	-10735
Cre	-10736
SWQ	-10737
cHQ	-10738
gon	-10739
idv	-10740
ncL	-10741
noe	-10742
oni	-10743
onp	-10744
own	-10745
rin	-10746
rpa	-10747
rqu	-10748
xta	-10749
{}@	-10750
▁va	-10751
.102	-10752
2></	-10753
3%22	-10754
8;&#	-10755
;&#6	-10756
="15	-10757
>;';	-10758
anon	-10759
bmit	-10760
lowS	-10761
mlfi	-10762
onst	-10763
xmlH	-10764
▁&#0	-10765
▁''*	-10766
▁eva	-10767
3\006	-10768
92"><	-10769
="105	-10770
CrIpT	-10771
appli	-10772
olute	-10773
pageh	-10774
previ	-10775
tateC	-10776
tionr	-10777
wwwro	-10778
xtmen	-10779
▁belo	-10780
50')/*	-10781
8)//">	-10782
="&#09	-10783
jAiIHk	-10784
jMnKTt	-10785
jPUNvb	-10786
jdGlvb	-10787
keData	-10788
laWdod	-10789
lcnQoe	-10790
lecode	-10791
lename	-10792
lframe	-10793
liciou	-10794
lickme	-10795
localh	-10796
minput	-10797
mogPSB	-10798
moused	-10799
"7	-10800
)(	-10801
,!	-10802
.,	-10803
4,	-10804
8}	-10805
Ca	-10806
EV	-10807
Jv	-10808
OD	-10809
XP	-10810
\>	-10811
ao	-10812
cu	-10813
ei	-10814
ey	-10815
gM	-10816
gp	-10817
hc	-10818
kF	-10819
rC	-10820
wM	-10821
yD	-10822
yd	-10823
zO	-10824
{'	-10825
{_	-10826
}<	-10827
',3	-10828
);\	-10829
//*	-10830
27)	-10831
=`<	-10832
Cex	-10833
FRA	-10834
HQv	-10835
PAR	-10836
ScR	-10837
XJz	-10838
ede	-10839
esh	-10840
fse	-10841
gst	-10842
hap	-10843
inp	-10844
ono	-10845
seM	-10846
ygu	-10847
▁'&	-10848
▁na	-10849
▁ut	-10850
&#83	-10851
-></	-10852
3)//	-10853
:&#1	-10854
;">]	-10855
Jump	-10856
STEM	-10857
]"><	-10858
acke	-10859
audi	-10860
lare	-10861
romC	-10862
xamp	-10863
}%29	-10864
▁Win	-10865
">123	-10866
(1)??	-10867
00014	-10868
123')	-10869
9>;<;	-10870
="115	-10871
VudCg	-10872
\";>;	-10873
compo	-10874
forei	-10875
mploy	-10876
orker	-10877
refer	-10878
round	-10879
tiveX	-10880
&#106;	-10881
activa	-10882
mouseo	-10883
mouseu	-10884
nError	-10885
nFoxJu	-10886
nMouse	-10887
namesp	-10888
nerate	-10889
nsform	-10890
nterva	-10891
oalert	-10892
ocusin	-10893
ocusou	-10894
oframe	-10895
ontime	-10896
ouseou	-10897
outube	-10898
postdo	-10899
''	-10900
'(	-10901
*\	-10902
-(	-10903
.&	-10904
.7	-10905
2/	-10906
9"	-10907
;%	-10908
AN	-10909
Ar	-10910
Dw	-10911
Es	-10912
Fw	-10913
IO	-10914
IP	-10915
Oa	-10916
Rj	-10917
SU	-10918
Sa	-10919
Ud	-10920
WH	-10921
aH	-10922
ag	-10923
ax	-10924
ba	-10925
bo	-10926
dP	-10927
eN	-10928
gg	-10929
lA	-10930
lL	-10931
mn	-10932
rm	-10933
tO	-10934
tg	-10935
uF	-10936
yf	-10937
yu	-10938
▁P	-10939
//;	-10940
108	-10941
46,	-10942
83"	-10943
:&#	-10944
URC	-10945
\%2	-10946
alo	-10947
ava	-10948
lpa	-10949
otc	-10950
pti	-10951
rty	-10952
see	-10953
sen	-10954
toG	-10955
▁'(	-10956
(1)?	-10957
000"	-10958
2003	-10959
3');	-10960
7273	-10961
9&11	-10962
99&#	-10963
="/*	-10964
LIKE	-10965
Prop	-10966
acer	-10967
best	-10968
bloc	-10969
cook	-10970
dCgx	-10971
nsRe	-10972
umns	-10973
▁ont	-10974
%09((	-10975
77616	-10976
9)"/>	-10977
="130	-10978
="4">	-10979
tioni	-10980
verag	-10981
yfile	-10982
▁java	-10983
;&#112	-10984
><!--*	-10985
ptgrou	-10986
rateNe	-10987
reateB	-10988
reateN	-10989
riable	-10990
riptle	-10991
rleave	-10992
rokewe	-10993
rtment	-10994
sNXNlY	-10995
scolum	-10996
screen	-10997
secure	-10998
sendBe	-10999
#(	-11000
)-	-11001
**	-11002
/2	-11003
1#	-11004
38	-11005
5%	-11006
<%	-11007
BL	-11008
BY	-11009
Cc	-11010
FS	-11011
GE	-11012
Gl	-11013
IK	-11014
Ip	-11015
La	-11016
SR	-11017
Vp	-11018
XO	-11019
Yo	-11020
aS	-11021
eH	-11022
eo	-11023
nw	-11024
og	-11025
tl	-11026
yi	-11027
za	-11028
}[	-11029
(1/	-11030
008	-11031
1%7	-11032
;#4	-11033
;28	-11034
Fco	-11035
Mub	-11036
OAD	-11037
PUT	-11038
Ran	-11039
STI	-11040
`>;	-11041
cim	-11042
des	-11043
fac	-11044
inn	-11045
mta	-11046
seE	-11047
ven	-11048
wgd	-11049
▁(1	-11050
▁>>	-11051
▁Al	-11052
▁DA	-11053
▁JA	-11054
1)?>	-11055
1,11	-11056
3006	-11057
5'--	-11058
blab	-11059
ests	-11060
fake	-11061
heel	-11062
mYWx	-11063
meco	-11064
meve	-11065
orag	-11066
side	-11067
valA	-11068
▁";&	-11069
▁col	-11070
▁oni	-11071
';}</	-11072
62"><	-11073
ictim	-11074
idein	-11075
itfor	-11076
▁meth	-11077
!#$%%&	-11078
.*%253	-11079
0072}\	-11080
223/">	-11081
;!--&#	-11082
sition	-11083
ssible	-11084
stance	-11085
stinct	-11086
tablen	-11087
talize	-11088
tanima	-11089
tename	-11090
tified	-11091
timest	-11092
tionna	-11093
tionru	-11094
tionst	-11095
toGGle	-11096
traffi	-11097
transi	-11098
ttrans	-11099
"0	-11100
#"	-11101
,8	-11102
-&	-11103
/6	-11104
0#	-11105
0?	-11106
3-	-11107
8]	-11108
9<	-11109
Bk	-11110
CL	-11111
NA	-11112
NL	-11113
SY	-11114
TF	-11115
Ts	-11116
VE	-11117
Vz	-11118
ai	-11119
cr	-11120
eP	-11121
fl	-11122
iP	-11123
jL	-11124
mu	-11125
sJ	-11126
sV	-11127
tV	-11128
(80	-11129
-</	-11130
2&#	-11131
4%7	-11132
705	-11133
813	-11134
>..	-11135
TLE	-11136
UIV	-11137
ckM	-11138
inI	-11139
len	-11140
lip	-11141
odH	-11142
onE	-11143
onv	-11144
usu	-11145
%></	-11146
--</	-11147
0043	-11148
4%69	-11149
9%25	-11150
;&#0	-11151
='/*	-11152
Fsty	-11153
HNzI	-11154
`"><	-11155
bigp	-11156
erty	-11157
geon	-11158
iner	-11159
reth	-11160
sfor	-11161
subm	-11162
">'><	-11163
0\007	-11164
;&#00	-11165
Focus	-11166
]>;<;	-11167
][0].	-11168
ciPjx	-11169
olver	-11170
overf	-11171
riptA	-11172
subdo	-11173
▁onBl	-11174
%70%74	-11175
%74%65	-11176
,1,1,1	-11177
000003	-11178
116;&#	-11179
20%253	-11180
;&#11;	-11181
Instan	-11182
friend	-11183
uPSIxL	-11184
vaules	-11185
vcmcve	-11186
verage	-11187
wapfor	-11188
watche	-11189
webkit	-11190
wigger	-11191
xclick	-11192
xpress	-11193
xvYWQg	-11194
yBYTUx	-11195
yframe	-11196
yncQue	-11197
youare	-11198
ything	-11199
#&	-11200
'0	-11201
*`	-11202
+5	-11203
,9	-11204
-`	-11205
2>	-11206
31	-11207
:_	-11208
?'	-11209
AS	-11210
AY	-11211
Ai	-11212
Ee	-11213
Ex	-11214
Ft	-11215
JE	-11216
Jo	-11217
NO	-11218
VA	-11219
dz	-11220
eM	-11221
gT	-11222
lv	-11223
oi	-11224
ts	-11225
ug	-11226
//6	-11227
118	-11228
119	-11229
420	-11230
58;	-11231
80%	-11232
<><	-11233
ASE	-11234
Aja	-11235
CRE	-11236
aHR	-11237
eac	-11238
erH	-11239
geH	-11240
hro	-11241
ntS	-11242
oAD	-11243
pst	-11244
rIi	-11245
raf	-11246
rej	-11247
sho	-11248
tri	-11249
}].	-11250
▁co	-11251
!--]	-11252
(88)	-11253
1006	-11254
1007	-11255
6)//	-11256
6,40	-11257
8&;#	-11258
fect	-11259
foot	-11260
ineG	-11261
ired	-11262
lvul	-11263
serA	-11264
thro	-11265
!--</	-11266
/#0#(	-11267
039;)	-11268
40;&#	-11269
="107	-11270
LCAxM	-11271
_=''.	-11272
compa	-11273
menta	-11274
passw	-11275
rcSet	-11276
ullsc	-11277
▁onha	-11278
9)"></	-11279
;&;#40	-11280
dragst	-11281
mousem	-11282
zIwMDA	-11283
{}."))	-11284
{}[$='	-11285
}');//	-11286
});$("	-11287
}{}*{-	-11288
▁'(.*?	-11289
▁'0:0:	-11290
▁'`"><	-11291
▁(4000	-11292
▁(8000	-11293
▁//**/	-11294
▁11.60	-11295
▁6.000	-11296
▁COLUM	-11297
▁Conte	-11298
▁Heide	-11299
"8	-11300
'8	-11301
'`	-11302
-+	-11303
."	-11304
/[	-11305
2'	-11306
3<	-11307
4>	-11308
95	-11309
9{	-11310
Ea	-11311
FO	-11312
Fo	-11313
NU	-11314
UR	-11315
[2	-11316
],	-11317
`(	-11318
`/	-11319
ah	-11320
bX	-11321
eG	-11322
gr	-11323
iF	-11324
kB	-11325
lN	-11326
nI	-11327
nn	-11328
sO	-11329
uK	-11330
vr	-11331
yS	-11332
{{	-11333
"&#	-11334
$=1	-11335
);>	-11336
-&#	-11337
4('	-11338
Eve	-11339
NTE	-11340
blc	-11341
han	-11342
lVG	-11343
laW	-11344
lla	-11345
mas	-11346
onF	-11347
oun	-11348
ruc	-11349
tac	-11350
teB	-11351
vid	-11352
vol	-11353
▁..	-11354
▁1/	-11355
▁Ac	-11356
">">	-11357
%22<	-11358
(";"	-11359
(102	-11360
6%25	-11361
;#14	-11362
='%2	-11363
=1%2	-11364
DELE	-11365
EMBE	-11366
_(1)	-11367
ciIH	-11368
focu	-11369
lati	-11370
lend	-11371
pend	-11372
scap	-11373
stro	-11374
uite	-11375
▁Saf	-11376
';!--	-11377
40&;#	-11378
61&#3	-11379
98"><	-11380
assig	-11381
igate	-11382
nsfor	-11383
▁VARC	-11384
▁dele	-11385
10&#10	-11386
657273	-11387
criptA	-11388
loaded	-11389
▁Marke	-11390
▁autop	-11391
▁dashe	-11392
▁decla	-11393
▁explo	-11394
▁onSta	-11395
▁onbeg	-11396
▁onbou	-11397
▁onemp	-11398
▁onfor	-11399
%;	-11400
'*	-11401
'?	-11402
*-	-11403
*3	-11404
,@	-11405
-]	-11406
0{	-11407
4]	-11408
7,	-11409
9)	-11410
96	-11411
@"	-11412
AP	-11413
LG	-11414
Ma	-11415
Nw	-11416
PG	-11417
Ty	-11418
VR	-11419
[>	-11420
kq	-11421
mH	-11422
pR	-11423
rh	-11424
uo	-11425
vK	-11426
zF	-11427
&&<	-11428
116	-11429
6%2	-11430
680	-11431
8);	-11432
9;"	-11433
Nlo	-11434
Scx	-11435
din	-11436
dro	-11437
ext	-11438
fic	-11439
geh	-11440
nta	-11441
oty	-11442
ptA	-11443
rcS	-11444
riP	-11445
rna	-11446
veX	-11447
vro	-11448
wge	-11449
}),	-11450
▁SR	-11451
//\\	-11452
24">	-11453
46&#	-11454
=1;#	-11455
=\"0	-11456
dmin	-11457
figc	-11458
heck	-11459
keyp	-11460
ntLo	-11461
oner	-11462
onto	-11463
pasg	-11464
tico	-11465
27003	-11466
33"><	-11467
;&#09	-11468
="420	-11469
EXIST	-11470
eshow	-11471
gable	-11472
kgrou	-11473
modif	-11474
nerHT	-11475
ouseo	-11476
▁inse	-11477
(1)//]	-11478
]+[])[	-11479
addlog	-11480
mation	-11481
▁datab	-11482
▁onsto	-11483
▁ontog	-11484
▁ontra	-11485
▁onunh	-11486
▁queri	-11487
▁requi	-11488
▁srcse	-11489
▁syste	-11490
▁tabna	-11491
▁works	-11492
")>\";'	-11493
";;';>;	-11494
">">"*"	-11495
%22)[%3	-11496
%27)%22	-11497
%27,%20	-11498
%64(%64	-11499
"*	-11500
"5	-11501
#\	-11502
'%	-11503
0]	-11504
5'	-11505
8"	-11506
98	-11507
:"	-11508
CH	-11509
DC	-11510
DR	-11511
Dt	-11512
Et	-11513
Jz	-11514
Na	-11515
OF	-11516
SI	-11517
TH	-11518
WI	-11519
YW	-11520
bf	-11521
cd	-11522
mx	-11523
pW	-11524
tv	-11525
vn	-11526
wU	-11527
xv	-11528
})	-11529
}/	-11530
&#0	-11531
1//	-11532
9%6	-11533
:..	-11534
ARC	-11535
HRy	-11536
Src	-11537
WQg	-11538
dGx	-11539
inv	-11540
mns	-11541
naH	-11542
nlo	-11543
nva	-11544
onu	-11545
ore	-11546
ous	-11547
roo	-11548
ump	-11549
▁AD	-11550
▁sh	-11551
#000	-11552
',+'	-11553
//14	-11554
10&#	-11555
6,10	-11556
9006	-11557
=";>	-11558
Lazy	-11559
OULD	-11560
crea	-11561
jcml	-11562
lect	-11563
ncau	-11564
noem	-11565
orma	-11566
wMCc	-11567
▁""*	-11568
";)';	-11569
-->]]	-11570
//"><	-11571
00027	-11572
34957	-11573
;&#13	-11574
datab	-11575
keyge	-11576
sline	-11577
tabin	-11578
▁oner	-11579
00000)	-11580
111)</	-11581
intext	-11582
templa	-11583
▁&#039	-11584
%65(%74	-11585
&#115&#	-11586
&#11;&#	-11587
&#32;&#	-11588
&#46&#1	-11589
')/***/	-11590
'/*"/*/	-11591
(%22%63	-11592
('&#49;	-11593
('1'))>	-11594
()%2520	-11595
(.*%253	-11596
(1)))//	-11597
(1)-%27	-11598
(120,61	-11599
$)	-11600
&(	-11601
+>	-11602
0*	-11603
?\	-11604
El	-11605
Ga	-11606
Mi	-11607
Nj	-11608
No	-11609
SP	-11610
TO	-11611
Wh	-11612
eO	-11613
eh	-11614
hy	-11615
kU	-11616
lg	-11617
mg	-11618
my	-11619
nE	-11620
nW	-11621
nh	-11622
oM	-11623
sS	-11624
tP	-11625
tU	-11626
ux	-11627
vt	-11628
yI	-11629
}`	-11630
&#7	-11631
/*"	-11632
1="	-11633
2)>	-11634
20)	-11635
6&#	-11636
97,	-11637
;')	-11638
=1%	-11639
Cou	-11640
LjA	-11641
UES	-11642
YXR	-11643
abn	-11644
cre	-11645
cri	-11646
ele	-11647
ent	-11648
fre	-11649
isp	-11650
lyp	-11651
mee	-11652
mpo	-11653
nee	-11654
oca	-11655
owe	-11656
pte	-11657
taT	-11658
tem	-11659
tta	-11660
000/	-11661
0010	-11662
02%0	-11663
1%64	-11664
7&;#	-11665
=".<	-11666
WSRC	-11667
allT	-11668
gesh	-11669
mall	-11670
onti	-11671
qual	-11672
rati	-11673
ulti	-11674
vbXB	-11675
vean	-11676
▁dec	-11677
▁onr	-11678
%22%2	-11679
(45))	-11680
2\164	-11681
33)//	-11682
46,10	-11683
ckbox	-11684
cture	-11685
tanda	-11686
ticol	-11687
%20%27	-11688
(83)))	-11689
123%22	-11690
▁<>"'%	-11691
(133)//	-11692
)/)[1])	-11693
);//<</	-11694
){_/**/	-11695
*//*");	-11696
,1,1)='	-11697
,1,1,1;	-11698
,111,99	-11699
!"	-11700
!/	-11701
!=	-11702
"(	-11703
$'	-11704
-3	-11705
./	-11706
/]	-11707
8/	-11708
9'	-11709
9-	-11710
:%	-11711
:*	-11712
Aj	-11713
Br	-11714
Bs	-11715
Dj	-11716
Ds	-11717
FL	-11718
NX	-11719
XT	-11720
`&	-11721
eR	-11722
gd	-11723
hd	-11724
nl	-11725
oD	-11726
oS	-11727
pS	-11728
sR	-11729
yo	-11730
zw	-11731
▁j	-11732
▁q	-11733
%%2	-11734
&(1	-11735
)>;	-11736
//1	-11737
00,	-11738
101	-11739
2")	-11740
2><	-11741
337	-11742
4">	-11743
>"'	-11744
LEC	-11745
api	-11746
arc	-11747
bro	-11748
dim	-11749
lei	-11750
pin	-11751
pts	-11752
sul	-11753
vin	-11754
xti	-11755
▁do	-11756
0044	-11757
0055	-11758
0078	-11759
39;)	-11760
cont	-11761
harA	-11762
hend	-11763
orke	-11764
tali	-11765
tera	-11766
uted	-11767
▁log	-11768
,112,	-11769
//></	-11770
1]%29	-11771
2\007	-11772
53005	-11773
55)">	-11774
:*/=1	-11775
="119	-11776
cious	-11777
ouseU	-11778
ouseW	-11779
▁dyns	-11780
▁only	-11781
Transf	-11782
figcap	-11783
foreco	-11784
itionc	-11785
mousee	-11786
mousew	-11787
yEvent	-11788
,112,97	-11789
,116,99	-11790
,117,10	-11791
,97,108	-11792
."),(""	-11793
.10.1.2	-11794
/%27%28	-11795
/+/"/+/	-11796
/130180	-11797
0"><!--	-11798
0000039	-11799
!+	-11800
"-	-11801
"\	-11802
'_	-11803
+[	-11804
,:	-11805
.4	-11806
/%	-11807
8[	-11808
9}	-11809
<&	-11810
?)	-11811
Ba	-11812
Bv	-11813
Hd	-11814
Hs	-11815
IR	-11816
Il	-11817
Iv	-11818
Ra	-11819
Rv	-11820
To	-11821
Ux	-11822
Vj	-11823
WU	-11824
Ww	-11825
XL	-11826
YT	-11827
_/	-11828
cp	-11829
eX	-11830
gY	-11831
jo	-11832
lI	-11833
lK	-11834
lf	-11835
pI	-11836
sN	-11837
tR	-11838
wl	-11839
xI	-11840
xz	-11841
(''	-11842
*))	-11843
0">	-11844
202	-11845
4//	-11846
9',	-11847
:=_	-11848
;()	-11849
;]]	-11850
InR	-11851
NXN	-11852
ROU	-11853
Ski	-11854
Wxs	-11855
abi	-11856
cod	-11857
emp	-11858
hei	-11859
oci	-11860
ssa	-11861
teV	-11862
tey	-11863
tin	-11864
▁'7	-11865
▁AN	-11866
%205	-11867
(\61	-11868
1'='	-11869
9,11	-11870
CONT	-11871
RiPt	-11872
alog	-11873
bers	-11874
difi	-11875
setC	-11876
stru	-11877
tchE	-11878
zdCg	-11879
▁HRE	-11880
▁MjA	-11881
▁nav	-11882
000))	-11883
47"><	-11884
55"><	-11885
="1"/	-11886
AcgBy	-11887
adyst	-11888
foret	-11889
▁heig	-11890
&#40;'	-11891
??????	-11892
MouseW	-11893
]((+{}	-11894
ousele	-11895
▁isTru	-11896
0000088	-11897
0000101	-11898
0000105	-11899
"`	-11900
$,	-11901
+!	-11902
,6	-11903
-\	-11904
.'	-11905
.6	-11906
/$	-11907
4(	-11908
t	-11909
e	-11910
a	-11911
▁	-11912
r	-11913
o	-11914
n	-11915
s	-11916
i	-11917
l	-11918
>	-11919
<	-11920
"	-11921
d	-11922
=	-11923
c	-11924
/	-11925
1	-11926
u	-11927
m	-11928
)	-11929
(	-11930
p	-11931
b	-11932
x	-11933
g	-11934
y	-11935
f	-11936
0	-11937
;	-11938
v	-11939
:	-11940
h	-11941
'	-11942
-	-11943
&	-11944
k	-11945
S	-11946
.	-11947
2	-11948
}	-11949
{	-11950
\	-11951
T	-11952
C	-11953
w	-11954
E	-11955
j	-11956
#	-11957
6	-11958
3	-11959
R	-11960
8	-11961
%	-11962
]	-11963
I	-11964
A	-11965
4	-11966
7	-11967
L	-11968
M	-11969
X	-11970
,	-11971
5	-11972
@	-11973
[	-11974
9	-11975
q	-11976
D	-11977
N	-11978
_	-11979
P	-11980
O	-11981
*	-11982
F	-11983
+	-11984
B	-11985
`	-11986
G	-11987
H	-11988
!	-11989
Y	-11990
U	-11991
z	-11992
?	-11993
W	-11994
V	-11995
J	-11996
$	-11997
K	-11998
Q	-11999
